<s>
<pad>
</s>
<unk>
<mask>
!
"
#
$
%
&
'
(
)
*
+
,
-
.
/
0
1
2
3
4
5
6
7
8
9
:
;
<
=
>
?
@
A
B
C
D
E
F
G
H
I
J
K
L
M
N
O
P
Q
R
S
T
U
V
W
X
Y
Z
[
\
]
^
_
`
a
b
c
d
e
f
g
h
i
j
k
l
m
n
o
p
q
r
s
t
u
v
w
x
y
z
{
|
}
~
¡
¢
£
¤
¥
¦
§
¨
©
ª
«
¬
®
¯
°
±
²
³
´
µ
¶
·
¸
¹
º
»
¼
½
¾
¿
À
Á
Â
Ã
Ä
Å
Æ
Ç
È
É
Ê
Ë
Ì
Í
Î
Ï
Ð
Ñ
Ò
Ó
Ô
Õ
Ö
×
Ø
Ù
Ú
Û
Ü
Ý
Þ
ß
à
á
â
ã
ä
å
æ
ç
è
é
ê
ë
ì
í
î
ï
ð
ñ
ò
ó
ô
õ
ö
÷
ø
ù
ú
û
ü
ý
þ
ÿ
Ā
ā
Ă
ă
Ą
ą
Ć
ć
Ĉ
ĉ
Ċ
ċ
Č
č
Ď
ď
Đ
đ
Ē
ē
Ĕ
ĕ
Ė
ė
Ę
ę
Ě
ě
Ĝ
ĝ
Ğ
ğ
Ġ
ġ
Ģ
ģ
Ĥ
ĥ
Ħ
ħ
Ĩ
ĩ
Ī
ī
Ĭ
ĭ
Į
į
İ
ı
Ĳ
ĳ
Ĵ
ĵ
Ķ
ķ
ĸ
Ĺ
ĺ
Ļ
ļ
Ľ
ľ
Ŀ
ŀ
Ł
ł
Ń
Ä±
ar
er
Ã¼
an
in
ÅŁ
Ġb
en
Ä±n
il
ir
ÄŁ
Ġk
Ã§
Ġd
Ġs
al
Ġy
ak
Ġg
lar
Ã¶
ek
el
Ġo
Ġv
et
ma
la
Ġt
Ġi
da
un
de
ler
Ġve
Ġh
or
es
iy
ay
iz
at
im
ik
em
on
Ä±r
Ġbir
âĢ
ur
as
ĠB
ed
Ġm
Ã¼n
lÄ±
Ġol
ĠÃ§
ul
aÅŁ
Ã¼r
is
ĠA
am
ey
ap
Ä±m
iÅŁ
Ġa
it
ĠK
Ä±l
le
Ä±ÅŁ
Ġil
ĠÃ¶
Ġde
Ä°
ah
Ä±z
um
ĠS
az
âĢĻ
Ä±k
Ġp
ĠT
li
ab
dan
ĠM
ĠiÃ§
Ġf
Ä±nda
ya
st
aÄŁ
lan
Ġal
Ã¼z
ad
ĠgÃ¶
ok
larÄ±n
ini
inde
ine
ev
Ġyap
ĠÅŁ
Ġn
ol
di
dÄ±
larÄ±
ĠD
Ġar
du
ce
Ġbu
den
esi
mas
ĠÄ°
ĠÃ
Ã¼k
ĠE
uz
ĠH
leri
uy
ĠY
ĠiÃ§in
iler
Ã¼m
alar
eler
mak
Ġda
Ġ1
ĠG
ti
iyor
Ġ2
Ä±y
Ġile
Ä±nÄ±
af
Ġz
Ġr
cak
ĠgÃ¶r
Ã¼l
ÅŁt
Ġed
ÄŁi
inin
ĠbaÅŁ
..
Ä±s
lik
Ġet
ec
dir
ut
oÄŁ
Ä±na
Ġan
iye
ilir
eÃ§
Ġson
ilm
Ġver
Ġkar
uk
Ã¶n
ĠP
Ġgel
iniz
us
Ġger
tÄ±
ekt
dÄ±r
ez
eb
ĠÃ¶n
Ã¼y
lÄ±k
ta
larak
ÄŁÄ±
ĠO
len
Ġin
Ġoldu
Ġkon
Ġ(
Ġc
av
Ġolarak
ip
ib
ro
Ġay
Ġbil
Ġtar
Ġen
eÅŁ
ĠâĢ
masÄ±
cÄ±
ĠF
Ä±ndan
ĠdeÄŁ
man
lay
tÄ±r
ĠiÅŁ
Ġolan
ĠC
Ġyer
ĠÃ§ok
lem
ra
mÄ±ÅŁ
uÅŁ
Ã¼ÅŁ
Ã¼rk
anÄ±
aha
edi
te
Ġbul
op
se
tan
imiz
Ġkul
unu
Ġkal
lu
asÄ±
Ġist
Ä±yor
Ġkad
ĠBu
Åŀ
Ã¶r
Ä±nÄ±n
Ã¶y
om
ibi
ih
ĠgÃ¼n
Ġe
eni
ca
ĠaÃ§
Ġor
Ġkur
Ġkullan
yon
ama
ark
Ġ20
Ġdaha
ili
ĠsÃ¼r
ĠÃĩ
âĢĿ
ĠyÄ±l
Ġher
alÄ±ÅŁ
me
ĠolduÄŁ
isi
tir
lerin
aki
Ġuy
eki
alÄ±
laÅŁ
ĠR
Ġvar
Ġbel
ki
ĠgeÃ§
ÄŁr
Ġgibi
Ġma
san
ĠÃ§Ä±k
aman
ĠN
ĠyaÅŁ
ĠÃ§alÄ±ÅŁ
aÃ§
ĠâĢľ
Ġken
Ġyar
ĠTÃ¼rk
ic
ilen
Ä±mÄ±z
Ä±lÄ±
ĠÃ¼z
eli
ĠÃĸ
eye
ada
malar
os
mek
eden
Ġbulun
ers
eh
lama
ken
ist
Ã¼t
met
ĠÃ¼zer
ecek
eri
Ġon
Ġ3
unda
Ġel
let
ĠÃ¶z
ru
miÅŁ
Ã¶z
Ġgerek
sa
Ä±nÄ±z
ĠsaÄŁ
iyet
Ä±lan
lÃ¼
ĠV
00
Ġek
gi
ece
Ġkadar
inden
Ġsay
ĠÅŀ
oy
iyle
daki
Ã¶l
Ã¢
Ġyaz
ĠAn
ot
ac
ĠyÃ¶n
Ġzaman
Ġu
Ġsor
ep
Ġola
Ġdur
Ġkay
Ġtek
'd
Ġpro
aya
ans
ade
ĠL
ĠkarÅŁ
arak
asÄ±nda
men
Ġoy
...
id
lara
Ġhal
aÅŁk
if
Ã¼c
Ġad
Ã¼yÃ¼k
Ġtop
Ġdev
ĠdÃ¼ÅŁ
Ġtaraf
edir
Ġak
Ġkat
Ġsonra
ef
ĠdoÄŁ
oc
Ġ201
unun
larÄ±nÄ±
erk
ĠÃ¼r
Ġuyg
may
Ġsah
ede
erek
art
Ġama
maya
imi
aÄŁÄ±
ĠÅŁek
Ġise
Ġyan
Ġkap
dÄ±ÄŁ
Ã¼Ã§
iÃ§
Ġben
uÅŁt
ĠdÃ¶n
lam
ĠU
ÄŁer
arÄ±
nin
deki
siniz
yi
ĠÃľ
ÄŁini
Ġhay
Ġ-
uyor
lerini
Ġbelir
Ġ"
dÄ±ÄŁÄ±
Ġsiz
Ġl
Ġhak
ara
Ã¼s
abilir
Ä±yla
Ġalan
ĠÃ¶ÄŁr
Ġat
est
Ġyak
iv
tad
ĠÃ¶zel
Ġev
Ġveya
eleri
dÃ¼r
elik
Ġ4
dÄ±m
esinde
sel
kin
ci
ĠgerÃ§
Ġyeni
larda
Ä±sÄ±
Ġsev
ĠkiÅŁ
Ġtak
ram
una
ĠdÃ¼z
ildi
ley
Ġ5
Ġuz
lere
ter
Ġne
Ġkend
Ä±la
Ġgir
Ġgen
ĠbÃ¼yÃ¼k
ĠyÃ¼z
Ġden
ĠTÃ¼rkiye
Ġilg
Ġinsan
Ġbak
ster
ĠAl
tadÄ±r
izmet
cu
etim
ektedir
iyat
Ġort
ÄŁit
od
acak
emiz
Ġyol
iÅŁtir
Ġhem
ĠBir
tr
ĠÃ¶nem
ĠbÃ¶l
Ġok
ĠAr
Ġbiz
Ġes
Ġilk
Ä±p
anlÄ±
ÅŁtir
ĠaÃ§Ä±k
ĠyÃ¼k
ĠtarafÄ±ndan
ĠdeÄŁil
ĠbaÄŁ
ĠgÃ¶re
maktadÄ±r
ĠsÃ¶y
sun
ÄŁu
ne
Ġko
Ġdo
Ġki
ĠÅŁekil
Ġdurum
Ġfark
lat
bilir
Ġhar
ĠBaÅŁk
Ġiz
Ġtarih
eyi
ĠgÃ¶ster
Ġas
aat
uh
enin
Ġiyi
ĠseÃ§
ĠolduÄŁu
ĠgerÃ§ek
asyon
ran
uÅŁtur
leÅŁ
Ġhizmet
ebilir
Ġder
liÄŁi
Ġser
mesi
larÄ±nÄ±n
bir
oz
tik
ten
ileri
Ġyet
ĠkarÅŁÄ±
ĠI
etir
tÄ±k
Ġyok
Ġsan
Ġolma
aret
up
dur
Ġpar
Ġalt
anÄ±n
Ã¼zel
re
Ã¼v
rÄ±
Ã¼st
Ġot
ĠÅŁekilde
Ġih
alÄ±k
Ġya
nÄ±
aber
nÄ±n
ĠÃ¶ÄŁren
ĠtÃ¼m
ÄŁitim
Ġmil
Ġgetir
ĠgÃ¶z
Ġbilg
ret
Ġhas
Ä±mÄ±
ĠsÄ±r
Ġneden
istem
Ä±cÄ±
raf
ĠAy
ĠKur
larÄ±na
iÄŁer
lerde
ĠÃ¼l
erkez
Ġilgili
olo
leÅŁtir
ĠmÃ¼
ocuk
Ġkaz
Ġtut
ĠdÃ¼n
ĠsÃ¶z
ĠÃ§ek
Ġsahip
ĠEr
20
tar
ĠdeÄŁer
ulu
Ġaz
ĠdÃ¼ÅŁÃ¼n
esine
ĠÅŁey
Ġdevam
ĠZ
ĠyapÄ±l
dÄ±k
bul
ayan
ka
Ã¼yor
Ġ6
lah
por
ï¿
ï¿½
iyorum
Ġhaz
Ãľ
der
Ã¼ven
ob
han
Ġter
Ġis
ĠÃ¶nemli
lendir
ĠdÃ¼zen
ĠÄ°n
ĠolduÄŁunu
Ġsu
siz
Ġetti
si
Ġyay
Ġ19
Ġfaz
Ã§e
usu
lerinin
Ġsat
ĠÄ°l
âĢ¦
eniz
Ġbin
ÄŁiniz
dÃ¼
ilik
esini
ĠÃ¼lk
lerine
ĠalÄ±n
oloj
ĠBel
ĠtaÅŁ
ĠgÃ¼zel
lÄ±ÄŁ
ĠkÄ±s
ĠiÃ§er
Ġbirlik
Ġede
Ġduy
Ã§a
Ġsonu
stan
ĠiÃ§inde
Ġfazla
larÄ±nda
Ã¶yle
Ġbas
Ġhayat
Ġetm
sÄ±z
ĠÃ¼rÃ¼n
azÄ±
sek
Ġolur
ĠarasÄ±nda
ĠÃ¶nce
Ġsit
Ġiki
alan
Ã¼nde
esin
ula
Ġsun
ide
iÅŁim
gÃ¼n
dik
Ġkor
Ġsistem
likle
Ġzor
maz
ayÄ±
ĠaÅŁ
lardan
Ä±ndaki
ĠhazÄ±r
Ġhakk
ig
ĠbaÅŁla
ehir
Ġdiye
Ġtes
gram
ĠdÄ±ÅŁ
ĠhiÃ§
Ġ7
alarÄ±
Ġbek
ĠÃĸz
ĠÃ¶l
eÄŁ
stanbul
Ġtan
Ġkab
emek
Ġim
diÄŁi
Ġhat
Ġoyun
Ġark
ĠyaptÄ±
Ġada
eyen
ĠdiÄŁer
Ġetk
mÄ±ÅŁtÄ±r
ilecek
Bu
Ġtem
Ġgelen
Ãĸ
tÃ¼r
Ġkonu
ĠGen
Ã½
ub
ledi
ilmesi
rup
liÄŁ
ĠAk
adece
Ã¼p
ĠdÃ¶nem
Ġbirlikte
lÄ±ÄŁÄ±
ulan
ye
Ġolmak
osy
ĠMÃ¼
ĠaÄŁ
ĠfarklÄ±
ektir
ĠaynÄ±
ĠBak
Ġ,
ĠkÃ¶
eti
uv
Ġsaat
cel
Ġkim
Ġmes
iyon
asÄ±l
Ġkazan
malarÄ±
Ġdik
Ġboy
Ã¼nÃ¼
ĠÃ¶r
ĠyapÄ±lan
Ġolacak
oÅŁ
Ġbur
yor
Ġdil
ĠeÅŁ
Ġeden
ivers
larla
ĠÃ§ocuk
ĠiÅŁlem
ĠKar
bet
Ġ10
ilerin
meye
Ãĩ
iversit
asar
olu
ika
Ġdedi
Ġbelirt
Ã¼tÃ¼n
mektedir
lerinde
ĠgÃ¼ven
og
ana
Ġyat
Ġ8
kÃ¼
dar
ĠEn
ÄŁimiz
Ġif
ĠÃ¼st
eme
ĠdoÄŁru
ĠgÃ¶rÃ¼n
abilirsiniz
luk
iyoruz
ĠgÃ¶rev
Ġkan
Ġhaf
ĠbÃ¶lg
masÄ±nÄ±
ĠÃ¶nc
adaÅŁ
Ġtama
nun
ilece
Ġsen
Ġkendi
ĠiliÅŁ
201
muÅŁ
Ġkit
Ġmal
ĠÃ§Ä±kar
Ġtel
orm
ĠÄ°stanbul
larÄ±mÄ±z
Ä±t
ĠtÃ¼r
Ä±zÄ±
ĠBaÅŁkanÄ±
isinde
kan
kat
layan
Ġmod
ici
ĠdeÄŁiÅŁ
masÄ±na
net
Ġsadece
hur
Ġbulunan
na
Ġmut
Ã¼ne
ĠsÄ±k
iyas
Ġtekn
lak
ÄŁÃ¼
Ġkam
Ġtab
ahat
Ġkarar
ĠPro
ĠÄ°s
irk
Ġiht
Ġdav
Ġer
ĠnasÄ±l
Ġkr
Ġhav
Ġmak
malÄ±
rak
esinin
atÄ±
caÄŁ
dÄ±ÄŁÄ±nÄ±
Ä±rak
ĠBeled
lerden
ort
Ġsal
Ġfiyat
lÃ¼k
Ġuygun
ĠOr
ĠW
ĠKon
ing
ĠyardÄ±m
Ġ:
end
ĠeÄŁitim
Ġbun
Ġbit
acaÄŁ
Ġeder
ektÃ¶r
Ã®
Ġgid
ĠulaÅŁ
enk
iliyor
Ġgit
laÅŁt
okt
sÄ±
estek
usunda
umhur
tÃ¼
ĠolmasÄ±
Ġ0
Ġkurul
Ġolduk
sam
gu
eket
Ġart
ER
gil
ĠJ
Ġproj
ĠBil
avaÅŁ
ĠarkadaÅŁ
ĠAv
ĠâĢĺ
unuz
mayÄ±
ĠoluÅŁtur
lanan
ĠÃ§ev
Ġ9
ĠbÄ±rak
Ġfir
ĠgÃ¶n
mi
ĠyÃ¼ksek
uma
Ġbah
Ġmad
bar
AN
Ġte
van
Ä±ÄŁ
ĠÃľn
Ġdikkat
Ġdem
ĠÄ°ÅŁ
hal
ĠyÃ¼r
osyal
Ġprogram
lerinden
orum
ĠÃ¼zere
Ġce
Ġik
ĠgÃ¼Ã§
sal
lerle
tal
ÄŁim
ri
Ġgenel
aba
Ã¼mÃ¼z
Ġbile
gel
ĠgerÃ§ekleÅŁtir
duÄŁu
Ġem
Ġ'
anda
ĠkonuÅŁ
ĠÃ¼zerine
AR
Ġpay
Ġbiri
elerin
mayan
oÄŁlu
ĠkaÃ§
larÄ±ndan
Ġedilm
ĠÃ¼y
ĠGenel
kÄ±
leme
ĠÃ¼ret
ĠhakkÄ±nda
rÄ±ca
ĠoluÅŁ
ge
Ġkayn
ĠkadÄ±n
lenen
Ġdestek
Ġ#
ĠyÄ±lÄ±nda
ĠÃ¼zerinde
lum
lerimiz
ov
edik
Ġsorun
umuz
aÅŁtÄ±r
ent
Ġfilm
ĠMÃ¼dÃ¼r
ĠgeÃ§ir
urt
ĠhÄ±z
ĠÃ§Ã¶z
Ã§i
Ä±rÄ±m
Ġkolay
ĠMil
Ġmerkez
Ġanlam
aj
Ġdin
elim
ant
Ġuzun
fa
ĠbÃ¼tÃ¼n
ĠbÃ¶lÃ¼m
acÄ±
rar
Ġihtiy
ĠbazÄ±
Ã§Ä±
ĠBaÅŁ
Ġ15
Ġmuh
Ä±lÄ±r
ile
Ã¼nkÃ¼
efon
gan
sik
Ġ200
Ä±ldÄ±
onom
ÄŁin
ali
ĠyÃ¶net
tÄ±m
Ġtam
Ġfa
manÄ±n
ĠSon
ĠbaÅŁka
Ġoyn
Ġhast
Ġtasar
Ġtamam
akat
ĠteÅŁ
Ġseb
ĠbaÅŁar
ĠBur
Ġun
Ġmet
ĠEk
Ã§ok
sin
Ġortaya
Ġbilgi
Ġres
irket
ĠÃ¼n
Ġgeldi
siyon
Ä±lmasÄ±
Ġkoy
ĠsÄ±
mer
Ã¼Ã§Ã¼k
Ġhep
Ġ%
ver
tif
uru
ĠÃ¼Ã§
ĠsaÄŁla
Ä±lÄ±m
ĠÃ¶ÄŁrenc
Ġsonr
inizi
ank
Ã¼ltÃ¼r
ĠBen
Ġhareket
Ġkabul
mam
Ġkes
rik
oÄŁraf
Ġplan
ĠgeliÅŁ
Ġmev
dÄ±ndan
azar
gÄ±
ĠTek
ĠÃľniversit
ĠdÃ¼ny
ĠyaÅŁam
Ġhaber
Ġediyor
Ä±lacak
ĠAllah
Ã¶k
Ġifade
yla
suz
Ġbey
min
Ġmi
ĠyayÄ±n
ĠgÃ¶rÃ¼ÅŁ
ĠGÃ¼n
Ġkom
meler
Ġw
bol
eÅŁit
ĠkÄ±z
ayÄ±n
eg
ĠYÃ¶n
sanÄ±z
miÅŁtir
res
ĠCumhur
ĠyakÄ±n
Ġhes
ĠkiÅŁi
Ġyas
Ġrahat
tem
dum
Ġedilen
Ġolabilir
ĠMerkez
Ġtah
trol
isini
dav
mir
Ġolay
Ġpol
gin
Ġbenim
Ġziy
kara
ĠKan
ĠEs
ber
Ġayr
anlÄ±ÄŁÄ±
istan
duÄŁ
com
ĠbÃ¶yle
ĠgÃ¶nder
mez
dim
ĠSan
ĠsaÄŁlÄ±k
asÄ±na
Ġtelefon
Ġ|
indeki
ĠÃ§alÄ±ÅŁmalar
Ġhan
Ġyapan
ĠyÃ¼zde
madan
ĠiÃ§erisinde
nde
Ġ/
uÄŁ
ĠÅŁu
per
Ġterc
Ġla
Ġyerine
Ġkav
isine
Ġancak
ĠaraÃ§
ele
Ġuygula
ĠAt
Ä±nÄ±r
undan
Ä±yorum
ĠYar
ĠdÃ¼nya
Ġbilin
ĠDev
tÄ±ÄŁ
ize
edef
ĠÃ¼c
ĠHal
tur
Ġkonusunda
Ġkapsam
ekten
ĠkÄ±r
cek
ĠdeÄŁerlendir
ĠPar
Ġkalit
),
ĠÃ¼cret
Ġtur
nek
ĠsonuÃ§
ekte
amaz
Ã¼ÅŁt
lÄ±yor
ternet
ĠvardÄ±r
Ġman
det
oÄŁan
ĠardÄ±ndan
ĠyaklaÅŁ
ÂŃ
imdi
ĠYÄ±l
ĠAB
Ġanlat
ĠAncak
Ġdolay
ekli
Ġtal
ĠAma
ĠÃ§eÅŁit
Ã¼kÃ¼m
arasÄ±
yacak
ĠHer
leyen
Ġ12
oh
Ġistedi
.âĢĿ
ilere
ĠEl
ĠEÄŁitim
Ġam
landÄ±r
Ã¼nÃ¼n
ĠAs
Ġkurum
ÂĴ
Ġetmek
Ġmilyon
ĠEv
uluk
Ġkez
Ġyarat
unca
Ġdiy
Ġindir
Ä±da
ekk
azet
ĠbirÃ§ok
rupa
Ġinan
oÄŁu
las
ĠbÃ¼y
TÃ¼rk
ĠbugÃ¼n
Ġisim
ĠâĢĵ
uyu
Ġdevlet
Ġmodel
Ä±ÅŁÄ±
ĠgÃ¶rÃ¼l
Ġmey
10
ĠSer
Ġtercih
ĠbaÄŁlÄ±
ust
Ä±lmÄ±ÅŁ
ilmiÅŁ
ĠTar
Ġses
he
ĠartÄ±k
Ä±nÄ±f
erj
19
Ġtat
lo
Ġgelir
Ġkir
Ġziyaret
ĠBÃ¶l
Ġber
Ġmer
sil
Ġhis
ĠgÃ¼nÃ¼
nda
Ã¼b
ĠÂ
Ġtav
Ġiti
oÄŁun
Ġyen
ĠÃ¶de
Ġolsun
izi
ĠYap
yÄ±
otoÄŁraf
Ġkontrol
Bir
ĠgeliÅŁtir
sunuz
ast
ud
ĠkÄ±sa
kÃ¼n
ĠuÃ§
Ġolup
tÄ±ÄŁÄ±
Ġtoplan
ĠyanÄ±
aliyet
ĠbaÅŁv
ĠsektÃ¶r
adÄ±
ĠyaptÄ±ÄŁÄ±
iyesi
Ġerk
akk
ebilirsiniz
kinci
ĠTL
't
alt
Ġyine
Ġdah
Ġhedef
ĠÃĸzel
lim
ĠÅŁirket
Ġ[
ĠDer
ĠaltÄ±nda
uÅŁtu
Ġ2018
ĠpaylaÅŁ
Ġvat
Ġincel
Ġhemen
ĠsÃ¶yledi
ĠgeÃ§en
ĠaÃ§Ä±kla
ĠÃľniversitesi
ĠgenÃ§
ĠaraÅŁtÄ±r
Ġyapmak
mem
ĠyaÅŁan
Ġait
iyi
anlar
ĠyaÄŁ
Ä±yoruz
etmen
Ġrenk
obil
ari
Ġsize
ĠBÃ¼yÃ¼k
umu
Ã¼cad
erli
Ġmem
Ġtoplum
ĠÄ°z
Ġkol
abÄ±
ĠMah
Ġkitap
Ġitibar
ĠmaÃ§
ĠmÄ±
alama
eyin
ĠseÃ§im
Ġbenz
br
Ġsosyal
uslar
Ġvur
Ġkaynak
duk
ayet
ĠfÄ±r
laÅŁtÄ±r
Ġzamanda
emm
ĠmÃ¼m
Ġtr
Ã¼sÃ¼
Ġkil
ĠDÃ¼n
Ġadam
Ġmas
edim
ĠmÃ¼ÅŁt
ĠBiz
ĠTop
Ġherk
Ġbar
asÄ±nÄ±
ĠkÃ¼Ã§Ã¼k
ĠsÃ¼re
Ġtemiz
Ġbunu
Ġid
ET
ĠoldukÃ§a
Ġcev
manÄ±z
Ġ18
ĠilÃ§
oloji
ost
Ġli
Ġzar
ale
ĠhiÃ§bir
An
isinin
aban
Ġgeri
ecektir
Ġekonom
tiÄŁi
Ġmark
tiv
ch
Ġders
za
Ġpek
ĠOn
Ġgereken
ĠÃ¼zerinden
ĠtakÄ±m
Ġuygu
dÄ±n
ÅŁte
amp
Ġanla
ĠsÄ±nÄ±r
tin
ĠtanÄ±
lÃ¼ÄŁÃ¼
Ġdir
Ġserv
ĠAvrupa
Ġ.
gÄ±n
ÄŁinde
Ġverdi
Ġsab
Ġveren
Ġadet
ag
Ġpara
for
ĠmÃ¼z
andaÅŁ
Ġonun
ĠdeÄŁiÅŁik
ani
ilmek
Ġokul
ĠmÃ¼mkÃ¼n
isyon
Ġyorum
Ġdak
Ġilet
tim
Ġper
ĠDr
Ä±ntÄ±
dana
bu
Ġhalk
umlu
Ġetkin
of
ĠAnkara
din
Ġbiraz
Ġmu
uyla
Ġtedav
ĠÃĸÄŁr
Ġhafta
elen
hangi
cÃ¼
bak
Ġtekrar
Ġ11
ĠHaz
masÄ±nÄ±n
Ġbildir
Ġoluyor
lemek
ĠÃ¶zellik
alarÄ±n
Ġbizim
Ġnokt
Ġeski
ni
Ġtakip
âĢľ
Ä±sÄ±nda
ĠdeÄŁiÅŁtir
Ġfaaliyet
imizin
Ä±nav
ĠÃ§alÄ±ÅŁan
50
Ġsey
Ġberaber
ĠÅŁeh
fer
baÅŁk
su
Ġele
asÄ±nÄ±n
Ġsiyas
ãģ
ola
ĠmÃ¼cad
ĠiliÅŁk
Ġsoru
ĠÃĸn
AL
eÄŁi
Ä±ma
yle
Ġbirbir
Ġengel
sÄ±nÄ±z
Ġsak
ĠOk
Ġorta
ince
ĠhÃ¼kÃ¼m
ĠKal
Ġuzak
rat
Ġmadde
malÄ±dÄ±r
ĠanlaÅŁ
ĠaÄŁÄ±r
ĠKay
alÄ±m
larÄ±yla
ĠtÃ¼k
Ġsanat
doÄŁan
Ġerkek
ĠyÃ¶ntem
ekkÃ¼r
Ġelde
AK
Ä±sÄ±ndan
ĠyapÄ±
Ġnedeniyle
elere
Ġmik
sman
ĠsavaÅŁ
ker
ĠÃ§evr
ĠkaldÄ±r
erÃ§
ĠbaÄŁlan
ĠÃ§Ã¶zÃ¼m
lek
taj
Ġfay
Ġbana
Ġkesin
Ġul
ĠÄ°Ã§
Ġistem
muÅŁtur
ĠyÃ¶nelik
ren
ime
ĠBunun
ĠfotoÄŁraf
."
000
Ġalmak
yan
Ġkut
ĠÃ¶lÃ§
ĠÃ¶zellikle
Ġuygulan
ĠÃ§aÄŁ
Ġbunun
ĠÃ§alÄ±ÅŁma
Ġspor
Ã¼f
ron
ĠABD
esinden
Ġkonusu
ĠaÅŁaÄŁÄ±
lÃ¼ÄŁ
pr
Ġbor
dak
ĠsÄ±ra
elerini
Ġ30
Ġtemel
deÅŁ
EN
Ġboz
Ġ14
lardÄ±r
Ġmillet
Ġbay
ĠbaÅŁladÄ±
elerde
Ġmed
ĠboÅŁ
Ġdiz
ĠOy
ĠBelediye
ilerini
ĠAyrÄ±ca
iyeti
ĠHas
Ġgez
Ġonu
uslararasÄ±
Ġverm
ĠBaÅŁkan
Ã¼nden
lÃ¼l
Ġsar
ilmektedir
Äŀ
ĠvatandaÅŁ
vet
ĠTur
HP
ĠgeniÅŁ
alat
ĠkoÅŁ
ilerine
Ġgerekir
afa
pan
Ġedildi
tu
ĠEy
Ġmah
ĠyatÄ±rÄ±m
sat
ĠVe
Ġ13
alet
ĠKas
cut
Ġ16
ĠgiriÅŁ
etay
Ġherhangi
ĠKad
ĠHay
Ġinternet
izm
ĠayrÄ±
ĠdeÄŁildir
Ġ...
Ġsayf
ift
Ġortam
ĠkÃ¼ltÃ¼r
onu
ve
esel
Ġac
leriyle
Ġolmayan
ĠBey
ĠyÃ¶netim
ĠparÃ§
ĠraÄŁ
ĠiliÅŁkin
azi
Ġrek
ĠalÄ±ÅŁ
eyim
ĠKo
ĠYeni
Ġnum
dÃ¼ÄŁ
Ġyani
ĠÅŁekl
Ġotur
Ġgerekli
Ġyeniden
Ġner
dÃ¼l
caÄŁÄ±
aten
Ġdair
ukuk
ow
lÄ±nda
eci
ĠadÄ±
Ä±lÄ±yor
ĠKom
ĠsatÄ±ÅŁ
ĠÃĩÃ¼nkÃ¼
itik
isay
ĠÃ§Ä±kan
ĠyÃ¼ksel
sÄ±n
ĠihtiyaÃ§
Ġsil
ĠdolayÄ±
bi
Ġbilm
ÄŁine
ĠÃ§iz
Ġoran
Ã¼cÃ¼
Ġcih
Ġvide
Ġortak
arken
matik
Ġail
ĠÄ°ngil
Ġhesap
ĠraÄŁmen
Ġaras
Ġdol
imize
enek
can
Ġkah
Ä±ÅŁtÄ±r
ĠÅŁart
efer
Ġsav
Ġgrup
ĠbakÄ±m
ĠMerkezi
Ġikinci
ĠKul
masÄ±nda
ĠdÄ±ÅŁÄ±nda
Ġdok
inize
Ġcan
ES
Ġekip
be
ĠÃ¶rg
ĠeÄŁ
ĠhÄ±zlÄ±
inci
larÄ±nÄ±z
Ġyemek
landÄ±
Ã¼ÄŁ
).
icaret
esiyle
12
Ġyal
Ã¼lt
ÅŁam
Ġhiss
ĠNe
ĠSaÄŁ
kil
erson
ĠDevlet
Ġelekt
lis
Ã¼mÃ¼
ĠGÃ¶r
Ġburada
Ġsizin
Ġisteyen
Ġgider
ĠÃ¶ner
ĠAh
ĠgerÃ§ekleÅŁ
EL
Ġaday
ĠMeh
ĠkapsamÄ±nda
AT
isk
mat
ĠkÄ±sm
imde
abilece
ĠinÅŁ
ĠBay
apor
Ġyarar
ĠOt
ĠsÃ¼rdÃ¼r
mal
Ġ17
ĠamaÃ§
30
Ġsek
Ġlis
nÄ±z
Ġbelg
ÅŁehir
meli
Ġiddi
Ġdes
ĠbaÅŁk
ĠÅŁehir
Ġorgan
rim
Ġderece
TÃ¼rkiye
pit
ĠteÅŁekkÃ¼r
ĠaÃ§Ä±klama
ĠyardÄ±mcÄ±
Ġsayesinde
Ä±rken
ĠUy
Ġmalz
ĠsuÃ§
Ġolab
utbol
ĠsaÃ§
Ġunut
cÄ±sÄ±
Ġoda
ĠÃ§eÅŁitli
Ġ2017
Ġolsa
imizi
ĠkullanÄ±cÄ±
ĠsaldÄ±r
Ã»
Ġboyunca
ĠÃ¼retim
isayar
ĠkÃ¶y
Ġcin
ĠsÄ±nÄ±f
ite
ĠAK
meyi
emin
Ġedil
Ġhalinde
enc
ĠtÄ±k
Ġkas
mÄ±ÅŁtÄ±
Ġmek
Ä±nca
Ġdayan
Ġamac
Ã¶rt
ĠÅŀub
Ġuygulama
uvar
Ġister
ĠDaha
Ġsok
dem
Ġmevcut
ĠÃ§ar
Ġuzman
ĠkayÄ±t
Ä±yÄ±
Ġenerj
Ġteknik
Ġedin
emi
ĠuÄŁr
Ġhey
ĠAd
ĠErdoÄŁan
Ġdetay
meden
ĠyoÄŁun
luluk
lilik
Ã¼ler
ĠÄ°lk
ĠtÃ¼rlÃ¼
ĠKurulu
Ġgec
ĠkuruluÅŁ
Ġ24
lk
ĠBelediyesi
abancÄ±
luÄŁ
ĠkullanÄ±l
ĠMuh
Ä±nÄ±zÄ±
ĠiÅŁlet
Ġhava
Ġtoplam
ĠsÄ±cak
yo
Ä°N
ĠTr
ĠDÃ¼nya
Ġsahibi
Ġmez
Ġzarar
vek
ĠTekn
ĠOsman
ĠHar
ĠAli
11
medi
Ġtarihi
ĠMar
Ä±rÄ±
Ġsez
ĠDem
ladÄ±
ĠSay
Ġav
Ġdurumda
talya
ba
Ġbize
uan
taÅŁ
Ġteh
alarda
anlÄ±ÄŁ
ĠEm
ĠyapÄ±lacak
ĠUz
ebek
Ġkork
Ġvak
tep
ĠGel
Ġle
etin
Ä±ÅŁÄ±k
tiÄŁini
Ġistiyor
Ġiy
Ġey
sak
Ġederek
olojik
lÃ¼m
ĠolacaktÄ±r
Ġtalep
ate
ira
Ġof
Ġmen
Ã¾
ĠyanÄ±nda
Ġbeni
elerinin
ĠAb
Ã¼len
Ġtarihinde
ilerinin
gun
ere
Ġsebep
ĠyaklaÅŁÄ±k
Ġverilen
Ġgiy
ĠbiÃ§
makta
ĠaldÄ±
Ġ25
adolu
Ġanda
ĠtasarÄ±m
ĠsÃ¼rekli
mesini
ĠadÄ±m
Ġhale
ĠdoÄŁr
Ġtep
liyor
ĠdoÄŁal
Ġgazet
ãģĤ
bo
Ġdahil
iliÄŁi
ĠHav
ener
ĠSu
ĠYÃ¼k
lÃ¢
ĠdÃ¶nÃ¼ÅŁ
Ġpat
Ġj
Ġdar
yar
ohbet
ĠDo
Ġtespit
ĠcanlÄ±
ĠUl
ãģĤãģĤ
Ġdavran
ĠMehmet
lendi
otor
anÄ±ÅŁ
ĠyÄ±k
asyonu
usal
ĠSur
ĠyazÄ±
imleri
fet
Ġbab
IN
cÄ±lÄ±k
ĠsÄ±nav
dam
ĠettiÄŁi
yum
ĠsayÄ±lÄ±
ĠÃĸr
Ġgeliyor
Ġcevap
ii
Ġpazar
ĠParti
ij
ĠhatÄ±r
ĠyÃ¼rÃ¼t
Ġst
oktor
air
Ġrak
lif
Ġiler
ĠkardeÅŁ
ĠmaÄŁ
endi
Ġfik
ediye
tay
emizde
Ġtemsil
lÄ±ÅŁ
aÅŁÄ±
ĠadÄ±na
fes
Ã¼le
lanmÄ±ÅŁ
Ġnedenle
ĠHat
caÄŁÄ±nÄ±
Ġ100
AS
ĠKasÄ±m
Ġbilgiler
Al
all
Ġhangi
ĠkullanÄ±m
Ġcihaz
iran
dÄ±ÄŁÄ±mÄ±z
Ġip
ĠAmer
alarÄ±nda
Ġkonuda
ĠmÃ¼ÅŁter
mesine
ĠtanÄ±m
atif
ĠÅŁeklinde
ĠÃ¶rnek
iir
Ġbeklen
Ġgerekiyor
lin
Ä°L
kaÃ§
Ġana
ĠÅŁÃ¶yle
ĠKap
ĠaÃ§Ä±sÄ±ndan
adde
ĠRus
ĠBun
ĠÃ¶zg
ĠyarÄ±ÅŁ
ĠvÃ¼c
ĠkÄ±
Ġbayan
Ä±sÄ±nÄ±
ĠiletiÅŁim
osu
Ġpart
elerine
ustafa
Ġkalk
Ben
emmuz
bah
ormal
Ġyurt
Ġedeb
Ġnit
ĠterÃ¶r
Ġsin
Ðµ
ser
Ġgece
Ġona
evi
ĠÃ¼niversit
eder
Ġkalan
abilecek
Ä±sÄ±yla
ilerek
Ġoyuncu
Ġservis
tÃ¶r
Ġsistemi
ĠAlman
amak
ÄŁiz
Ġnak
ĠÄ°zmir
ĠKor
Ġann
lamak
Ġbaz
menin
ĠMay
Ġ2016
inc
Ġcid
Ġbelli
Ġlist
AD
ĠbaÅŁarÄ±lÄ±
ĠÃ¶ÄŁretmen
ĠAÃ§
ĠRes
ĠartÄ±r
ĠkullanÄ±lan
Ä°R
Ġmesaj
AM
Ã¢n
layarak
gisi
Ġtart
Ġdiyor
Ġruh
ĠyaptÄ±ÄŁ
ĠTemmuz
ĠyaptÄ±r
Ä°n
Ġherkes
ĠsaÄŁlan
15
ĠÃ§oc
ĠÅŁimdi
Ġkapat
ĠsÄ±rasÄ±nda
Ġnet
ern
Ġbilim
ĠkarÅŁÄ±la
ĠEÄŁer
Ġit
Ġah
ĠvardÄ±
AB
ĠdÃ¼zenlenen
EM
ĠtÃ¼ket
Ġhik
ĠDoÄŁ
ĠkiÅŁinin
Ġab
Ġban
bilirsiniz
ĠFir
mÃ¼ÅŁ
ĠkÃ¶tÃ¼
luÄŁu
meyen
ĠSÃ¶z
ĠMillet
Ġsonucu
mamÄ±z
mayacak
Ġinsanlar
Ġsig
Ġoku
isel
Ġcam
Ġoper
ayi
Ġdal
Ġkey
Ġpiyas
Ar
fak
ilmiÅŁtir
ĠMÃ¼dÃ¼rlÃ¼ÄŁÃ¼
arkÄ±
ind
Ġkamu
Ġmakin
meleri
izyon
ala
ĠYardÄ±m
Ġham
Ð°
amÄ±z
lÄ±kla
ÄŁe
elikle
ĠyalnÄ±z
EK
line
Ġdon
ĠAnadolu
etler
Ġyum
Ġzorunda
ĠgeÃ§miÅŁ
ĠHalk
ww
Ã¼ncÃ¼
Ġolmaz
Ġperson
ucu
Ġkelim
ĠÄ±s
Ġsonunda
eÅŁil
acaÄŁÄ±
ukarÄ±
Ġbes
Ġvideo
ĠHaber
ĠkatÄ±lÄ±m
elerinde
ĠÅŁah
ĠkonuÅŁtu
Ġweb
Ġrapor
Ġedecek
ansÄ±
Ġkaybet
Ġdep
ĠyÃ¼zden
rafik
Ġetkil
Ġ50
ĠBakanlÄ±ÄŁÄ±
ĠEylÃ¼l
ĠyaptÄ±k
ĠbulunduÄŁu
Ä±mda
emal
ĠYÃ¶net
rac
Ġitibaren
Ġfin
one
ĠHak
neÄŁi
kem
adan
AY
ĠMes
ĠÃ¶yle
ĠgÃ¼venlik
Ġsezon
Ä±nÄ±za
Ä±ldÄ±ÄŁÄ±
ĠsÃ¶yl
Ä±sÄ±na
ĠBar
dÄ±ÄŁÄ±nda
lerce
Ġmeydana
siy
iÅŁi
isan
ĠsÃ¼reÃ§
lÄ±klÄ±
Ġmalzem
Ã¼slÃ¼m
ĠOl
Ġotel
ĠhastalÄ±k
alara
ĠÃ§Ä±ktÄ±
ĠCumhurbaÅŁk
Ġhastan
ĠtartÄ±ÅŁ
ĠSpor
ĠdÃ¼ÅŁÃ¼nÃ¼yor
uÃ§
ĠyÄ±llÄ±k
emez
ĠMustafa
Ġgi
dÄ±z
dÃ¼ÄŁÃ¼
Ä±mÄ±za
Ġmis
ene
Ġyerde
ĠbaÅŁvur
atÃ¼rk
Ġaktar
ĠYayÄ±n
Ä°K
ĠaÅŁk
Ġizle
ĠÃ¶rgÃ¼t
ĠkarÅŁÄ±laÅŁ
Ġtamamen
Ġekran
lerdir
dÄ±klarÄ±
tiÄŁimiz
ĠÄ°st
Ġ199
ĠÃ§Ã¼nkÃ¼
ĠaracÄ±
ati
Ġsebeb
ĠÃľr
Ä±labilir
ĠÃĩok
Ġhukuk
Ġgiz
adem
ĠTak
Ġsizi
Ä±lab
itap
blem
Ä±nÄ±zda
dÃ¼k
....
Ġedilir
liÄŁini
ĠMart
ĠEt
laka
ĠMilli
ĠiÅŁaret
Ġfayd
ina
Ġcez
iri
ĠbulunmaktadÄ±r
ĠoluÅŁan
Ġbula
Ġseviy
Ġizin
200
Ġkaf
ĠsatÄ±n
Ġtip
ga
Ġeser
ĠamacÄ±yla
ĠSiz
Ġanlay
gam
Ġkayb
ĠhoÅŁ
uar
cort
ĠgÃ¼Ã§lÃ¼
Ä±lma
mar
Ġzaten
ĠTab
Ã¼nÃ¼z
Ġayak
Ġvarsa
Ġhayvan
Ġasker
inÃ§
ĠgÃ¼ncel
egor
sen
ĠbirkaÃ§
ĠaldÄ±ÄŁÄ±
ĠFak
ĠÄ°ngiliz
ĠkÄ±y
Ġtarif
Ġgelecek
Ġsol
oda
imler
engin
ĠkatkÄ±
Ġhaline
Ġekonomik
ĠÃ§ift
lenmesi
Ġic
ðŁ
mÄ±yor
Ġkendini
ĠIn
ĠarasÄ±ndaki
zer
UR
Ġkurt
Ġsohbet
ĠYaz
Ġfakat
unan
ĠVer
ĠilaÃ§
imli
Ġdakika
ĠÄ°nsan
ĠMal
ĠbaÅŁvuru
Ġgru
anlÄ±k
ĠYÃ¶netim
ĠayrÄ±ca
forman
Ay
etik
ĠEkim
ĠsÃ¶zleÅŁ
ĠyÄ±lÄ±
.)
Ġbilgisayar
ildiÄŁi
ĠKr
aÅŁa
ĠHaziran
ĠMayÄ±s
amÄ±
alarÄ±nÄ±
Ġyoktur
Ġfutbol
Ġilan
ĠverdiÄŁi
Ġteslim
ĠbaÅŁarÄ±
ĠkiÅŁiler
18
log
Ġverir
Ġimk
ĠyanlÄ±ÅŁ
adÄ±ÄŁ
Ġkart
ĠÃĩalÄ±ÅŁ
Ġstr
aliz
ĠbeÄŁ
ĠaslÄ±nda
ĠKat
hend
Ġbi
ĠDeniz
Ġfor
Ä±mÄ±zÄ±
ĠÃĩocuk
Ġkarak
lulu
Ã¼me
oya
ĠAf
ĠTer
Ġ2015
enler
Ġhizmeti
Ġolmas
Ġyapar
ĠbasÄ±n
Ġistiyorum
Ġvaz
Ġend
Ġsorum
Ġteknoloj
ĠÄ°slam
ĠgerÃ§ekten
ĠYaÅŁ
Ġhatta
Ġtec
med
Ġdeniz
ĠGÃ¼ven
ĠakÄ±l
ĠkoÅŁul
Ġum
Ġgar
Ġyere
ĠalÄ±yor
ĠMec
ĠBah
Ġtesis
2018
eksiyon
Ġciddi
uvvet
ĠgÃ¼nlÃ¼k
ova
Ġstan
Ġeksik
ĠyapÄ±yor
veriÅŁ
Ġboyut
Ġpolis
ĠBÃ¶yle
dÄ±ÄŁÄ±m
ha
ĠyabancÄ±
Ġpuan
ĠdÃ¼zey
Ġ22
ĠsonrasÄ±
ĠetmiÅŁ
Ġnumar
ĠHizmet
aket
Ġmutlu
Ġdurumu
Ġisten
Ġ21
ampiyon
ĠakÅŁam
Ã¼ÅŁtÃ¼r
ĠHan
spor
ĠÃ¼lke
ĠinsanlarÄ±n
mada
ersiz
Ġpolitik
Ġproblem
ĠKÃ¼r
Ġdost
ĠÃ¶ldÃ¼r
Ġarada
larÄ±m
Ġkaliteli
Ġmiktar
Ġsizlere
Ġmemnun
vekili
ÄŁitimi
Ġnok
Ã°
ĠbaÅŁlayan
ĠolmuÅŁ
ĠgÃ¼nde
oman
ĠYÃ¼ksek
Ġemek
ĠadlÄ±
Ä°M
emen
ĠbaÅŁlat
ĠdÃ¼ÅŁÃ¼k
ĠSev
ĠdÃ¶rt
--
dÄ±ktan
Ġsilah
ÅŁÄ±
Ġmerak
ĠMak
Ġdolar
Ġyeterli
erÃ§ev
ĠalÄ±nan
ras
Ġ2014
ĠFakat
ĠkuÅŁ
Ġbulundu
hat
lÄ±ÄŁÄ±nÄ±
ĠGenÃ§
Ä°T
altÄ±
Ġkims
neÄŁin
gesi
ht
ĠProf
imin
yas
zÄ±m
ĠMan
ĠSen
ĠbaÅŁÄ±na
ĠyaÅŁayan
rada
ĠdÃ¶nemde
Ġkent
ĠeÄŁlen
ĠsÃ¶ylem
Ġyazar
aÄŁÄ±t
ĠLis
mayÄ±n
Ġsonuc
ĠBakanÄ±
ĠsayÄ±sÄ±
ĠiÃ§ine
ĠdÃ¼nyanÄ±n
âĢĺ
ĠMÃ¼dÃ¼rÃ¼
ĠbaÄŁÄ±m
Ġ:)
go
lamaya
ĉĊ
Ġdek
Ġbahis
gar
ĠoÄŁ
Ġ23
ĠAlt
ĠSal
ĠÃ¶nceki
sta
Ġbuna
ĠmÃ¼zik
ĠgÃ¶tÃ¼r
eyecek
Ġuyar
ĠSar
ĠProj
Ġaraya
ĠaltÄ±na
Ġcil
istik
ĠNisan
kar
ĠTÃ¼m
ĠGeÃ§
ĠKÃ¼ltÃ¼r
har
asa
Ġmotor
Ġmedya
Ġetkinlik
rol
rin
Ġdoktor
eygam
ĠAhmet
ĠBas
Ä±mÄ±zda
leriniz
ĠSel
Ġtoprak
madÄ±
siye
ete
ĠsÃ¼rec
uc
Ġnef
resi
ĠSam
fi
Ã¶v
Ġolun
aÄŁa
acaktÄ±r
alarÄ±nÄ±n
geÃ§
abil
yonel
Ä±mÄ±zÄ±n
ĠOcak
Ġonlar
Ġediyorum
Ġadres
ON
ĠAtatÃ¼rk
Ġtarz
Ġmutlaka
iÃ§ek
ĠÃ¼cretsiz
Ã¶ren
Ġyana
anan
Ġir
Ġtest
Ġsur
Ġayar
ĠMer
gen
ĠYani
Ġmin
Ġettik
25
rek
elidir
ĠdÃ¼ÅŁÃ¼nc
Ġ)
ï¿½ï¿½
uzey
ilendir
lenmiÅŁ
ĠbeÅŁ
ullah
Ġfak
ĠÃ¶lÃ¼m
ĠbaÅŁlan
Ġperforman
ĠAÅŁ
adÄ±k
Ġbulunuyor
ĠTel
taki
Ġsavun
ital
Ġvermek
ĠÃ¶dÃ¼l
masÄ±yla
ĠBul
adÄ±ÄŁÄ±
ĠCumhuriyet
Ġbahs
ĠdeÄŁiÅŁiklik
ĠSosyal
fesyonel
Ġetkili
Ġteklif
miyor
ult
lenme
Ġdurumunda
Ġtedavi
izik
Ġidar
ku
En
Ġmilyar
eyece
Ġfirmalar
Ä°S
hendis
eygamber
ĠKÄ±
seniz
ĠÃ§erÃ§ev
ĠmÃ¼cadele
nak
Ġuc
16
Ä±sÄ±nÄ±n
ĠdaÄŁ
ĠTarih
Ġyada
ediy
Ġbirey
Ġdeste
ĠmÃ¼cadel
Ġyolu
iddet
ĠsoÄŁ
ĠÃ¶ÄŁrenciler
ton
Ġedilmesi
Ġ40
ĠdÃ¶k
niyet
ĠseÃ§enek
ĠbaÅŁÄ±nda
ĠmÃ¼k
ÄŁust
Ġpersonel
Ġzengin
alÄ±ÄŁ
Ġnormal
yÄ±l
itesi
ĠayÄ±nda
ĠAÄŁ
Ġdile
ĠhazÄ±rlan
cÄ±lar
cil
mÄ±zÄ±
ĠÃ§ocuÄŁ
imizde
ebilecek
Ġbizi
Ġkredi
manÄ±
lisi
ĠBÃ¼yÃ¼kÅŁehir
Ġ2013
Ġimz
ratik
ĠiÃ§eri
Ġbelki
ros
OR
Ġalma
Ġhayal
hi
ĠYak
lenir
Ġhalde
ĠX
acaÄŁÄ±z
Ġform
Ġesn
par
Ġrol
vi
eceÄŁi
ĠyapÄ±lmasÄ±
ĠÅŁiir
ĠalÄ±r
eyn
ÄŁustos
zu
Ġsefer
ĠtoplantÄ±
ĠfÄ±rsat
ebilece
Ã¢r
Ġnot
ĠFakÃ¼lt
enÃ¼z
Ġmekan
Ġileri
iydi
Ġbeyaz
Ġyem
ĠÄ°ÅŁte
Ġdeneyim
dart
bur
sim
Ġmerkezi
Ġ2012
tÃ¼l
24
Ġdevr
Ġnerede
ĠProgram
eyle
day
ĠKÄ±r
ĠayÄ±r
ĠSistem
14
Ġnokta
elerden
ĠkapÄ±
Ġberi
Â´
ĠsaÄŁlar
ĠÃ§at
ÄŁinin
Ã¼ny
Ġdu
ĠSaÄŁlÄ±k
ĠÃ§al
Ġmobil
Her
teki
atÃ¶r
ĠTan
Ġbenzer
Ġkampan
Ġyetk
Ġrisk
uzur
ĠÃ¼nlÃ¼
Ġenerji
ĠÃĸzellikle
ipar
ĠbaÅŁkan
ĠsonrasÄ±nda
ĠÃ¶zgÃ¼r
Ġtrans
ĠuluslararasÄ±
bakan
Ġyandan
fen
ĠalanÄ±nda
Ġesas
ĠÃ¶nÃ¼nde
Ġnes
lamaz
ĠSÃ¼r
Ã¼mÃ¼zde
Ġpoz
evk
ĠsaÄŁlÄ±klÄ±
Ġdolu
Ġara
ĠsaÄŁlamak
ĠgiriÅŁim
Ġreklam
Ġsabah
Ġsene
Ġaray
amet
ĠgÃ¼l
LAR
Ġre
dÄ±ÄŁÄ±nÄ±z
Ġresmi
Ġsitesi
Ã¼ph
ĠÃ§evir
Ġyeri
meniz
Ã½n
form
yal
Ġdoldur
ĠKadÄ±n
Ġkanal
ĠDemir
ĠOyun
ĠKurul
adaki
ĠartÄ±ÅŁ
ĠsayÄ±da
Ġmahal
Ã¼yle
ĠÃ§arp
pek
ĠsÃ¶yley
Ġonay
ĠÅŁeyler
umsuz
ĠDe
gili
ÃĦ
ĠolmadÄ±ÄŁÄ±
brÄ±s
tern
ĠAralÄ±k
Ġkendisine
ansÄ±z
mekte
Ġoperasyon
esindeki
ĠOsmanlÄ±
Ġalacak
Ġgol
urum
Ġmar
ĠateÅŁ
layÄ±n
Ġdosy
ĠolmadÄ±ÄŁÄ±nÄ±
Ġsiyasi
Ġ28
edeki
ĠiÅŁi
Ġedece
Ġgerekmektedir
Ã¼slÃ¼man
Ä±lmaz
ĠonlarÄ±n
Ġgay
Ġarama
17
Ġbal
ĠgerektiÄŁini
Ġyararlan
ĠGir
Ġderin
ĠKemal
Ġilgi
sÄ±zlÄ±k
Ġtehlik
abet
say
Ġkok
Ġtabi
Ġdakik
ĠsÃ¼t
Ġbat
Son
Ġbelirten
ĠÃ§alÄ±ÅŁmalarÄ±
Ġfon
AÅŀ
ĠPol
ĠBirliÄŁi
yen
ĠTÃ¼rkÃ§e
ulmasÄ±
ĠdeÄŁerli
Ã¼per
iyim
13
ĠBank
Ġhikay
ĠSuriye
allah
Ġkural
ĠaylÄ±k
Ġelektrik
ger
Ġyaparak
Ġ?
Ġoto
ĠBaÄŁ
ĠpiÅŁ
ÄŁinden
Ġbitir
ĠkararÄ±
ĠMÃ¼z
Ġdef
ĠaraÅŁtÄ±rma
laÅŁtÄ±
Ġproje
esiz
ĠSt
larÄ±nÄ±zÄ±
Ġalanda
Ġazal
bay
Ġdefa
Ġoyunu
Ġsem
lediÄŁi
ĠTes
evizyon
ĠHastan
DE
ĠCHP
ĠhÃ¢
ĠyapÄ±lÄ±r
Ġcep
ĠGÃ¶
ĠFilm
asÄ±yla
23
ĠyavaÅŁ
Ġyapma
Ġkarakter
ĠDiÄŁer
Ġfikir
Ġbed
ĠonlarÄ±
lardÄ±
alarÄ±na
uyorum
LER
ĠDerneÄŁi
ĠyaÅŁanan
ĠÃ§ab
ĠSanat
ĠeÄŁer
ink
ĠgÃ¶steren
ĠGazet
Ġkonum
Ġhaft
ĠDÃ¶n
gÃ¶r
ĠgÃ¶rÃ¼ntÃ¼
Ġveriyor
Ġdam
best
ĠKim
ogle
ronik
ĠYer
ĠKam
Ġdavet
Ġkategor
ĠlazÄ±m
ĠAÄŁustos
rÃ¼b
ĠistediÄŁiniz
Ġmadd
Ġ27
Ġef
ĠMahall
ĠAynÄ±
dasÄ±
Ġhala
Ġeylem
ĠKullan
ĠÃ¼rÃ¼nleri
ĠKaz
Ġyapacak
60
ĠsÄ±kÄ±ntÄ±
ĠdiÅŁ
ĠyukarÄ±
ĠKÃ¶
ĠarttÄ±r
Ġheyec
Ġbilgileri
ĠalanÄ±
Ġpan
liÄŁinde
ĠÅŁeyi
ĠKend
ĠsÄ±rada
asÄ±ndan
Ä±za
eÅŁik
ĠaÄŁr
duÄŁunu
Ä±larak
Ä±lmÄ±ÅŁtÄ±r
Ġolursa
Ġkamer
ĠmÃ¼da
ĠtaÅŁÄ±
ĠyapmÄ±ÅŁ
ĠGÃ¼l
ĠkeÅŁ
ĠRusya
ĠuÃ§ak
dikleri
latform
Ġbebek
uyoruz
abiliyor
ĠSor
ĠyerleÅŁ
Ġalarak
ĠarasÄ±
Ġtas
ĠyazÄ±lÄ±
ĠiÃ§i
uklu
zet
ĠdÄ±ÅŁÄ±
ĠiÅŁÃ§
Ġgide
ĠPer
lÄ±ÄŁÄ±n
Ġfil
son
ĠtÃ¼rk
ĠsaÄŁlayan
Ġkullanarak
Ġbol
oogle
ia
ĠÅŁiddet
ĠyÃ¶netic
tak
Ġdemek
Ġkop
Ġnedir
Ġkayde
ahim
Ġederim
ĠFakÃ¼ltesi
mÃ¼r
lerinizi
Ġdemok
Ġotom
abilm
tÄ±sÄ±
her
ĠolmuÅŁtur
diler
Ġtavsiye
ivil
ĠÅŀubat
ĠPart
lÄ±ÄŁa
sas
Ġmec
Ġlider
Ġuygulamalar
LI
dÃ¼m
ĠyazÄ±lÄ±m
ĠbaÅŁta
ĠyaÅŁÄ±nda
Ġbank
ĠFat
ekim
ĠhÃ¼c
dal
ĠgÃ¶rÃ¼yor
ĠÃ¢
masÄ±ndan
ĠAraÅŁtÄ±r
ĠtaÅŁÄ±n
ultan
Ġ&
Ġlez
Ġpo
Ġsoy
Ġprofesyonel
atej
kÄ±n
Ġettir
Ġhafif
zon
ĠFran
ĠBugÃ¼n
rail
Ġgal
ĠFa
Ġsap
AP
nam
inal
iyah
Ã¶ÄŁr
Ġneler
book
Ġhuzur
Ġduyur
UL
80
ĠeleÅŁtir
Ġifad
ĠfiyatlarÄ±
ses
lanmasÄ±
ĠedilmiÅŁ
Kar
Ġnamaz
eyiz
Ġkavram
Ġticaret
larÄ±mÄ±zÄ±n
lÄ±klarÄ±
ke
ED
ore
Ġbirisi
ĠTay
ĠhenÃ¼z
ĠTem
ĠÃ¶ÄŁ
ĠÅŁik
ĠDair
ĠyerleÅŁtir
tiler
Ã¢h
edek
Ġ26
Ġizley
tepe
miÅŁti
ĠsayÄ±
ediler
Ġtatil
Ġtakdir
Ġsel
Ġediyoruz
ĠÃ¶ÄŁrenci
ulur
ĠOrta
liÄŁe
ediÄŁi
ĠyayÄ±m
lÄ±klar
ĠTicaret
ĠborÃ§
iÅŁleri
ĠalÄ±ÅŁveriÅŁ
lanma
ĠCumhurbaÅŁkanÄ±
ĠkarÅŁÄ±sÄ±nda
Ġduygu
ĠÃ¶den
ata
sine
ket
ĠgÃ¼c
Ġanne
kenin
ze
Ġtemsilc
eng
Ġeg
Ġaile
Ã¼ÅŁtÃ¼
Ġescort
Ġisimli
ĠBor
ĠtaÅŁÄ±y
Ġtaz
ĠCan
Ġceza
Ġihtiyac
Ġ+
artesi
ĠÃ¶deme
Ġolmaya
Ä°stanbul
ĠAlan
iÄŁ
Ä±lÄ±ÅŁ
ilebilir
Ġ29
ĠÃĩin
Ġhayata
ĠSat
estiv
Er
Ġolumsuz
ĠAntalya
emmel
Ġbelirtti
Ġkeyif
Ġkendine
Ġkilo
ĠhayÄ±r
Ġtaleb
ĠkarÅŁÄ±laÅŁt
Ġzam
elerinden
rem
ĠKÄ±brÄ±s
Ġted
.,
ĠtecrÃ¼b
ĠÐ
ĠdetaylÄ±
Ġhisset
Ġkimse
ĠyÄ±llarda
Ġton
Ġbundan
imar
ĠyÄ±ldÄ±r
ĠÃ¶nÃ¼ne
ĠkÃ¼r
ĠAydÄ±n
Ġduvar
dro
Ġdel
Ġnakl
ĠBursa
ise
Biz
ĠAlmanya
Ġsonucunda
Ġkorun
ĠdÃ¶neminde
Ġhad
ĠKÄ±z
Ġyerinde
ĠiÅŁe
alÄ±ÄŁÄ±
Ġarac
ĠÄ°lÃ§e
elerle
err
ĠtaÅŁÄ±ma
Ġkesinlikle
ĠGÃ¶k
ipariÅŁ
Ġpas
Ġ*
Ã¼tfen
tp
ĠkazandÄ±r
Ġolm
Ġmesel
ĠSeÃ§
ĠgÃ¼neÅŁ
ĠkarÄ±ÅŁ
Â±
ĠTeknik
ĠprogramÄ±
ĠsaldÄ±rÄ±
elt
Ġetmektedir
Ġikti
dat
Ġlira
gula
Ġsahiptir
ĠbeÄŁen
Ġverilm
Ġkurtar
usun
ĠÅŀimdi
Ġap
ĠdoÄŁum
ons
ĠdÃ¼nyada
ledik
ĠAmerika
dit
Ġanlamda
Ġtutar
Ġsenin
ĠacÄ±
lanÄ±r
raman
ork
liÄŁin
Ġgaz
umak
ĠnÃ¼f
Ġ2011
yse
ĠdÃ¼ÄŁ
Bur
Ġstandart
Ġyoksa
Ġokuy
yap
tere
Ġbasit
keri
ĠAra
inizin
daÄŁ
ĠalmÄ±ÅŁ
abilmek
ĠDeÄŁ
arÄ±m
ĠBilg
ĠmÃ¼dÃ¼r
ĠbaÅŁlar
ĠinsanÄ±n
oca
ĠmÃ¼ÅŁteri
ayla
ĠDÄ±ÅŁ
Ġbunlar
ĠdÃ¼zenlem
ĠalÄ±p
ĠbaÄŁlantÄ±
Ġzorun
ĠdavranÄ±ÅŁ
ÂĶ
obÃ¼s
ĠhayatÄ±nÄ±
Ã§ak
sini
ĠmeÅŁ
Ġpsik
Ä°Y
ĠLig
abzon
Ġsokak
ĠTaÅŁ
ĠmÃ¼dahal
Ġemin
ezi
ĠYardÄ±mcÄ±sÄ±
ĠgÃ¶rmek
ĠaÅŁaÄŁÄ±daki
KK
Ġperformans
Ġpop
Ġvb
Ġkuvvet
ĠbuluÅŁ
ĠhazÄ±rla
ĠÃĩev
bahÃ§e
Ġasla
ĠAÃ§Ä±k
''
ilim
alim
Ġzevk
ĠBÃ¶lÃ¼m
Ġresim
oto
ĠgÃ¶ren
ĠaÃ§Ä±klamada
Ġsonraki
are
ĠÃ§oÄŁu
ĠkÄ±l
ĠYet
omet
ĠvazgeÃ§
Ġkitab
emizin
ĠDÃ¼z
40
onya
ĠiÃ§erik
ĠaydÄ±n
Ãĸz
ĠÅŁarkÄ±
erseniz
ĠCam
edeni
racat
Ġyolc
Ġonlara
izasyon
mur
Ġkadro
layÄ±p
ĠServ
ĠyetiÅŁ
co
daÅŁ
Ġyor
Ġamel
ĠaÃ§Ä±
ĠyapÄ±ldÄ±
ĠÄ°yi
ĠdÃ¼ÅŁÃ¼r
ĠyetiÅŁtir
ĠÃľrÃ¼n
Ġlim
ĠiÅŁte
ĠsÃ¼rede
//
yacaÄŁ
Ä±sÄ±r
Ġtahmin
iyan
Ġgiden
to
larÄ±mÄ±zÄ±
acaÄŁÄ±nÄ±
atur
Ġhap
ĠDav
Ġfel
haba
Ġta
OS
ĠĠ
Ġez
ĠSavaÅŁ
ĠVak
ĠkarÄ±ÅŁtÄ±r
ĠEÅŁ
dikten
ĠÃ¼ye
Ġib
ersin
ĠÃľst
ĠBazÄ±
ĠÃ¶ne
ĠÃ§ap
Ġday
iber
emiÅŁ
ĠTe
Ġ=
ham
ÃľR
ard
eÅŁiktaÅŁ
ĠÄ±sÄ±
isinden
ekil
cebook
afir
ĠBal
Ġ60
Ak
lasyon
ĠÄ±ÅŁÄ±k
Ġhesab
Ġbazen
tÄ±ÄŁÄ±nÄ±
ĠiÅŁbir
Ã¼ndeki
aca
ĠBurada
laÅŁma
liler
ĠKÃ¶y
Ġverildi
Ġerken
cilik
liÄŁine
ĠÅŁÃ¼ph
ĠEf
ĠyaÅŁama
ĠgÃ¼nlerde
ĠGÃ¶z
Ġpaket
Ä±yordu
Ġbirinci
Ġkonut
ĠVal
ĠdanÄ±ÅŁ
pp
ĠdeÄŁiÅŁim
ĠUluslararasÄ±
mÄ±
meni
eytin
Ġbelirtilen
ĠSah
erler
Ġodak
mail
larca
ĠyaygÄ±n
uldu
ĠkiÅŁisel
ĠaltÄ±
ĠMur
tarÄ±
ĠBunu
erken
ĠkatÄ±l
ĠGazi
Mer
Ġfirma
ĠolmasÄ±na
ĠBr
Ġpark
Ġyerel
ĠÂĵ
Ġetme
Ġbelirterek
ĠMahallesi
Ġyola
Ġbuy
Ġgirdi
ãģĤãģĤãģĤãģĤ
ĠsÃ¼resi
Ġfizik
Ġrad
Ġedip
Ġgitti
ĠÃ§Ä±kÄ±ÅŁ
Ġgenellikle
sizlik
Ġod
bette
ĠbunlarÄ±n
rum
Ġmodern
Ġsona
ĠSayÄ±n
ayÄ±f
Ġsp
Ġsik
lamasÄ±
IM
Ġorada
Ġdahi
Ġsert
Ġavan
orn
Ġlisans
ĠkatÄ±ldÄ±
Ä±mÄ±n
Ġhizmetleri
Ġimza
Ġelem
ĠyaÅŁÄ±ndaki
unlarÄ±
Ä±ÅŁma
Ġbilir
stik
ĠðŁ
Ġ>
sinin
Ġeve
Ġtane
Ġyapmaya
ĠaltÄ±n
Ã§esi
://
ĠSamsun
Ġkans
Ġus
Ġism
ĠAz
Ã¼stÃ¼
ĠbÃ¼t
Ġsalon
ĠAm
ban
lev
lerimizi
ĠHem
ĠyanÄ±t
ĠdÄ±ÅŁarÄ±
Ġgerektir
leÅŁme
ĠHakk
iÄŁi
eÄŁin
Ġimkan
ĠYÃ¼z
ĠdÃ¼zenlen
Ġide
Ġhus
ĠbalÄ±k
IR
Ġsana
ĠHz
ebe
ĠKÃ¼rt
ĠkaldÄ±
ĠÃ§iÃ§ek
Ä±yorlar
ĠÃ§ay
ĠtatlÄ±
ĠeÅŁit
Ġcen
22
ĠÅŁif
Ġkendisi
ĠkÃ¶ÅŁ
Ġgiren
âĢĿ,
Ġucuz
Ġkendisini
ĠbunlarÄ±
lerim
ĠÃ¶zelliÄŁi
ĠbaskÄ±
Ġbilinen
ĠilÃ§esinde
Ã¶ÄŁretim
iklet
ĠÄ°ngilizce
ĠbÃ¶
Ġse
ĠyÃ¼rÃ¼y
iyer
Ġolumlu
GÃ¼n
gal
ĠyapÄ±m
ĠBaÅŁkanlÄ±ÄŁÄ±
Ġsorunu
ĠYol
ĠgeÃ§ti
Ġalabilirsiniz
Ġiddia
Ġarab
ĠMÃ¼slÃ¼man
ĠÅŁans
iyatro
Ġavantaj
isiyle
yÃ¼z
Ġkaydet
ĠÃ¶ÄŁretim
ĠYat
ĠÃľy
ĠYal
teÅŁ
ĠÃ¼Ã§Ã¼ncÃ¼
ĠkÄ±ÅŁ
ndan
ĠÅŁar
Ġmon
ĠdÃ¶v
ĠoranÄ±
ĠmÃ¼kemmel
enerbahÃ§e
ĠMev
Ġprot
dek
ĠCh
ÄŁan
Ġcinsel
ĠgeÃ§erli
likleri
eceÄŁini
ĠyÄ±lda
lÄ±ÄŁÄ±na
ĠeÅŁy
ĠSonra
ĠolduÄŁuna
ĠparÃ§a
ĠMod
Ġkem
ĠFirmalarÄ±
Ġserbest
ĠhakkÄ±
Ð¾
usunu
ĠDoÄŁu
2017
Ġkapas
Ã¶yl
pt
Ġkalp
Ä±ndÄ±r
icari
ĠÃ¶lÃ§Ã¼
uzu
Ġonline
Ġderec
Ġfaiz
ou
oyu
ĠbiÃ§imde
his
ĠKitap
alatasar
ĠKurum
sÃ¼z
ĠÃ¶ÄŁret
aka
Ä°ÅŁ
Ġduyg
ĠÃ¶nemlidir
ĠHaf
Ġdiyerek
ĠGÃ¼zel
akar
ĠÃ¶ncesi
ĠÄ°k
Ġharika
Ġkahv
ĠiÅŁlemi
adÄ±r
Ġbec
Ġkurulu
memiÅŁ
ilerden
Ġmarka
ĠMilletvekili
ĠBayram
ĠHam
alatasaray
Ġyiy
Ġyeter
bal
ĠkiÅŁilerin
gulama
Ġetmeye
tis
Ġkm
Ġroman
ĠsÃ¶ylÃ¼yor
Ä±sÄ±z
BaÅŁ
sur
ĠkiÅŁilik
ahmet
ĠÅŁehit
ĠgÃ¶nÃ¼l
Ġevde
gr
Ġetraf
nden
Ġbon
ĠYÄ±lmaz
Ġbe
ĠÃ§eken
ĠyeÅŁil
ĠBan
Ġbeden
Ä±f
ai
ĠanlayÄ±ÅŁ
ÅŁey
ĠÃľlk
70
iyordu
ĠinÅŁaat
Ġthe
Ġkampany
Ġyasak
osta
Ġotomobil
ĠHol
ĠMut
Ġsahn
Ãĸn
Ġvakit
ĠTV
ĠÅŀah
Ġnedeni
ĠPazar
ĠBuna
Ġteknoloji
bin
ĠdoÄŁrult
gÄ±Ã§
ĠBÃ¶ylece
ĠÃ¼rÃ¼nler
ĠSin
ezer
ĠtÃ¶ren
Ġgetirdi
Ġince
Ġyaralan
ĠÃ§ocuklar
dÄ±rÄ±m
Ä±b
kek
ĠkapalÄ±
Ġtemin
ĠDen
Ġyakal
Ä±c
Ġplatform
ĠÄ°ran
ĠKah
ation
ĠÃ¼zerindeki
ecep
Ġmo
yer
Ġmesaf
ĠcÃ¼m
maktan
ĠÂ»
Ä±lÄ±Ã§
ĠÃ¼lkenin
ĠolacaÄŁ
ĠgÃ¼venli
hane
ĠElekt
layÄ±cÄ±
ĠsaÄŁlayacak
Ġhoc
abrik
Ġyetkil
ileceÄŁi
lili
Ġciv
ĠBer
Ġsuyu
Ġkod
ĠinÅŁa
etleri
ĠNo
ĠSadece
orta
rika
Ä±nar
Ġgetiren
ĠKir
ÅŁÄ±k
ĠDur
ĠGÃ¼ney
ĠBenim
Gen
ĠbÃ¼ny
ulmuÅŁ
Ġetkisi
Ġvit
Ä±sÄ±nÄ±z
Ġyans
inizde
ternatif
ĠkÄ±smÄ±
baÅŁ
nu
qu
eceÄŁiz
Ġstratej
lÄ±ÄŁÄ±yla
Ġkuru
ord
Ġenf
Yeni
Ġ500
ĠgeliÅŁim
Ġsivil
ĠVar
Ġortadan
malarÄ±nÄ±
ĠÄ°m
ĠdoÄŁrudan
Ġhac
Pro
dev
mamÄ±ÅŁ
Ä°Z
Ġmaliyet
Ġmilli
adi
Ġortalama
Ġekley
Ä°s
Ġaktif
ĠaÅŁÄ±rÄ±
Ġsorumlu
ĠDil
ĠKÃ¼Ã§Ã¼k
ĠYayÄ±nlarÄ±
ben
urken
ĠdÃ¼ÅŁÃ¼nÃ¼yorum
ĠNur
Ġnitelik
ĠolmasÄ±nÄ±
Ġbirik
27
Ġgelin
ĠÃĸÄŁretmen
ĠpeÅŁ
ĠFil
Ġyatak
abileceÄŁiniz
ĠSanayi
ess
ĠÃ¶zellikleri
alardan
Ġteb
ĠÄ±ÅŁ
Ġparti
ijital
dÄ±klarÄ±nÄ±
bey
Ġmeslek
ĠVE
ĠkullanÄ±mÄ±
ĠbaÄŁÄ±msÄ±z
ĠÃ¼yesi
ĠÃ¶nlem
kÃ¶y
acaÄŁÄ±nÄ±z
Ġsunu
ĠyalnÄ±zca
tuk
ĠasÄ±l
ĠgÃ¶rdÃ¼ÄŁ
ĠGÃ¼r
Ġtoplu
ĠHÃ¼s
Ä±lÄ±ÄŁ
Ġarz
ĠMed
Ġistih
ĠzayÄ±f
ĠgÃ¶Ã§
estor
Ã§iler
celi
ĠGÃ¼venlik
brahim
aza
Ġtad
ĠâĢ¦
ĠKÄ±s
ĠTasar
ĠKol
Ġbulunma
ĠdoÄŁrultusunda
ĠyatÄ±r
Ġbanka
Ġbelirli
ĠiÃ§eren
Ġtransfer
okul
Ġgrub
Ġharc
ĠalÄ±m
ĠkÄ±rmÄ±zÄ±
ĠOkul
Ġseyahat
Ġetmesi
ĠamacÄ±
Ġolanlar
ĠSab
Ġsine
ĠKanun
irken
ĠvÃ¼cut
ĠBin
ĠolduÄŁumuz
Ġbirim
yip
ĠyÄ±ldÄ±z
aÅŁÄ±r
Ġmodelleri
emesi
ĠgelmiÅŁ
ĠsipariÅŁ
ĠÄ°nÅŁ
ĠSultan
Ġuyan
oj
liyet
yet
ĠÄ°srail
ĠBit
UN
ĠgÃ¶rm
Ġsite
Ġgur
Ã¼lÃ¼
Ġht
ĠÅŁikayet
Ġtelevizyon
illi
ĠPeygamber
21
ĠyapÄ±lmÄ±ÅŁ
kiler
Ġcm
Ġdeney
emize
Ġotomatik
ikan
Ġseni
ĠÃĸrneÄŁin
ĠFr
ino
Ġatan
Ġdokun
iyorlar
Ä±nÄ±zÄ±n
fat
Ġins
ĠArap
acaÄŁÄ±m
ĠÃ§Ä±kÄ±yor
ĠeÄŁitimi
ner
ĠbaÅŁlÄ±yor
ĠyÄ±lÄ±n
uro
Ġbayram
ĠYan
dÃ¼z
Ġand
Ġistek
ĠII
ĠsoÄŁuk
AZ
ows
Ġarka
Ġkum
arlar
iki
Ġolmadan
Ġtez
ĠÃ§oÄŁ
ĠUn
yÄ±z
ĠRecep
ĠMas
Ġyerini
ĠdÃ¼ÅŁman
Ġpla
ĠrahatsÄ±z
ĠsoruÅŁtur
90
Ġheyecan
ĠakÄ±llÄ±
Ġkendilerine
ĠbakÄ±ÅŁ
ĠyÃ¶netimi
irler
Ġkurtul
Or
Ġ198
Ġbende
Ġaskeri
ĠÃ§erÃ§evesinde
lasik
ĠBaÅŁbakan
ĠÅŀeh
Ġdedim
Ġzih
Ġyaparken
baÅŁÄ±
ĠMeclis
udi
ong
lacak
Ġtuz
sem
Ġ31
ĠÅŀehir
int
ĠkullanÄ±lÄ±r
Ġfinans
ĠLi
Ġdiyen
's
ĠGoogle
Ġx
uf
Ġaf
Ġanaliz
Ġcok
Ġmezun
Ġkanun
Ġalb
ĠtanÄ±t
Ġameliyat
teÅŁem
âĢ¦]
fÄ±
sit
ĠKara
Ġfer
ĠgeÃ§iÅŁ
Ġfilmi
amazan
ĠAKP
28
Ä±nacak
Ġherkesin
ĠalmaktadÄ±r
Ġmisafir
Ġreh
giler
ĠaÃ§Ä±kladÄ±
hone
Ġ2010
ĠolduÄŁundan
Ġgiderek
Ġcilt
Ġhasta
ave
elis
**
mut
ĠHD
ĠmÃ¼ÅŁteriler
ĠkalÄ±n
ĠkatÄ±lan
ebiliyor
Ã¼mÃ¼zdeki
ĠDiy
ĠanlamÄ±na
ĠMark
ksiyon
Ġseks
ire
lendirme
Ä±rlar
unuzu
nik
Ġbekliyor
ĠÅŁeker
ĠtanÄ±ÅŁ
ĠSÄ±nÄ±f
ond
ĠiÅŁlemleri
ĠÃ§Ä±kart
ĠÃ¶nceden
Ġces
diÄŁini
Ġveri
arÄ±nda
Dev
ĠÃ¶y
arlÄ±
ĠSek
ĠHava
manÄ±zÄ±
Ġ35
ĠgÃ¼venilir
ĠRe
ĠÅŁub
Ġedebilirsiniz
ĠgÃ¶rsel
ST
ĠYunan
ĠBeÅŁiktaÅŁ
ĠkanÄ±
Ġsuy
ĠTrabzon
El
Ġlezzet
26
Ġolanak
Ġrakam
Ġbelediye
ĠGerÃ§
Ġtutuk
ĠeriÅŁ
ĠEski
Ġred
Ġazalt
Ġitir
iter
iya
Ġdiren
Ġbirden
ĠHasan
ĠYÄ±ldÄ±rÄ±m
ĠayÄ±
larÄ±mÄ±za
ĠuÄŁraÅŁ
Ġiptal
ĠDers
ĠÅŁampiyon
ĠtÄ±r
encer
Ġverecek
oma
anÄ±m
Ġsiyah
Ġters
lardaki
ĠÃ§oÄŁun
ĠsÃ¶yleyen
ĠTat
ĠdÃ¼zenli
anlarÄ±
Ġetik
Ġiktidar
ĠyÃ¼zyÄ±l
ĠKab
ese
Ġbelirlen
gaz
ĠÅŁÄ±k
vik
ĠCumhuriyeti
wit
ĠaÄŁaÃ§
Ġkurulan
Ġpozisyon
deniz
ĠhazÄ±rlanan
Ã¼ley
Ġekib
ĠÃ¼stÃ¼n
mesinin
ĠhÃ¼kÃ¼met
ĠÅŁiÅŁ
uÄŁu
ĠÄ°ngiltere
iyiz
ĠkullandÄ±
ĠMurat
ĠCez
OL
Ġsiyaset
Ġvergi
Ġbekl
Ã¼lebilir
Ġtarihli
umhurbaÅŁk
lamalar
Ġpil
Ġhediye
ĠÄ°dar
DÃ¼n
Ġbecer
ĠolduklarÄ±
indows
Ġgizli
ĠÅŁer
ĠSh
kiÅŁ
Ġ80
ĠDir
tion
Ġistedik
Hay
AH
ladÄ±ÄŁÄ±
usuna
Ã¼mÃ¼ÅŁ
ĠMad
ĠIrak
ilme
Ġkus
Ġsim
Ġgelenek
ĠBankasÄ±
ABD
Ġeklen
ĠadÄ±nÄ±
Ġistik
Ġsorumluluk
ĠÅŀu
ĠvermiÅŁ
ĠaÃ§Ä±klamalar
ĠsaygÄ±
ĠdÃ¶nÃ¼ÅŁtÃ¼r
ĠihtiyacÄ±
?âĢĿ
Ä±lÄ±p
Ġneredeyse
tel
Ġkomp
adet
ĠAraÅŁtÄ±rma
ĠÃ¼lkede
ĠÃ¼rÃ¼nÃ¼
nÃ¼n
luluÄŁ
ĠsÄ±ÄŁ
Ġrast
ĠsÃ¼reci
Ġiken
Ġren
ĠyaÅŁat
ĠiÃ§indeki
ĠMet
ĠsÄ±v
Ġsayfa
ĠDeÄŁer
Ġedebilir
ĠlÃ¼tfen
ĠÄ°ki
ĠTayyip
Ġhttp
ĠSÄ±r
ĠmÃ¼t
diÄŁimiz
ĠYine
ĠtanÄ±n
Ġdikkate
ĠFiyat
ĠgerÃ§ekleÅŁtirilen
ĠRab
As
seri
ĠdÃ¼nyaya
Ġ[âĢ¦]
Ä±lmasÄ±na
Ġihtim
yada
ĠBat
Ġihracat
Ġbulundur
okulu
ĠulaÅŁabilirsiniz
ane
Ġzamanlarda
Ġoyunc
Ġdenetim
Ġalternatif
ĠOdasÄ±
ĠtarÄ±m
Ġ''
ĠTam
ĠBizim
Ġblog
GeÃ§
Ġyasal
erim
Ġnin
ĠbÃ¶lgede
Ġbiliyor
luluÄŁu
ĠÃĩar
larÄ±ndaki
Ġsaf
ĠÄ°liÅŁ
ĠMa
cisi
stit
ĠÄ°Ã§in
ĠâĢĿ
Ġtrafik
Ġtoplumsal
Ġyakalan
ĠkonuÅŁma
Ġkesim
leyici
Ġkullanmak
Ġkursu
kadaÅŁ
ĠKanunu
ĠThe
ĠTah
ĠinsanlarÄ±
Ġtoplant
ĠtaÅŁÄ±yan
diÄŁim
ĠbÃ¶lÃ¼mÃ¼
ĠMuham
Ġordu
ĠÃ§ocuklarÄ±n
ĠkaÃ§Ä±r
car
ĠÃ§alÄ±ÅŁtÄ±r
ĠÃ§evre
liÄŁinin
ĠyaÅŁamak
MM
ĠkÃ¶k
amik
Ġdemektir
ĠÃ¶zen
ĠfiyatÄ±
ĠSey
Ġsermay
Ġokun
Ġuzat
sev
Ġhakim
ĠbÃ¶lgesinde
tÃ¼rk
ĠayrÄ±ntÄ±
embe
35
ĠUzun
Ġediliyor
ĠFatih
alarÄ±ndan
ĠkiÅŁiye
ĠbÃ¼r
Ġdurdur
ĠhÃ¼k
lal
ĠedilmiÅŁtir
Ġbozuk
kir
Ä±klÄ±
29
Ġbulunur
manlÄ±k
ĠÃĸnc
ĠMÃ¼hendis
duÄŁumuz
Ġgr
tiketler
ĠOnun
ahtar
Ġbinlerce
ĠkÄ±ya
ĠkitabÄ±
ĠotobÃ¼s
esef
ĠÃ§alÄ±ÅŁÄ±yor
lima
ukat
Ġ70
ĠsÃ¼s
ĠYas
Ġâ
Ġvs
imizden
ĠduruÅŁ
dÄ±ÄŁÄ±na
45
ESÄ°
Ġdepo
ĠdeÄŁeri
ĠsanatÃ§Ä±
ĠalÄ±ndÄ±
Ġidi
Ġadr
100
red
ĠteÅŁkil
Ġsonuna
mÄ±z
Ġyapabilir
Av
Ġticari
Ġhassas
ĠÄ°brahim
ĠgÃ¶rÃ¼len
!!
ĠÃĩaÄŁ
Ġdizi
ĠsaÄŁlam
dip
Ġfi
irketi
Ä°Åŀ
ĠKomisyon
ĠyÄ±llar
Ġsistemleri
Ġdis
ĠÃ¶t
ayÄ±m
Ġilgilen
ĠWeb
lari
ĠHep
ĠOtel
ĠdolayÄ±sÄ±yla
ĠÃ§alÄ±ÅŁmasÄ±
Ġdekor
Ġbahset
Ġmahkem
altÄ±na
ĠgÃ¶rÃ¼nt
ĠSav
Ġismi
Ġhepsi
ĠdemiÅŁ
ĠbÃ¶lge
gre
ĠCen
ĠBÃ¼tÃ¼n
ordin
ĠpopÃ¼ler
Ġelektronik
etiyle
Ġ;
ĠyaÅŁay
ĠboÄŁ
Ġyapabilirsiniz
Ġmahk
Ġaktiv
Ġyalan
ator
Ä±ydÄ±
Ġincelem
ETÃĸ
kon
akkabÄ±
Ġitibariyle
ĠgÃ¼cÃ¼
ĠHatta
ĠPKK
droid
ĠPartisi
Ġharit
Ġref
Ġsunul
mamasÄ±
do
ĠiÅŁin
Ġbilgilendir
Ġmetre
ĠMahkem
ĠbahÃ§
uyucu
Ġakadem
ĠAdana
ĠHastanesi
ÄŁur
ĠyapÄ±mÄ±
Ä°l
Ġalmaya
emli
ĠÃ¶ngÃ¶r
mis
Ġgem
ĠFransa
ĠSp
rÃ¼k
2016
Ġayn
ĠalÄ±nmasÄ±
ĠFenerbahÃ§e
ĠDolay
lanmÄ±ÅŁtÄ±r
lerimizin
ĠsaÄŁlÄ±yor
adeniz
ĠdesteÄŁi
liye
Ġrenkli
ĠolacaÄŁÄ±nÄ±
tanÄ±n
ikat
ĠbarÄ±ÅŁ
Ġunsur
ĠKanunun
Ġdemir
kol
Ġservisi
omp
Ġbedel
ĠÅŁark
Ġkoruma
ĠSe
ĠÃ¼retic
ĠfÄ±k
ĠvÃ¼cud
Ġtehdit
bil
Ġeb
ĠolmaktadÄ±r
Ġdiler
ĠkÄ±sÄ±m
ĠhÄ±zla
ĠettiÄŁini
Allah
ĠKit
ĠolmalÄ±dÄ±r
Ġfaydalan
ĠMus
Ġterk
ĠSÄ±nav
Ġetkilen
ĠuygulamasÄ±
ĠBelediy
ĠpiÅŁir
ĠBatÄ±
:)
ĠkadÄ±nlar
kÄ±r
Ġbom
mos
kur
ĠÄ°ÅŁlet
Ġ90
Ġtoz
ly
Ġbirer
ciler
ĠEkonom
ĠCev
Ġkriz
ĠAL
otel
Ġvurgu
Ä±lÄ±ÄŁÄ±
Ġfayda
anakk
lanÄ±yor
ĠaklÄ±
ĠÅŀirket
ĠdolaÅŁ
ĠAbd
rama
ock
ĠimkanÄ±
ĠÃ¼niversite
Ġsebebi
eÄŁe
Ġuyum
ĠOf
ĠPlan
Ġorganizasyon
Ġboya
ĠÃ¶ncelikle
Ġprojesi
ĠeÅŁi
Ġkayded
bon
ĠilÃ§e
ĠhÄ±r
Ġpet
duklarÄ±
ĠHiÃ§
ĠKaymak
eya
emizi
Ġzorunlu
Ġ45
rag
ĠHayat
05
lemeye
Ġfonksiyon
ĠsÃ¶ylen
Ġbenzeri
ĠHÃ¼seyin
Ġdurumlarda
sar
Ġbirbirinden
Ġdeng
ĠbilinÃ§
yasal
ĠDÃ¼ÅŁ
ĠMey
Ġtakdirde
ĠistiyorsanÄ±z
arbak
amam
EV
ĠaÃ§Ä±lÄ±ÅŁ
Ġtarihleri
ĠÅŁaÅŁÄ±r
ĠKuzey
Bil
land
errah
ĠSa
Ġkendilerini
sef
eyip
Ġyerli
Ġsevin
ĠNasÄ±l
ĠsÃ¼ren
anÄ±z
âĢĵ
ĠGalatasaray
aÄŁÄ±n
ĠHukuk
ĠPat
ĠdaÄŁÄ±t
diÄŁiniz
ĠGÃ¼nÃ¼
ĠÃĸmer
ebilmek
Ġsakin
Daha
Ġsahib
anti
ĠBek
CI
anakkale
Ġilave
ĠgeldiÄŁi
ĠkarÅŁÄ±lÄ±k
usunun
ĠhayatÄ±
makla
erji
layabilirsiniz
ment
Ġbence
ĠbakÄ±mÄ±ndan
ĠsonuÃ§larÄ±
Ġsabit
Ġmuhal
ĠÅŁim
ĠGru
Ġederken
ĠNak
ĠSit
Ġalg
eliÄŁi
Ġithal
ĠBunlar
ĠEmniyet
ĠfaktÃ¶r
ĠyÃ¶nlendir
Ġsunuyor
Ġsizler
ĠgÃ¶zlem
ĠaÃ§Ä±lan
Ev
kel
ary
Ġyenil
ĠEÄŁitimi
ĠyumuÅŁ
ileceÄŁini
ezerv
sinde
ayasa
BugÃ¼n
gah
ori
liliÄŁi
ĠSig
ĠAltÄ±n
Ġye
imden
ĠFeder
Ġiyice
ĠyaÅŁadÄ±ÄŁÄ±
fil
ĠArtÄ±k
deb
va
ĠBoz
Ġgelece
SK
tÄ±cÄ±
ĠhÃ¼cr
Ġtepki
ĠIs
ĠTeÅŁ
lamÄ±ÅŁ
eyh
undaki
Ġfatur
ĠKoca
ĠYok
tansiy
Ġistiyoruz
ĠKonya
Ãĸzel
ĠyarÄ±
cret
Ġsam
ĠDÃ¼ny
ĠKomut
eyerek
Ġkalma
ĠiÅŁler
laÅŁÄ±k
TL
kim
Ġanlama
ert
Ġkonak
ĠiliÅŁki
ilecektir
ĠparÃ§asÄ±
arbakÄ±r
mit
ĠmaÄŁaz
ĠgÃ¶rÃ¼nÃ¼m
Ġkamp
EÄŁer
uluÄŁ
Ne
Ġturizm
!âĢĿ
Ġaj
rop
paÅŁa
ĠmuhteÅŁem
our
masyon
Ġkoru
ĠPeki
Ġvermeye
istin
ĠÅŀampiyon
Ġlir
75
Ġmens
antep
ĠiliÅŁkiler
ÃľN
ĠgÃ¼ndem
emeÄŁi
Ġelb
Es
Ġkomut
Etiketler
ĠBilgi
ulacak
Ġtit
ĠTÄ±p
ĠÄ°nternet
ĠCem
ĠTarÄ±m
ĠGer
Ġakl
witter
Ã¼lmesi
inda
ĠhazÄ±rlÄ±k
Ġsanayi
ack
ĠbirleÅŁtir
ĠKÄ±lÄ±Ã§
ĠoyunlarÄ±
ĠEd
IL
ĠaldÄ±m
Ä°lk
ĠTurizm
UM
enizi
ĠÃ§eki
ĠÃ¼yeleri
EB
Ġmodeli
isa
Ġbirini
Ġdemokras
ima
Ġnoktada
tic
kal
ĠZaman
Ġkulak
ĠQ
ity
Ġbesin
Ġyenilik
Ø§
tren
ĠilginÃ§
mesinde
cÄ±k
Ġgelip
eter
ĠbaÅŁkanÄ±
Ġbilimsel
ĠÃ¶ÄŁrencilerin
Ã¶rÃ¼
ĠBÃ¶lg
Ġverilir
ĠmÃ¼l
ĠarkadaÅŁlar
ĠamaÃ§lÄ±
Ġsigort
sul
Ġkolayca
demir
Ġmus
Ġindirim
muz
ĠiÅŁÃ§i
andar
ĠgeÃ§tiÄŁimiz
Ġust
Ġiade
65
ĠolduÄŁunuz
Ġfutbolcu
tÄ±n
ĠtaÅŁÄ±m
ĠaÅŁaÄŁÄ±da
yaj
ĠGrup
ĠkaynaÄŁÄ±
Ġbuz
Ġku
ĠgÄ±da
ĠiP
Ġkurs
abileceÄŁi
ĠSÃ¼per
Ġten
ĠgeÃ§er
Ġrestor
Ġvermektedir
ĠSaat
ĠÃĸÄŁren
ĠseÃ§en
Ġkere
Ġbeb
Ġkaydetti
SO
Ġburaya
ice
Ġbuyur
Ä±yÄ±z
Ã¼leyman
Tek
ĠyÃ¼zey
ayacak
alatya
Ġeh
ĠkaÅŁ
Ġadeta
oli
ĠbÃ¼yÃ¼m
ĠbiÃ§im
PS
ĠpaylaÅŁÄ±m
Ġbeklent
Ġsiteleri
ĠsarÄ±
Ġortamda
Ġmemur
Ã¼bÃ¼
masÄ±n
ĠDin
ĠyapÄ±sÄ±
enkul
Ġmekt
ĠDanÄ±ÅŁ
Ġ2009
ell
ĠMac
ĠFransÄ±z
Ġbl
iyel
Ä±nma
ĠSayfa
Ġtedbir
ĠaÅŁa
ĠGÃ¼neÅŁ
ĠSonuÃ§
Ġhissed
Ġtablo
Ġetki
kiÅŁehir
ĠolmalÄ±
ĠErz
33
melik
ektÃ¶rÃ¼
ĠtuÅŁ
Ä±lmasÄ±nÄ±
ÄŁinizi
ĠErkek
mm
ĠgÃ¶sterir
ĠFin
Ġkonser
ĠdÃ¶nemi
ĠkÃ¼ltÃ¼rel
ĠistediÄŁi
ĠyÄ±lÄ±ndan
Ġsevk
Ð¸
ilmez
oft
ĠkÄ±yafet
ĠteÅŁvik
ĠaÃ§Ä±dan
ebiliriz
cÄ±lÄ±ÄŁÄ±
TC
ĠyaÅŁlÄ±
ĠdaÄŁÄ±
Ġyarg
ĠgÃ¶steriyor
Ġekipleri
div
osya
Ġusul
abilen
Ġmahall
Kur
Ġsinir
Ġtemizlik
ĠyaptÄ±klarÄ±
ileÅŁtir
lantÄ±
var
ĠBab
ĠaÄŁrÄ±
ĠgÃ¶zaltÄ±na
Ġsanki
Ġmakam
ĠyÃ¼zÃ¼nden
Ġisterseniz
Ġyolcu
Ä±lmaktadÄ±r
olog
ĠoranÄ±nda
ĠKiÅŁ
Ġkullanan
ĠcoÄŁraf
2015
ĠYen
Ġsunan
afer
Ġport
ĠkarÅŁÄ±lan
Ġkanser
Ġpotansiy
Ġba
Ġsaha
ĠkÃ¼t
ĠÃ§ekti
ĠyÃ¼rÃ¼r
Ġyoluyla
ĠLe
ĠFÄ±r
lÄ±ÄŁÄ±nÄ±n
ĠÃľÃ§
ĠoÄŁlu
ĠhastalÄ±ÄŁ
Ã§uk
alesef
Ġvitam
ĠMuhammed
ĠMic
isiklet
Ġgenelinde
leki
ck
OK
ĠHÃ¼kÃ¼m
Ġofis
Ġdarbe
lÄ±dÄ±r
Ġkilomet
yalÄ±
ĠYah
ĠyargÄ±
ĠyaklaÅŁÄ±m
ĠAc
Ġyetkili
ĠTarihi
ĠkÃ¶pek
ĠMen
ĠgÃ¶l
ĠHast
Ä°nsan
Ġgrubu
Ġizlen
ĠBakan
ĠPaÅŁa
ĠÃĩelik
lor
lerken
Ġrefer
ĠkayÄ±p
Ä±ldÄ±ÄŁÄ±nda
ray
Ġsorunun
Top
ĠÅŁef
mÃ¼ÅŁtÃ¼r
ĠBilim
ĠÄ°h
Ġha
Ġettim
ĠbugÃ¼ne
Ġyerden
ĠDolayÄ±sÄ±yla
oo
ĠdÃ¼zelt
Ġumut
Ġbitk
likler
itir
Ġbirinin
AV
ekteyiz
ĠBalÄ±k
ĠyayÄ±nlanan
Ġkuma
ull
ĠBahÃ§
ruf
ĠFacebook
ĠkonuÅŁan
tib
ry
rafi
Sen
irv
vekil
Ġ2008
ĠNew
Ġdini
EC
ĠÄ°let
ĠYeÅŁil
tacak
Ġsebebiyle
Ġbulabilirsiniz
ĠaÄŁz
Ġalak
Ġbilgiye
ĠKil
",
ahh
ĠÃ§aÄŁÄ±r
ĠÃĩÄ±k
ĠBakanlÄ±ÄŁ
nan
Ġedilecek
01
yÄ±m
Kon
Ġelbette
Ġmaddesi
Ġaltyap
ĠSil
onun
ĠKart
Ġmutfak
ĠgÃ¶revi
Ġwww
Ġbirbirine
ĠÅŁehr
Ġkurumsal
Ġmaddi
Ġbeklem
ĠendiÅŁ
lerimize
ĠÃ¼stÃ¼ne
madÄ±ÄŁÄ±
ĠÄ±
ĠgÃ¶rÃ¼r
ĠCuma
Ġideal
alandÄ±r
ĠdÃ¼ÅŁen
ĠzamanÄ±
OB
ĠbirleÅŁ
ĠBÃ¶lÃ¼mÃ¼
siyet
Ġinsanlara
mesiyle
ivas
odrum
Ãĩok
Ġaraba
ĠyansÄ±
Ġsayede
Ġniyet
ĠgeliÅŁmeler
ĠRamazan
mede
Ġdijital
enn
Ġufak
Ġtamamlan
ĠuÃ§uÅŁ
insel
otik
ĠmÃ¼hendis
Ġnefes
ĠetmiÅŁtir
Ġï¿½
ĠÄ°kinci
Ġulusal
Ġbiridir
ĠPort
Ġherkese
ĠYapÄ±lan
elek
ĠkadÄ±nÄ±n
ĠLigi
ris
ĠgÃ¼nÃ¼mÃ¼z
ĠKons
ĠgereÄŁi
Ġdip
IK
Ġto
ĠalbÃ¼m
ĠPark
alarla
lÃ¼ÄŁe
vel
DA
Yap
ĠkarÅŁÄ±laÅŁtÄ±r
ĠkavuÅŁ
ĠGenÃ§lik
ĠbaÅŁlayacak
ĠgÃ¶k
MA
ĠgÃ¼ne
ĠYÄ±ldÄ±z
ĠkartÄ±
Ġbulmak
Ġbeyan
Ġtakv
ĠtÄ±p
kÄ±rÄ±
layabilir
pe
ĠinsanÄ±
ĠbÃ¼nyesinde
Ġanlatan
pple
urk
ĠbÃ¶ylece
ĠStr
Ġtabii
ĠesnasÄ±nda
ĠyarÄ±n
umartesi
Ġkonuk
ĠtanÄ±tÄ±m
ilmesini
ĠJap
Ġlink
ĠMon
ĠsorunlarÄ±
ĠgÃ¶ÄŁ
Ġbask
Ġboyu
ĠMHP
landa
olar
teri
ĠyanÄ±na
ĠKut
ĠfaydalÄ±
Ġondan
ĠyapÄ±n
Ġmac
ilip
Bak
ĠkadÄ±nlarÄ±n
ĠÃ¼lkemizde
âĢ¢
ĠÃ¼retimi
ĠRum
orb
Ġkapasit
Ä±lacaÄŁÄ±
Ġmevcuttur
Ġbelediy
Ġmevzu
Ġop
Ġyedek
Ankara
Ġokuma
isyen
Ġkuzey
Ġgalib
gÃ¼
ĠHazÄ±r
ĠÅŀube
ĠolasÄ±
Ġadalet
ĠgÃ¼r
Ġpr
ĠaraÅŁtÄ±rmalar
ĠdeÄŁin
ĠHizmetleri
ĠKurumu
ĠalÄ±narak
Ġedebiyat
yol
fÄ±r
Ġmetin
Ġyedi
ĠKup
ÅŁap
asÄ±ndaki
Ġanal
ĠMem
ĠiÅŁleri
Ġkimlik
ĠCeza
Ã¼mrÃ¼k
ÅŁiv
Ġzek
Ġtutan
99
ĠÃĸdÃ¼l
Ġgidip
ĠFer
veren
illa
Merhaba
zi
Ek
ĠkalmÄ±ÅŁ
Ġob
Bel
ĠyÃ¼kselt
Ġaran
Ġkeyifli
ĠiÅŁbirliÄŁi
ĠÃĸÄŁrenc
ĠgÃ¶rdÃ¼k
ena
Ġnas
44
duÄŁunuz
Ġistif
Ã¼str
Ġyenilen
usuz
Ġistihdam
Ġgidiyor
Ġburadan
Ä°D
ĠhatÄ±rlat
ĠKurt
ĠLisesi
ĠmÃ¼r
www
Ġmoda
ĠkarÅŁÄ±ya
bel
Ġkup
ĠyaÅŁadÄ±ÄŁ
duÄŁum
Ġdepr
Ġsevgil
Ã¼ldÃ¼
Ġbelirlenen
Ġvir
Ġkahraman
ĠmÃ¼dahale
ral
ami
ĠolduklarÄ±nÄ±
Ġfalan
amaya
Ġkalite
Ã§Ä±k
ĠkaÃ§Ä±n
Ġserg
tek
ĠbÃ¶lÃ¼mÃ¼nde
ĠÃ§aÄŁr
tuÄŁ
ĠsektÃ¶rÃ¼nde
eydi
Ġmanz
ĠÄ±r
amÄ±ÅŁ
Ñģ
elisiniz
ĠanlamÄ±
dÄ±lar
estival
ĠBoy
Ġfabrik
los
dÄ±ÄŁÄ±ndan
ĠbarÄ±ndÄ±r
Ġdava
emeyen
out
Ġpratik
bek
ĠÃĩalÄ±ÅŁma
Ġyerlerde
ĠadlandÄ±r
Ġedilebilir
sÄ±zÄ±n
eceksiniz
Ġfiziksel
Ġmutluluk
ĠHerk
leyerek
kent
atistik
ĠSÃ¼leyman
09
irim
.[
Ġacil
iciler
ĠaracÄ±lÄ±ÄŁÄ±yla
ĠGrubu
ĠHaberleri
ildiÄŁini
ĠgÃ¶sterdi
Ġplak
ĠyÃ¼rÃ¼yÃ¼ÅŁ
Ġ197
Ġ300
Ġgenelde
addesi
Ġmimar
ĠkanÄ±t
ĠgerektiÄŁi
ĠKamu
ĠyÃ¼kÃ¼m
ansiyon
urta
ĠÃĸl
ĠEnstit
ĠgeÃ§ici
gÃ¼r
anet
Ġolmayacak
mr
diklerini
Ġseyir
Ġbilet
ĠbaÅŁlangÄ±Ã§
Ġmeydan
Ġkullanma
Siz
ĠÃ¶nde
ĠbazÄ±larÄ±
liy
Ġyav
03
ĠGerek
asi
Ä°z
ĠyakÄ±ndan
rom
ĠaykÄ±rÄ±
Ġmakal
ĠAj
ĠCih
gat
ĠÃ§Ä±kacak
lerdi
muyor
Ġvererek
ĠgÃ¶rÃ¼ÅŁmeler
lÄ±ÄŁÄ±nda
ĠolacaÄŁÄ±
ĠuyarÄ±
Ġgitmek
Ã¼ce
Ġkimi
Ġverilmesi
and
Ġnesil
iÅŁik
ĠBirleÅŁ
les
ĠWindows
ĠgÃ¼ndeme
ĠFar
Ġest
ÄŁimi
Ġdoy
Ġyoktu
mekten
ĠyapÄ±lab
Ġhapis
tayÄ±z
ĠedildiÄŁi
ĠbaÄŁÄ±r
Ġduruma
ĠhaklarÄ±
ĠhalkÄ±n
Ġfazlas
ĠÃ¶lÃ§Ã¼de
ĠKaradeniz
lerindeki
unma
ĠkalÄ±r
ĠYa
Ġnakliyat
ĠulaÅŁÄ±m
ĠyarÄ±m
Ġbilen
ilmesine
ĠÃĸÄŁretim
ĠTun
ĠgÃ¼Ã§lendir
ĠkÄ±zÄ±
Ġrakip
ÅŁu
TÃľ
ĠÅŁunlarÄ±
US
Ġtaraftar
ĠulaÅŁtÄ±r
lus
ĠmaÃ§Ä±
ĠFutbol
Ġedilmektedir
okol
Ġbaba
ĠProgramÄ±
ĠsÃ¼rÃ¼cÃ¼
Ġdenet
Ġkapan
diniz
gulan
31
Ġbiy
EO
ĠÄ°span
Ġekibi
ĠaralÄ±k
Ġrej
ĠReh
02
ĠtakÄ±mÄ±
giliz
ĠHakkÄ±nda
Ġ36
Ġgerekti
andarma
.âĢĻ
usuf
ĠvarlÄ±k
Ġdedik
Ġkonularda
ĠbÃ¼yÃ¼
Ã½r
lÃ¢m
stagram
Ġtanesi
ĠAmerikan
ĠBe
ĠtÃ¼rÃ¼
Ġhab
ĠÄ°ÅŁleri
ĠMÄ±sÄ±r
ĠBundan
rens
ĠalanlarÄ±
ĠEnd
Ġmalzeme
2014
Ġsertif
ĠDestek
likte
Ġrezerv
ĠAna
ĠDoÃ§
Ġsergil
ĠKaynak
ĠAR
EY
ho
deri
ĠkolaylaÅŁtÄ±r
ĠyangÄ±n
Ġkoc
ĠGar
Ġtedavisi
32
ĠbaÄŁlant
Ġyerler
ĠyapÄ±ldÄ±ÄŁÄ±
Ã¢y
ilerinden
Ġmaden
Ġoldum
ĠaralarÄ±nda
Ġkusur
ĠUlusal
dÃ¼ÄŁÃ¼nÃ¼
tÄ±ÄŁÄ±mÄ±z
Ġkiralama
ĠhalÄ±
Ġkoltuk
Ġdevrim
orno
Ġzeytin
ĠgÃ¶rÃ¼nÃ¼yor
ĠDik
diye
ie
ĠAslÄ±nda
Ġkorumak
rip
ĠCar
Ġfinal
elal
ĠdÃ¶nÃ¼ÅŁÃ¼m
OM
ferans
ĠFETÃĸ
ĠyÃ¶ntemi
mediÄŁi
ĠÃ¶ncesinde
ĠayrÄ±l
aÄŁÄ±nÄ±
Ġkaps
ĠÅŁeyin
Ġkred
Ġuyumlu
Ġlok
ĠArab
Ġoynay
ĠkÃ¼resel
ĠFet
ĠsÃ¶zleri
maktÄ±r
Ġklasik
ĠÃ§ocuÄŁun
ediÄŁiniz
utma
ĠgÃ¼nÃ¼mÃ¼zde
ĠyaÅŁadÄ±k
ĠfirmasÄ±
Ġyolunda
Ã¼ye
Ġsevgi
Ġalanlar
ĠalÄ±nacak
ump
Ġyolda
ĠVakfÄ±
Ġincelen
34
ĠAdÄ±
06
ĠgÃ¼nler
Ġharek
ĠTemiz
08
ĠgerekÃ§
Ġep
ydÄ±
Ġfar
Ġkara
ĠayakkabÄ±
Ġmay
ĠÄ°letiÅŁim
Ġbelgesi
ĠVan
lÄ±kta
36
Ä±sal
ĠOÄŁ
iyede
ĠkazanÃ§
ĠMu
ĠkalÄ±cÄ±
ĠKarar
ĠcivarÄ±nda
ĠKendi
Ġmaruz
ÌĪ
org
malarÄ±n
Ġbelirtildi
Ġyiyecek
ĠkatÄ±
ĠolmadÄ±
ĠdÃ¼ÅŁÃ¼nÃ¼l
ADDE
uluyor
Ġdilek
Ġmm
ĠÅŁirketi
ĠyaptÄ±m
ann
07
Ġkalab
imle
ĠfirmamÄ±z
ĠYÃ¶netimi
ĠMÃ¼dÃ¼rlÃ¼ÄŁ
ĠGaz
layacak
ĠYurt
ĠmaaÅŁ
ĠkaÄŁÄ±t
Ġanahtar
ĠyÃ¶nÃ¼nde
Ġkalb
ĠbabasÄ±
melerin
Ġtaban
Ġkonfor
lemesi
pat
amÄ±yor
ĠyÃ¶r
Ġani
ĠÃľcret
ĠÄ°d
Ġyitir
ĠmÃ¼mkÃ¼ndÃ¼r
ĠProjesi
ĠÃ¼stÃ¼nde
Ġrahmet
TÃ¼m
kor
ĠeÄŁlenceli
Ġbet
elle
Ġorman
ĠdÃ¼zeyde
ĠalÄ±nÄ±r
ress
ĠbaÅŁlÄ±klÄ±
parator
EF
??
Ġdiyet
Ġifadelerini
ĠAkdeniz
adir
veya
ĠbÃ¼tÃ§
ĠArt
zat
ĠsonuÃ§lar
atÄ±n
Ġkimyasal
ĠeÅŁya
soy
Ġevden
ÑĤ
Ġgeleneksel
Ġsunulan
ĠOrgan
ĠBÃ¶lge
ĠGÃ¶n
ĠMobil
ĠEx
cektir
Ġgarant
melidir
yeni
Ġdevletin
eyse
Ġtasarruf
ĠolmayÄ±
Ġdakikada
ĠBeyaz
ĠgÃ¶rÃ¼ntÃ¼l
ĠgÃ¼nÃ¼n
ĠKav
ĠKoÃ§
satÄ±
laz
Ġegz
Ġkiral
Ä±sÄ±t
Ġvad
ĠyaÄŁmur
ĠkÄ±v
ĠKamp
ĠhanÄ±m
arik
itler
Ġka
ĠdÃ¼ÅŁtÃ¼
eks
ĠKent
ona
Ġderecede
igit
Ġkalem
Ġelinde
Ġverim
ĠMeslek
Ġhali
ĠgerÃ§ekleÅŁen
azartesi
Ã¢m
55
Uz
ube
Ġlig
Ġokur
04
Ġbez
Ġgerekse
Ġesnaf
isiz
uman
ĠÃĩevre
ĠVat
ĠÃ¶nÃ¼mÃ¼zdeki
ĠgÃ¼nden
aklÄ±
ĠÄ°smail
ĠOrdu
Ä±nan
ĠcezasÄ±
ĠAN
ĠZaten
ood
ĠPr
Ġacaba
ĠFark
ĠiÅŁlev
ĠolduÄŁum
Ġseven
dÄ±ÅŁ
Ġkimsenin
Ġmuhab
ĠgÃ¼ney
ĠÃ§aÄŁrÄ±
ĠÃ§alÄ±ÅŁmalarÄ±nÄ±
eral
ĠBelki
ĠÅŀahin
Ġkitl
ĠÄ°nÅŁaat
Ġuyku
Ġhata
dÃ¼n
ĠsanÄ±rÄ±m
Ġstat
BMM
irli
Ġmetal
yu
Ġevlilik
ĠHayvan
ĠDoÄŁan
Ġbulama
ĠbaÄŁÄ±ÅŁ
ĠÃ§Ä±kmÄ±ÅŁ
Ġkenar
ĠrÃ¼z
ĠhayÄ±rlÄ±
Ġolmay
Ġitiraz
ĠAsya
Ġsevg
Ġgurur
Ġgayet
osk
Ġkazanan
cÄ±larÄ±n
Ġdarb
orat
Ġkomisyon
Ġ..
Ġolunca
ĠsÄ±vÄ±
vuru
ĠDÃ¼zen
ĠEscort
ĠkÃ¶pr
ediÄŁini
Ġdan
adÄ±n
ĠSitesi
Ġhalen
ĠSok
landÄ±ÄŁÄ±
ĠeÄŁit
Ġadresi
Ġhadis
39
ĠSistemi
debiyat
ĠeriÅŁim
Ġgayret
ileÅŁ
Ġbireysel
Ġgetirmek
ĠElektrik
ĠÅŀen
mel
anÄ±k
Ġbulunmak
ĠMersin
ĠÂ·
Ġverimli
asÄ±z
ĠyazÄ±k
Ġmetrek
tÄ±klarÄ±
Ġistan
ĠyapÄ±p
Ġgazetec
Ġesk
Ġhisse
ĠgÃ¼venliÄŁi
ĠArkadaÅŁ
ĠgeliÅŁmiÅŁ
ĠÃ§elik
Ġbahsed
ĠtasarÄ±mÄ±
ĠbaÅŁlamÄ±ÅŁ
umhurbaÅŁkanÄ±
adÄ±m
Ġdenk
ĠÃ§Ã¶
Ġtiyatro
ĠEuro
Ã¼ks
ĠanÄ±nda
ĠServisi
Ama
Ġederiz
ĠadayÄ±
Ġdiyebilir
ĠDemok
ĠÃ¼m
tÄ±lar
Oy
ang
Ġnetic
AyrÄ±ca
elendir
lav
ĠmÃ¼s
ĠUygulama
mamak
Ä±ldÄ±ÄŁÄ±nÄ±
Ġmensup
Ä±yÄ±m
ĠsÃ¼reÃ§te
ĠsÃ¼reli
ĠAndroid
sesuar
ĠkulÃ¼p
ĠmaÄŁdur
otos
elerek
Ġsizleri
araj
ĠsÃ¼redir
Ġkorku
yiz
raÃ§
Ġpah
ĠÃľyesi
ĠÃĩanakkale
ĠDiyarbakÄ±r
ĠhastalÄ±ÄŁÄ±
jen
lanacak
Ġtali
ĠSes
ĠGÃ¶rev
ĠSem
Ġgecik
eker
meyecek
Ġdalg
ĠSavaÅŁÄ±
Ġyetersiz
ĠkullandÄ±ÄŁÄ±
ĠFu
Ġtoplumun
meyin
danÄ±
ĠkÄ±ymet
Ġsuretiyle
ĠÃ¼lkeler
ĠÃ§ocuklarÄ±
ĠnoktasÄ±
ĠkullanÄ±lmasÄ±
akarya
elli
Ġzorluk
Ã¼rken
Ġsorunlar
Ġoynan
ook
oter
ĠnÃ¼fus
Ġ32
ĠkarÅŁÄ±lÄ±ÄŁ
ĠiÅŁt
ĠzamanÄ±nda
ĠgÃ¶m
ĠsÃ¼rece
DÃ¼nya
ko
Yaz
ĠÃ§alÄ±ÅŁmak
ĠsaÄŁlÄ±ÄŁÄ±
ĠÃ§atÄ±ÅŁ
ĠyapmanÄ±z
ĠyoÄŁ
ĠgÃ¼z
Ġtelefonu
Ð½
ĠAraÃ§
Ġzamanlar
):
ĠMalatya
Ãĩocuk
ibe
Ġhayran
Ġker
dava
ĠdayalÄ±
ĠodasÄ±
ĠolaÄŁan
ĠTR
Ġparmak
sav
ÑĢ
ect
ebi
ĠÃľzer
ĠÃĩek
Ġkullanabilirsiniz
ĠTelefon
ĠfarkÄ±
Ġtap
ĠYaÄŁ
Ġkendimi
Ġpu
Ġ2007
Ġgittik
Ã¢t
ĠfarkÄ±nda
leyin
Ġistanbul
ĠiÅŁgal
ĠdÃ¼ÅŁÃ¼nce
Ġmiktarda
Ġsigorta
Ġzemin
iti
ĠyapÄ±lÄ±yor
ĠÃ¶rgÃ¼tÃ¼
ĠkumaÅŁ
ĠKulÃ¼bÃ¼
ĠBilgisayar
ick
Ġartan
alimanÄ±
38
OÄŀ
Ġgeril
muÅŁtu
SB
ĠMÃ¼ÅŁt
Gel
ĠAbdullah
Ġpanel
Ġrekabet
ĠRabb
tein
Ġdikkatli
Ġicin
ĠOnlar
ĠyansÄ±t
ĠÃ§Ã¶k
Ġrehber
mey
Ġverme
Ġcas
ĠÃ¶ncelik
Ġbilgisi
Ã§u
malarÄ±na
ĠkullanÄ±labilir
malÄ±sÄ±nÄ±z
Ġ34
radan
ĠOrman
ĠsÄ±nÄ±rlÄ±
Ġalanlarda
ĠTurk
ĠNeden
Ġbeyin
Ġmeyv
ceÄŁi
ĠyÄ±llardÄ±r
we
ĠuygulamalarÄ±
ketbol
ĠhalkÄ±
Ġolabilirsiniz
Ġsporcu
On
dun
lÄ±ca
ĠAfrika
Ġmesle
__
ĠBoÄŁ
ÃľRK
ider
Ã§isi
ĠÃ§ekici
Ġtok
ÅŁtÄ±r
ĠkÄ±sÄ±t
Ġistis
Ġtarihinden
memesi
Ġihtimal
ĠÃ¼creti
ĠinanÃ§
ĠGerÃ§ek
Ġmeyve
Ġavukat
ĠEskiÅŁehir
Ġmuay
ĠÃ¼rÃ¼nlerin
ĠyÃ¶nel
fik
ĠnumaralÄ±
Ġtutul
balaj
ug
.'
Ġbina
ĠTut
Ġdenir
ĠAnn
OT
larÄ±mÄ±
ĠMadde
ĠaltÄ±nÄ±
Tar
Ġyetenek
ĠEge
ĠolmamasÄ±
Ġ2000
ding
ĠYÃ¼r
ĠSekret
ilerle
Ã©
ĠEvet
ĠteÅŁekkÃ¼rler
yken
37
YÄ±l
uyum
ĠyaptÄ±ÄŁÄ±mÄ±z
Ġtipi
Ä±yorsanÄ±z
estivali
ĠdeÄŁildi
ĠbÃ¼yÃ¼me
ĠhariÃ§
des
ĠseÃ§enekleri
ĠcÃ¼ml
ĠsÄ±fÄ±r
ĠiPhone
ĠatÄ±k
ĠMez
umuzun
Ad
ĠGaziantep
ĠRad
Ġekmek
nuv
ĠdÃ¶
ĠkÃ¢
ife
Ġkarma
Ġiman
laÃ§
Ġgelmesi
Ġkilit
199
ĠterÃ¶rist
AC
ĠÃĩift
Ġsinema
Ġyolculuk
ates
ĠdÃ¼ÄŁÃ¼n
era
iplin
diy
Ġcami
ĠalmasÄ±
ĠsÃ¶zÃ¼
Ġharf
ĠMÃ¼zik
ãģĤãģĤãģĤãģĤãģĤãģĤãģĤãģĤ
ĠEb
ĠanÄ±
Ġmuhtem
Ġsebeple
ĠbaÅŁÄ±
ÅŁamba
Ġdernek
ĠDon
II
Ġtazmin
uÄŁla
Ġedilerek
Ġtopr
Ġalabilir
Ġ55
ĠyÄ±lÄ±nÄ±n
ĠdonanÄ±m
ĠBayan
Ã¼kle
ilerde
Sev
Ġyeten
uncu
ĠKuvvet
ĠaÅŁama
Ġgelince
mu
alog
ĠBÃ¶lgesi
ette
Ġbizlere
riyet
ĠDep
ĠSarÄ±
LÄ°
Ġhayatta
ĠTasarÄ±m
Ġmini
Ġkelime
tifak
ĠtÃ¼ketim
Ġuygulanan
paz
Ġprojeler
olat
ĠYÃ¶netmeli
ĠÃ§ey
BÃ¼yÃ¼k
Ì§
ava
anlarÄ±n
ĠgeldiÄŁini
ĠYusuf
ĠYatÄ±rÄ±m
ĠaÄŁÄ±z
ĠEnerji
ĠÅŁahÄ±s
ĠTesis
larken
ĠApple
Ġsa
LERÄ°
ĠsÃ¼per
laÅŁtÄ±ÄŁ
ebilen
Ġ48
ĠadamÄ±
ĠToplum
Ġ150
ĠdÃ¼k
ĠYapÄ±
Ġfelsef
ĠsÄ±rt
ĠbulunmasÄ±
ÃĸÄŁr
Ġtemas
Ġmir
ayas
larÄ±nÄ±za
ĠsÄ±z
LU
Ġsavunma
Ġselam
Ġmuhaf
Ġgelmektedir
Åŀu
ĠdayanÄ±klÄ±
ĠazÄ±ndan
Ġmakyaj
ĠTemel
ĠgÃ¼zellik
latma
DoÄŁ
ĠgÃ¶stermektedir
bank
ĠĠĠĠ
ĠBunlarÄ±n
ĠFotoÄŁraf
ĠgÃ¼nah
ĠbÄ±
66
Ġsizlerle
ĠdeÄŁerlendirme
ĠAda
Ġsunum
Ġhusus
menizi
Ġantren
ĠMahkemesi
lemiÅŁ
Ġkendinizi
mara
ĠÃ§alÄ±ÅŁÄ±r
leyecek
ĠDÄ±ÅŁiÅŁleri
ĠÃ¼retilen
ĠTal
Ġtaraftan
ĠgÃ¶zÃ¼k
Ġevlen
ĠAdam
ĠhaklÄ±
Ä±d
ĠsÃ¼n
ĠÄ°ÅŁlem
unuzun
ĠKÃ¼t
ende
Ġlog
slan
ĠAile
ĠsÃ¶zleÅŁme
ĠyapÄ±lmaktadÄ±r
Ancak
Ġhavuz
ĠMeclisi
Ġzinc
ĠSatÄ±ÅŁ
ĠkaydÄ±
ĠKaf
Ġsaatlerinde
acÄ±k
Ġbeslenme
ĠCon
lÃ½
IS
Ġolamaz
ĠgÃ¶rdÃ¼m
ĠmÃ¼n
Ġhasar
Ãĸnc
Ġmeclis
Ġpetrol
Ġkeyf
Hal
Ġmali
ĠbÃ¶yl
pa
Ġkamera
rimenkul
oun
Ġcenaz
ĠsunmaktadÄ±r
ĠrahatlÄ±kla
Ġhediy
Ġinc
ĠDÃ¶nem
lanarak
unuza
ĠKarÅŁ
umhuriyet
leket
ĠVol
ĠbaÅŁladÄ±m
avi
Ġmasraf
ĠoluÅŁur
abilmektedir
ĠyukarÄ±da
ĠRek
ÅŁembe
ĠplanÄ±
ĠakÄ±ÅŁ
ĠyÃ¶netmen
Ġmedyum
Ġsessiz
ĠKaÃ§
sh
ĠÄ°t
ĠbaktÄ±ÄŁ
Ġfet
ĠsatÄ±ÅŁa
ĠHik
ĠulaÅŁmak
ĠÄ°talya
iyetini
Ä°Ã§
ĠGÃ¶rÃ¼n
gÃ¼t
ĠbaÄŁÄ±mlÄ±
ĠyÃ¶nde
ebilm
ĠanlattÄ±
azen
Ġolmaktan
Ġemekli
Ey
ĠAvust
Ġharekete
ĠiyileÅŁtir
lup
ĠiÅŁyer
orun
abilmesi
Ġmaalesef
ĠÃ¼stÃ¼
2013
Ġarayan
Ġsigara
ĠÃ¶ÄŁrencileri
Ùİ
ĠKarab
Ġprim
doÄŁ
Ġdili
LE
Ġmezar
Ġnem
Ã¼lÃ¼r
Ġverici
ĠiÃ§inden
Ġrengi
ĠÃ¶zgÃ¼rlÃ¼k
ĠTabi
Ġmakinesi
ĠyaratÄ±cÄ±
Ġayda
sis
uÅŁturucu
Â»
Ä°H
Ġkaybol
46
ĠGÄ±da
ĠyÄ±llarÄ±
Ġmor
GÃ¶r
ĠTeknoloji
alel
ester
tih
Ġbonus
Ġettiler
ÅŁe
oper
Ġsendik
ulmaz
ĠÃ§ekim
ĠsÄ±kÄ±
tesi
idi
ĠgÃ¶rÃ¼yoruz
ĠaÃ§ma
ĠÄ°sv
Ġvurgula
kun
Ġdosya
Genel
Ġ38
Ġhaberleri
Ġyumurta
ĠMesel
Ġvade
Ãĥ
ĠkaÃ§ak
ĠÃ§ekiyor
lukla
Ġmalzemeleri
indistan
mini
Ġturist
irin
amuk
Ġyur
bahar
48
ĠPas
ĠkiralÄ±k
ĠhÃ¼km
Ġmilletvekili
GS
TR
ĠFen
ĠoluÅŁturan
Ġparlak
kul
ĠÃ§alÄ±ÅŁmaya
ĠVali
ĠHÄ±r
ukur
ĠHotel
daroÄŁlu
Ġ65
ĠBayramÄ±
beri
ĠSez
ĠRapor
ĠSun
Ġbuldu
ĠkarÅŁÄ±mÄ±za
ĠZira
ĠarasÄ±ndan
Ġkahve
priz
Ġbileti
Ġodas
ĠÅŁeyleri
ĠgeÃ§iyor
Ġ05
Ġoyunun
ĠvasÄ±
ĠSivas
ĠOto
ĠrÃ¶
ĠResmi
ĠÃ§ocuÄŁu
ĠOysa
Ġmavi
ĠNaz
tematik
ĠTrump
Ġversiyon
ĠbirÅŁey
ĠFilistin
ĠÄ°mam
ĠProje
Ġalama
medik
?"
ĠsÃ¼recinde
Ġderi
itika
isindeki
ĠfÄ±kr
ĠiÅŁletme
ayÄ±t
Evet
LAN
ĠKen
zan
ĠDaÄŁ
ĠmaÃ§Ä±nda
Ġemniyet
abi
ĠolayÄ±
larÄ±nÄ±zÄ±n
Ġanti
Ġpen
Ġbeklenen
Ġtev
raz
ĠÃ§ik
laj
laya
ĠyapmasÄ±
ĠTanrÄ±
emem
uÅŁu
ĠEdebiyat
esir
Ġbisiklet
ĠyapÄ±yoruz
YA
lerinize
ĠsÃ¶ylemek
kiralama
Ġderken
ĠHÄ±z
ĠsoruÅŁturma
ĠMaÃ§
ĠulaÅŁtÄ±
ĠkazandÄ±
Ġmikro
zem
Ġvah
ox
Ġlan
Ġsilin
San
ĠToplam
lerdeki
ĠdÃ¶viz
CHP
ĠHes
ĠattÄ±
ĠolduÄŁunda
ĠtaÅŁÄ±mak
ĠDar
ERS
ĠolmalarÄ±
Kay
ĠMakin
ĠKarak
Ġhekim
Ġyaprak
ĠLisans
Ä±bbi
ĠTÃľ
ĠKomisyonu
ĠnumarasÄ±
anlÄ±ur
ĠPerson
ayol
Ġihal
UK
ĠdÃ¼zenlediÄŁi
Ġmontaj
Ġalana
Ġsanay
LARI
Ã¶ly
Ġsaatleri
ĠDE
aa
Ġdeprem
Ġyerleri
ĠServis
ĠiletiÅŁime
ĠKupasÄ±
ĠâĢ¢
Ġteor
Ġmerkezinde
ĠimkÃ¢n
ĠdÃ¼ÅŁÃ¼ÅŁ
ektif
ĠÃ¶mr
ĠAT
Ġkons
ĠalÄ±cÄ±
cÄ±nÄ±n
Ġolmasa
ee
ĠarasÄ±na
itif
melerini
denin
ĠFederasyonu
Ġsonsuz
ĠYarÄ±ÅŁ
ĠPolis
ji
Ġdi
ĠâĢĻ
Ã¼yorum
aÄŁÄ±na
ĠmiktarÄ±
ĠbÃ¶lÃ¼n
Ġkaybetti
Ġinceleme
Ġveriler
Ġsisteminin
th
Ġaraz
Ġbakan
Ġgelerek
ĠkarÅŁÄ±n
Ġistedim
ĠPan
Ġkargo
ĠyumuÅŁak
Ġolama
Ġikram
ĠPet
ĠdÃ¼zenleme
ĠÃ¶nemi
Ġmasa
ĠCaddesi
----
Ġbanyo
ĠSonr
ĠYunanistan
imizle
ĠFik
Ġfuar
duktan
ĠBet
Ġakr
IZ
Ġtoh
ĠmantÄ±k
ĠkaÅŁÄ±
ĠilÃ§esi
ĠÄ°b
ĠdÃ¼r
ecik
ĠilanÄ±
ĠkÃ¼Ã§
BaÅŁk
ĠgÃ¶ÄŁÃ¼s
Ġmilletvekil
ĠNec
ĠBaÅŁbak
cÃ¼k
Ġbelge
ĠgelmiÅŁtir
ĠÅŁekli
manÄ±za
ĠHakan
tikten
Ġbitki
Ġkariyer
ĠsunduÄŁu
daÄŁÄ±
ĠÃ¼rÃ¼nÃ¼n
eleriyle
ĠStan
Ġpotansiyel
iyaret
ĠÅŁÃ¼k
Ġtepk
Ġsayg
ĠTÃ¼r
Ġ09
mad
Ġimzalan
Ġnih
andev
ĠolmanÄ±n
Ġgaranti
ĠÃ¼yelik
ĠGÃ¼Ã§
ĠKÃ¶yÃ¼
ĠðŁĻ
ĠTeb
LÃľ
ĠBÃ¼l
ãĥ
ĠCumartesi
Ul
ĠBaÅŁkanlÄ±ÄŁ
ĠseÃ§imi
Ġtamir
ĠKes
mesinden
Ġhalka
ĠÃ¶rt
ebil
Ġoranda
At
desi
Ġhatt
ĠfirmalarÄ±
ĠyapmayÄ±
ĠAÅŁaÄŁÄ±
Ġkodu
Ãľlk
ĠHemen
lamayÄ±
ÄŁimizi
ĠaylarÄ±nda
Ã¼nce
ĠSiyas
Ġisterim
ilmelidir
ĠkatÄ±ldÄ±ÄŁÄ±
47
ĠedeceÄŁiz
ĠkahvaltÄ±
ĠSaÃ§
ĠalgÄ±
Ġdenem
uvalet
ĠkeÅŁf
Ġbeslen
ĠPay
ĠTakÄ±m
Ġsever
liyat
ĠÅŁehrin
eceÄŁim
lanmaktadÄ±r
Ġyel
ĠLim
ole
ĠKocaeli
ĠKontrol
Ġettikleri
ĠUzman
Ġ37
Ġdans
Ġmuk
Ġ400
ÅŁi
Ä°ST
ĠÅŁifr
lob
ĠsÃ¶
abiliriz
ĠModel
uyordu
umuzu
Ġpencer
Ġbekleniyor
ill
bÃ¼s
Ġkemik
Ġtl
Ġonunla
api
ĠfÄ±rsatÄ±
ĠadÄ±yla
Ah
Ġdua
ĠEtkin
vin
ĠTanÄ±
ive
Ġsitesinde
ĠdeÄŁiÅŁikliÄŁi
ĠÄ±ÅŁÄ±ÄŁ
ĠSÄ±
ĠÄ°ndir
Ġ75
SaÄŁ
ĠPsik
Ġalkol
iner
Ġdemokratik
Ġente
Ġniteli
ĠduyarlÄ±
Ġsaati
ĠMimar
ĠDuy
Ġ$
Ġves
gari
ĠhakkÄ±nÄ±
unlar
OP
Ġtarifi
ĠÃľstelik
ĠyÄ±la
Ġenfeksiyon
Ġsermaye
Ġsahne
ĠKayseri
Ã§ek
liyoruz
Ġverilecek
ĠBodrum
IÅŀ
ĠMe
Ġanlar
ĠkalÄ±p
ĠNet
Ġbilmiyorum
abilirler
Ġoyunlar
ndeki
ruk
ĠOku
ĠTBMM
Ġonur
espor
ĠsabÄ±r
ĠÃĸZ
ĠeÅŁliÄŁinde
Ä±lmak
Ġsitemiz
amÄ±zda
ĠTabii
ĠÃĸyle
Kal
Ġevet
ĠFestivali
ĠKÄ±sa
Ġolabilecek
Ġpsikolojik
ĠNer
Ġicra
tre
ĠKredi
Ġsunmak
ĠyÃ¼zlerce
ĠgÃ¶rdÃ¼
Ġdamar
Ġmevsim
ĠÅŁunu
ĠÃĩay
ĠaracÄ±n
ĠoluÅŁum
Ã¼yÃ¼
BÃ¶l
ĠarÅŁiv
AÅŁ
ĠÄ°r
ĠgeldiÄŁinde
Ġpazarlama
Ġvel
ezil
ĠMat
ĠGal
tip
lab
Ġ2006
Ġ196
Ġcerrah
ĠyaÄŁÄ±
ĠÅŁeye
ĠArdÄ±ndan
Ġkonuyu
ĠEc
lasman
Ġkalitesi
ĠarkadaÅŁÄ±
ĠÃ¶mÃ¼r
MS
Åŀimdi
leÅŁtirme
ĠEnstitÃ¼sÃ¼
Ġisteyenler
ĠbirliÄŁi
ĠAnayasa
Ġerkekler
ĠgÃ¶rÃ¼lÃ¼r
Ġetmez
has
yaspor
Ġpeygamber
udak
ĠhayatÄ±n
isar
ky
Ġmail
ĠkullanÄ±larak
aÄŁÄ±nÄ±n
Ġ2019
Ġidari
Ġgeb
Ã¼man
Ġtablet
Ġvatan
Ġevinde
ĠkaÅŁÄ±ÄŁÄ±
ĠDoktor
Ġetken
Ġec
ĠgÃ¶revl
Ġkurmak
Ġekipman
cÄ±larÄ±
utan
ĠkullanÄ±cÄ±lar
Ġgeride
ĠParis
ĠTwitter
Ġklima
ĠÄ°slÃ¢m
ME
ĠgÃ¶rÃ¼nce
akal
Ġsom
rosoft
Ġbulan
Ġsorular
ĠÄ±sÄ±t
Ġolaylar
emedi
Ä±yorsunuz
ĠOrt
linik
Ġseyret
ĠbaÅŁkanlÄ±ÄŁ
Ġsanal
Ã§Ä±lÄ±k
Ġbozul
imini
ĠGazete
Ġyasa
ĠSoru
Ð¾Ð
ĠÄ°le
Ġzirv
Ġakademik
Ġval
Ġkaza
cÃ¼sÃ¼
ĠÅŁartlarÄ±
ĠkararlÄ±
Ġbunlara
ĠTok
ĠgeniÅŁlet
ĠYav
ĠÄ°lÃ§
Ġtehlikeli
Ġbahar
AÄŀ
ĠÃ¶ÄŁrencilere
ikalÄ±
ÙĦ
Ãľn
ĠahÅŁap
eÄŁine
Ã¼phan
ĠalmÄ±ÅŁtÄ±r
rist
Ġbilgilere
ĠdÄ±ÅŁÄ±na
ĠÃ¼s
Ġengelli
ĠDaire
ĠkÃ¶p
ĠKuÅŁ
ĠkaranlÄ±k
Ġseviyorum
ĠcanlandÄ±r
ĠmaÃ§ta
Ġdoku
Ġhitap
ĠbakÄ±n
ĠbaÅŁlama
Ġgrafik
leyece
Ġprotokol
ĠØ
ĠErzurum
ĠkiÅŁiyi
Ġmuhalef
amaÅŁ
Ä°zmir
anta
ãĤ
suzluk
ĠBununla
dÄ±ÅŁÄ±
ĠÃ¶zet
ĠOp
ĠÃ§eÅŁ
emeyece
obot
ĠOlay
laÅŁtÄ±rma
anlÄ±urfa
Ġverdim
gÃ¼l
lÄ±lar
Ġarzu
ĠkÄ±rÄ±k
Ġegemen
Ġinf
dil
Ġedici
ĠKral
ĠiÅŁlemler
ĠkayÄ±tlÄ±
ĠhatÄ±rla
ĠalÄ±rken
ĠPiyas
ĠtÃ¶r
ĠTeknoloj
ĠnÃ¶
diven
Ġahlak
Ġsesi
ebilmesi
ĠÅŁair
ledim
ĠÃ§izgi
Ġris
leyip
Ġpeyn
ĠOrtak
ĠuyarÄ±nca
iraat
ĠVide
ĠaldÄ±k
Ġmekaniz
yaz
ĠgÃ¶revlendir
ĠÃĸzgÃ¼r
Ġirade
ĠkullanÄ±lmaktadÄ±r
Ġeklem
dÃ¶n
AF
Ä±nd
ĠiÅŁletim
ĠgÃ¶rdÃ¼ÄŁÃ¼
ĠtanÄ±k
Ä±ÅŁlÄ±
Ġ!
ĠOda
ĠÃ§Ä±karÄ±
emiyor
Ġkutu
maat
ĠsayÄ±sÄ±nÄ±n
Tr
Ġtay
ĠEmek
dÄ±rma
amÄ±n
layÄ±nÄ±z
ĠolmuÅŁtu
ĠTaraf
ĠNev
ĠgetirdiÄŁi
YaÅŁ
Ã¼rriyet
ebileceÄŁi
Ã§Ä±n
ĠÃ§alÄ±ÅŁmalarÄ±na
Ġizlem
lerimi
biy
ach
Ġetmeyi
ph
Ġilah
sever
leniyor
Ġkoleksiyon
Ġdaire
kas
igiturk
Yar
Ġdiyorum
lanabilir
Ä±lav
Ġplana
Ġnesn
ĠÃ¶lÃ¼
Ġdurumun
abak
ĠanlamlÄ±
2012
ĠMaÄŁ
led
Ġailen
Ġkonular
Ġsevgili
ĠvatandaÅŁlar
Ġvizyon
ĠkatkÄ±da
Madde
Bunun
ĠdÃ¼ÅŁÃ¼nÃ¼r
Ġbildirdi
ĠOrhan
ĠsaÄŁlanmasÄ±
ĠÃ¶ÄŁrenmek
yurt
ĠÃĸrgÃ¼t
Ã»l
ĠÃĩÃ¶z
Ġyorgun
liÄŁiyle
posta
Ġaktivit
stil
lÄ±ktan
ĠHanÄ±m
ĠsÃ¼rÃ¼yor
Ġno
epe
Dr
ondra
ĠÃ§ekir
49
Ġmit
Ġkategorisinde
ĠAÄŁÄ±r
.(
Ġgib
ĠAÅŁk
eceÄŁiniz
ĠAkadem
ĠzararlÄ±
ĠkÃ¶r
ĠKaymakam
ld
Ġbenden
xy
Ġmanevi
Ġbirine
ĠbileÅŁ
ĠRenk
aÄŁÄ±nda
Ġelbis
ĠkalabalÄ±k
Ġprens
Ġbacak
ĠTav
Ġkalacak
tral
ĠsÄ±nÄ±rlarÄ±
ĠgÃ¶zden
ĠsÃ¼rpriz
ĠbÃ¶lgeye
ĠsektÃ¶rÃ¼
Ġtescil
Ġseri
lamalÄ±
ĠgeliÅŁen
ĠnoktasÄ±nda
ĠgerÃ§ekleÅŁti
Avrupa
ĠsatÄ±ÅŁÄ±
ebilmektedir
onik
ĠMÃ¼cad
ĠHey
gÄ±t
ight
ĠverilmiÅŁtir
Ġdenilen
Ġyuvar
ĠBana
ura
ĠdoÄŁan
Ġ33
Ġmasaj
ĠaraÃ§larÄ±
ĠbaÅŁladÄ±ÄŁÄ±
Ġbulur
ĠgÃ¼nleri
ĠmÃ¼lk
Ä£
ĠÃ¶rneÄŁi
Ġgereksin
oru
Ġaksine
Ġ01
ĠgÃ¶stermek
tÄ±ktan
ektaÅŁ
ĠkaybÄ±
ĠEmre
ĠTiyatro
artman
Ġkoordin
Ġokumak
lit
Ġevren
use
ĠDoÄŁal
bas
ĠDoÄŁru
ĠkÄ±yas
ĠKarÅŁÄ±
ĠRoman
Ġ250
ĠAdalet
ĠÅŀim
ĠLa
ĠÅŁehri
ĠarkasÄ±nda
ĠRoma
ASI
Ġefsan
Ġailesi
TK
dÄ±nÄ±z
yasÄ±
Ġetkiley
Ġkamyon
Ġsembol
Ġlek
lon
Ġenflasyon
laÅŁmasÄ±
ĠÅŀehit
esince
Ġinsana
Ã¼ya
ĠðŁĻĤ
ĠÄ±n
ĠdÃ¶nemin
Ġikin
ĠÃĩarÅŁamba
ĠpahalÄ±
Ġhaftada
Ve
ĠaÃ§an
ĠMetin
ste
Ġyah
ĠlÃ¼ks
otiv
Ġnez
Ġhorm
Bah
ĠyapÄ±labilir
ijinal
Bey
ĠÄ±rk
Ġbeklet
hab
ĠalanÄ±na
Ġlideri
Ġmater
Ġistatistik
mec
ĠÃĩak
ĠkÄ±smÄ±nda
iÅŁe
kenti
ĠeÅŁlik
Ġaksesuar
ĠsÃ¶zler
Ġtalimat
Yak
lÄ±yoruz
gresi
Ġdekorasyon
ĠÃ¼lkelerin
ĠYork
Ġannesi
avuÅŁ
ĠBahÃ§eli
Ġolmuyor
name
Ġeleman
ĠyÃ¼rÃ¼rlÃ¼ÄŁe
imet
Ġkoruy
ĠBarÄ±ÅŁ
ĠprogramlarÄ±
ĠyapÄ±lmÄ±ÅŁtÄ±r
Ġolmakla
ĠÃĸÄŁrenci
ĠbÃ¼yÃ¼y
Ġcesaret
Ġfinansal
ĠÃ§Ä±kmasÄ±
Ä±lmaya
Ġhip
ĠdoÄŁa
maÄŁ
ĠÅŁirketin
Ġkarbon
ĠalakalÄ±
ĠhemÅŁ
Ġriv
ĠPazartesi
Ġdevreye
Ġekonomi
Ġkamuoy
str
amÄ±nÄ±
Ġhizmetler
Ġbiliyorum
Ġistenen
Ġasit
ĠYazar
ome
Ġbekleyen
Ã¢l
ĠdeÄŁilim
Ġtutum
ĠsÃ¼rÃ¼m
ĠtarafÄ±nda
ĠTemsil
ĠettiÄŁiniz
Ġtedarik
ĠKÄ±lÄ±Ã§daroÄŁlu
ĠkÄ±smÄ±nÄ±
ĠÃ§atÄ±
ĠdÃ¶nemlerde
Ġokum
Ġvefat
ĠÃ§Ä±kÄ±p
Ġhaberi
ĠyÄ±lÄ±na
ĠKaya
ĠDairesi
ĠdeÄŁerleri
Ġkilometre
Ġimar
Ġkurban
Ġdelil
ĠbÃ¼yÃ¼t
ERÄ°
Ġnumara
itasyon
Ġkanat
ĠgÃ¶rÃ¼lmektedir
ĠÃ§Ä±ktÄ±ÄŁÄ±
ĠsorularÄ±
gini
ĠÃ§or
ĠkiÅŁilere
ĠMotor
ĠBakÄ±m
ĠDek
Ġradyo
ĠrahatsÄ±zlÄ±k
Ġestetik
Ġihale
ĠaÅŁkÄ±n
Ġfestival
âĢĻâĢĻ
ĠGÃ¶ster
Ġzamanla
Ġbizimle
yim
ĠyaÅŁÄ±yor
ĠbuluÅŁtur
ĠÃĸnce
ĠSorum
Ġkalmak
ĠbaÄŁlam
Ġkaybeden
ĠSakarya
Ġbuton
Ġsof
oks
edeniyet
ĠOkulu
ĠkullanÄ±lab
ĠGelen
ĠgeliÅŁme
Ġteker
esto
ĠNot
ĠhayatÄ±na
ĠaÃ§tÄ±
poz
ĠBM
ĠFinans
mes
Ġmahalle
ĠGiriÅŁ
Ġkafa
ĠHDP
Ġayakta
kaya
talyan
Ġizlemek
ĠolduÄŁunun
gilizce
Ġkov
ayÄ±p
acaÄŁÄ±mÄ±z
Ġporno
top
SY
ĠgÃ¶sterdiÄŁi
Ġgram
ĠÃ¶ÄŁrenildi
simum
Ġduygusal
ĠÃĩiÃ§ek
Ġtebrik
elif
ĠtarzÄ±
ĠSoy
ĠIÅŁÄ±k
Ġoynanan
ĠÄ°Åŀ
ĠsÃ¼rÃ¼k
ĠYemek
Ġverg
Ġsahil
eyebilirsiniz
Ġpiyasaya
ĠayrÄ±ntÄ±lÄ±
Ġdiplo
ĠkontrolÃ¼
ĠalÄ±mÄ±
Ġiklim
lub
DP
ĠSayf
ĠÃ§apÄ±nda
ĠyaptÄ±ÄŁÄ±nÄ±
Ġdemokrasi
ĠdoÄŁur
ded
ĠKore
Ġbizzat
ĠdÃ¼zgÃ¼n
ĠyayÄ±mlanan
Ġ39
ĠdÄ±ÅŁÄ±ndaki
Ġ2005
Ġimalat
laÅŁtÄ±k
ĠaÃ§Ä±ÄŁ
Ġtaksit
Ġtavsiy
Ã¼yoruz
ĠaÃ§Ä±klamasÄ±
ĠYabancÄ±
Ġegzersiz
ĠKonu
Ġzul
ĠJandarma
Ġbiliyoruz
ĠbakalÄ±m
Ä°ÅŁte
ĠniÅŁ
ĠOper
Ġevine
Ġmim
Ġortada
ĠNit
ĠendÃ¼str
Ġmektup
Ġevin
ilt
Ġetkileri
lamalarÄ±
ĠkarÅŁÄ±lÄ±klÄ±
Ġzehir
ĠÃ§abuk
Ġkendisinin
Ä°C
cusu
Ġslog
ĠÄ°lgili
ĠaltÄ±ndaki
ĠbaÅŁarÄ±sÄ±z
ĠkapsamlÄ±
iyeli
Ġolsay
Ġmemleket
ĠKahraman
ail
ĠkaldÄ±ÄŁÄ±
tÄ±lÄ±
Ġtarihine
Ġseksi
Ġmaddesinin
ĠÃ§ocuklara
ĠkulÃ¼b
Ġkoku
Ñĸ
Ġkriter
ĠaÃ§Ä±kÃ§a
Ġkatk
Ġfilmin
Ġdevir
TA
Ġkrem
Ġbulab
endim
ĠaÃ§Ä±ldÄ±
ĠgÃ¶revini
Å¸
Ġtaze
Ġsunar
Ġetiket
ĠgÃ¶revli
Ġgiyim
ĠDergisi
Ġgeriye
Ġceph
ĠsÃ¶yler
Ġbr
gazi
Ġolgun
ĠsaÄŁlamaktadÄ±r
ĠsÃ¶n
Ġprotein
Ġgeldik
Ser
ĠÄ°lÃ§esi
lendiÄŁi
Ġkendileri
ĠGazetesi
ĠyargÄ±lan
Ã¼kleer
Ä°V
Ġplastik
ĠUÄŁur
ĠyÃ¼rÃ¼tÃ¼len
Kat
Ġyerlere
tadoÄŁu
ĠÃ§el
Ã§ilik
ĠdÃ¼zenlendi
Ã¼ÄŁÃ¼n
Ġbomb
Ġcinayet
ĠDiz
ĠanlatÄ±yor
ĠyolculuÄŁ
enize
Ġbizler
Benim
ĠtamamÄ±
ĠgeliÅŁtirme
Haber
Ġorganize
usundaki
ĠMin
Ġevi
pÄ±nar
Ġderg
ĠBebek
Ġraporu
ĠfarklÄ±lÄ±k
Ġbildirildi
Ġmakine
Ñĥ
ica
ĠsÄ±kÄ±n
198
UT
Ġkg
Ġ08
mÄ±yorum
ĠRuh
ĠPerÅŁembe
malÄ±yÄ±z
ĠKonseyi
ĠÃ§ekin
Ġverilmektedir
ĠbÃ¶lÃ¼mde
ĠHavalimanÄ±
ĠamaÃ§la
ĠdÃ¼zenlenecek
ĠmÃ¼h
ĠMÃ¼hendisliÄŁi
ĠinÅŁallah
ĠpaylaÅŁtÄ±
ĠNum
Ġbenimle
ĠSol
ĠoluÅŁturmak
ĠAle
malara
ĠYorum
ĠdÃ¶r
yeri
Ġteknolojik
hay
ĠÃ¶rgÃ¼tÃ¼n
Ġlik
Ġuzan
ps
ts
ĠpayÄ±
ĠverilmiÅŁ
Ġederler
Ġuydu
Ġset
lÃ¼lÃ¼k
ĠÃ¶dey
ĠyollarÄ±
ĠakÄ±m
ĠyemeÄŁi
larÄ±mÄ±zla
lediÄŁiniz
Ġkek
Ġrezervasyon
ash
Ġtef
ĠdeÄŁiÅŁen
kray
zerbay
je
kap
kili
ĠKonut
Ã¢lÃ¢
ĠUygula
ĠFarklÄ±
Ġevr
anÄ±p
Kul
mus
ĠKÄ±zÄ±l
ĠiÃ§ecek
ayolu
ĠFaz
ĠÃ§izg
Ġduruyor
ĠBaÅŁvuru
ĠhakkÄ±ndaki
ĠgÃ¶rÃ¼le
ĠPen
ĠarkadaÅŁlarÄ±
Ġparalel
ĠGÃ¶l
own
Ä±kÃ¶y
ĠhaÅŁ
ĠKayÄ±t
Ġ02
ĠEngel
Ġimal
resyon
Ġbekliyoruz
oid
ĠÅŁarj
izli
Ġvadeli
sÃ¼
ĠbatÄ±
IT
ĠAlÄ±
Rus
Ġkonuya
odu
ĠKer
ĠMik
dirne
umuza
ĠÙ
Ġblok
ĠAD
Ġbirinc
Ġkabil
eciler
Ġtamamla
Ä±mÄ±zdan
ĠyakÄ±t
Ġfen
Ġmide
ĠÃ¼zeri
ĠMarmara
ĠLev
ĠtarafÄ±
ĠER
andevu
Ã¼ÄŁÃ¼
Ġbulma
ĠHac
Ġliste
ks
Ġusta
ĠbaÅŁlamÄ±ÅŁtÄ±r
Ġbitti
ĠÃ¶zgÃ¼
luÄŁa
Ġsistemin
ĠAp
Ġ47
ĠAil
ĠDal
ĠMÃ¼zesi
ÃĸR
ĠeÄŁlence
nÃ¼
ÃĸN
Ġsistemine
Ġimzal
Ġdondur
lant
Ġmahkeme
AÃ§Ä±k
CumhurbaÅŁkanÄ±
ĠSalÄ±
memek
ĠOnline
Ġvermesi
ĠKalkÄ±n
ĠÃ¼yeler
Ġinci
indan
Ġsizden
ĠinanÄ±lmaz
ĠyardÄ±mÄ±
Ġlab
ĠkonularÄ±
ĠuyuÅŁturucu
ĠSokak
Ġcennet
lÄ±yorum
isti
ĠHastalÄ±k
Ġlam
Ã½Ã¾
ĠgÃ¶rmÃ¼ÅŁ
yaÅŁ
ĠyÄ±kama
memiz
ĠtoplantÄ±sÄ±nda
Ġpolitika
ĠDi
Ġdiliyorum
ĠSÃ¶zleÅŁ
yaman
ĠKullanÄ±cÄ±
Ġgelec
Ġraf
Ġgidecek
Ã§Ä±sÄ±
ĠÃ§aba
ĠYaÅŁam
ĠÃ¶p
ĠÄ±srar
ohn
Ġfaaliyetleri
Ġro
ĠBirÃ§ok
ĠTerÃ¶r
amayan
Ġgetiriyor
gur
ĠbÃ¶lgesi
ĠMesela
Ä±ndÄ±k
Ġevrak
Ġprofil
lobal
ĠgÃ¼nÃ¼nde
ĠseÃ§eneÄŁi
iÅŁli
Ġfant
ĠBo
Ġbulut
lamada
olab
ĠeÅŁsiz
ĠGeliÅŁtir
Ġskor
ĠyakÄ±ÅŁ
tasÄ±
ahhÃ¼t
Ġreng
ĠgerÃ§ekleÅŁtirildi
Ġikisi
Ã¢b
Ġpak
ĠyazdÄ±ÄŁÄ±
Ġkazanmak
ĠAir
ĠÃ¶v
Ġdelik
acÄ±lÄ±k
Ġsad
atta
Ġlezzetli
ĠPek
tÃ¼rÃ¼
Ġuygulamaya
ĠGe
DV
ĠÃ¼lkemiz
ĠdÃ¶ndÃ¼
Ã§Ä±lar
Ġnaz
Ġgerekirse
luÄŁunu
ĠÅŁirketleri
Ġtey
ĠÅŁimdiden
ĠyapmaktadÄ±r
In
ĠÃ¼lkemizin
ĠyÃ¶ntemleri
Ġtahsil
ĠBirleÅŁik
ĠdediÄŁi
tÄ±ÄŁÄ±m
uda
Ġsiyasal
Ġkonferans
ersiniz
Ġsemin
ekom
Ġbedeli
Ġuzay
ĠtÃ¼ketic
Ġvic
ĠgÃ¼ndÃ¼z
Ġkampanya
vat
ĠolmasÄ±nÄ±n
ĠyaralandÄ±
Ġhamur
ĠiÃ§eriÄŁi
Ġneticesinde
Ãľr
irt
ĠgeÃ§irmek
ĠrÃ¼zgar
meyece
Ġbilinc
Ġikili
ĠkomÅŁu
ĠiÃ§erir
ĠbakÄ±mÄ±
ĠiliÅŁkileri
Muh
dÄ±kÃ§a
Ġtv
ÅŁek
ĠKazan
Ġcaz
mÄ±ÅŁtÄ±m
mece
ĠdÃ¼ÅŁÃ¼ndÃ¼ÄŁ
ĠDalÄ±
EP
ĠhesabÄ±
ĠiÃ§erisine
Ġhizmete
Ġibadet
ĠkeÅŁfet
engiz
Ġdoktora
Ġsistemini
Ġyeterince
ĠarkadaÅŁÄ±m
ĠsÄ±caklÄ±k
ĠGeÃ§en
ĠSch
ĠÃ§Ä±karak
ĠtoplantÄ±sÄ±
ĠnÄ±n
ĠValisi
Ġedecektir
Ġmedy
set
Ġbunlardan
Ġsizlerin
ĠkarÅŁÄ±sÄ±na
Ġocak
Ãĸr
Ġtabak
ĠÃ§alÄ±ÅŁÄ±yoruz
Ġdirekt
Ġkral
Ä±lacaktÄ±r
ĠSeÃ§im
ĠRas
ydi
Ġantik
Ġdinamik
ĠkatÄ±lÄ±mcÄ±
Ġgibidir
Ġelinden
ĠkÃ¼f
ĠHayÄ±r
ĠsÃ¼rÃ¼
Ġoraya
Ä±lÄ±ÅŁÄ±
Ġihlal
Ġatmos
ĠgÃ¶ze
ĠNakliyat
ĠTÃ¼k
Ã¼lerek
à¸
Ġsuyun
Ã¼yada
ĠkalÄ±yor
ĠhÃ¢l
lÃ¼ÄŁÃ¼nÃ¼
ĠSaÄŁlÄ±ÄŁÄ±
ĠHa
Ġsenar
Ġistasyon
inizden
Ġmateryal
Ġedenler
ĠÃ¼lkeye
ĠaÅŁamasÄ±nda
Ġlay
ĠKerim
ĠBasÄ±n
Ġboru
Ġlaf
ĠyerleÅŁim
ĠÃĸrnek
ĠalanlarÄ±nda
ĠbulunduÄŁunu
ex
42
Sel
ĠÃ¼lkelerde
Ġdizisi
mektir
ĠÃ§il
Ġetmeniz
95
ĠTor
Ġkonaklama
Ġbedava
lÃ®
ĠÃ§Ã¶p
dere
Ġbiber
ĠyaÅŁamÄ±nÄ±
Ġambalaj
Sam
ĠkaynaklarÄ±
zerbaycan
Ġlise
umuzda
Ġekst
Ä±ÅŁÄ±n
ĠKAR
TV
Ġ195
ĠÄ°nce
Ġolmazsa
Ġforum
ĠLondra
Ãħ
inler
Ġmerkezine
ĠYun
ĠsÃ¼rÃ¼c
Ġhepsini
Ġkonulu
Ġarkada
ĠkurulmuÅŁ
ĠHareket
ĠbÃ¼yÃ¼sÃ¼
Ġpost
Ġhukuki
Ġkoyun
ĠDaÄŁÄ±
ĠodaklÄ±
ĠYalnÄ±z
ĠettiÄŁimiz
ĠDenizli
ĠyardÄ±mÄ±yla
ĠÃ§Ä±r
Ġsunucu
Ġpozitif
ĠHindistan
ĠunutmayÄ±n
ĠNih
ĠkarÅŁÄ±lÄ±ÄŁÄ±
ĠOd
iÄŁeri
Mar
ĠkarÅŁÄ±lÄ±ÄŁÄ±nda
ĠPersonel
ĠÃ§ekmek
Ġokula
cik
tor
ĠiyileÅŁ
ĠistediÄŁini
Ġtopla
Ġherkesi
Ãĸzellikle
ebilirim
mates
Ġyolunu
Ġverdik
Ġanlamak
ml
Ġkapak
asebe
ĠBilimleri
ĠAnd
cell
ĠBaÅŁka
ĠdanÄ±ÅŁman
ĠanlaÅŁma
Par
ÄŀÄ°
Ġemir
Ġismini
Ġsertifik
Ã§ilerin
Ġbakar
ĠBÃ¼lent
ĠanlamÄ±nda
sey
ĠilanlarÄ±
Ġ1000
Ġayet
Ġseyr
Ġtren
ĠÃ§Ä±kma
erif
Kend
ĠPh
Ġdirek
ĠÃ§ak
Ġeline
ĠKÄ±y
YD
Ġtor
ĠadamÄ±n
Ġbizleri
ĠÃ¶nemlisi
Alman
ĠSavunma
amaÅŁÄ±r
ĠsatÄ±r
Ä±lÄ±rken
ĠÂ«
ĠalÄ±nmÄ±ÅŁ
ĠAV
Ġstres
Ġsahipleri
ĠYÃ¶netmelik
Ġyuv
ĠkolaylÄ±kla
ĠeÅŁyalar
ĠPlay
Ġforma
ĠgÃ¶rÃ¼ÅŁme
ĠSilah
ĠTC
ich
ĠyurtdÄ±ÅŁ
AA
masi
ĠBakanlÄ±k
ĠbaÅŁkenti
akin
ft
Ã§asÄ±
Ġ<
adÄ±ÄŁÄ±nÄ±z
Ġdisiplin
ĠalÄ±ÅŁkan
ure
Ġbelirgin
astik
Ġdaima
eÄŁini
ĠHe
Ġbayrak
ĠiÅŁini
ĠbaÅŁtan
Der
Ġsorunsuz
ux
emiyorum
43
ĠgÃ¶rebilirsiniz
Ġyumurt
ĠgeleceÄŁi
ĠÄ°spanya
jinal
Ġdediler
Ã¼rt
Ġ2004
ĠDeÄŁiÅŁik
Ġoradan
Ġmesleki
ĠbaÅŁlÄ±k
Ġ120
ĠKud
ĠÃ¶lÃ§Ã¼m
orit
Ġolurdu
po
ĠOtom
ĠolanÄ±
Ġtalebi
eyt
Ġgalibiyet
ĠÃ¶ÄŁrenme
Ġgetirir
ĠhaftalÄ±k
ĠdevamlÄ±
68
Ã¶nÃ¼
Ġ58
ubu
ĠCevap
Ã¢hil
ĠkÃ¶tÃ¼l
ĠyazÄ±yor
ĠGÃ¼mÃ¼ÅŁ
Ã¼lasyon
duÄŁunda
Ġbudur
Ġgirer
ĠetrafÄ±nda
brek
gn
Ġdeplasman
BUL
gut
kusuz
Ġsakat
dÃ¼ncÃ¼
ĠZeytin
Ġcevab
aport
udu
PG
ebileceÄŁiniz
ĠihraÃ§
Ġkoyu
Ã§ileri
asÄ±n
ĠtaÅŁÄ±yor
Ġteknolojisi
bat
ekili
ĠrÃ¼y
ĠKalkÄ±nma
ĠsÃ¶k
yat
Ä±mdan
Ġprojenin
ĠAmaÃ§
ĠgÃ¼cÃ¼nÃ¼
Ġdefter
Ġverileri
ebze
ĠGÃ¼ncel
Ġkurulum
ĠKoc
abrika
ĠpaylaÅŁmak
lazÄ±ÄŁ
lenerek
ĠÃ¶f
Ġdert
ĠhazÄ±rlanmÄ±ÅŁ
ilirken
Ġmatematik
ĠsatÄ±
ĠsahipliÄŁi
Ġdesen
ÄŁiyle
ĠgÃ¶v
Ġizni
ĠtÄ±klayÄ±n
ĠdÃ¶ÅŁ
Ġtohum
ĠÃľN
ĠkÃ¶ken
ĠhayatÄ±nda
Ġmanzar
ĠsanÄ±k
ĠÃ¶zellikler
Ġistikrar
ĠDevleti
Ġalet
ograf
Ä±sÄ±n
ĠbÃ¶lgenin
ĠzamandÄ±r
edikleri
uydu
Ġoyuncak
ikal
uyorlar
laÅŁÄ±m
ĠYay
Ġyoluna
ĠanlayÄ±ÅŁÄ±
Ġolurken
Ġetmem
caÄŁÄ±z
portaj
ĠyaralÄ±
Ä±llÄ±
sed
Ġajans
Ġyazan
Ġmesela
abilme
gÃ¶z
Ġmutf
KÄ±r
78
akistan
ĠbastÄ±r
Ġmaddeler
ĠForm
Ġkuy
andum
Ġ(%
Ã¼mÃ¼ze
unacak
EZ
Ġkoruyucu
Burada
das
ĠUlu
ĠDok
ĠPR
ĠMate
Ġlistesi
ĠÃ§alÄ±ÅŁtÄ±ÄŁÄ±
Ġsemt
Ġprojeleri
gim
atlÄ±
ĠdeÄŁiÅŁiklikler
utin
Ġmecbur
ĠzorundadÄ±r
Ä±nc
SÃ¶z
Ġkatli
ĠarÄ±z
ame
ĠsÃ¶ylemiÅŁ
ĠÃľret
Ã¼lmÃ¼ÅŁ
Ġkombin
Ã¼lÃ¼yor
Mil
ileceÄŁiniz
ĠgÃ¶zet
ĠHarek
landÄ±rÄ±cÄ±
liÄŁinden
ĠMek
ĠArabistan
isin
ĠKÃ¶r
DiÄŁer
Ġpir
ĠEfend
ĠTakÄ±mÄ±
alarÄ±yla
ĠolaylarÄ±
Ġakla
Ġlit
ĠsektÃ¶rÃ¼nÃ¼n
Ã§Ã¼
ĠfazlasÄ±
load
ĠOrtadoÄŁu
ĠaraÃ§lar
Ġlaborat
mekle
Ġidare
krayna
Ġkutsal
ĠcanÄ±m
GenÃ§
Ġseviyede
ĠHacÄ±
salar
HA
ĠyetiÅŁkin
danÄ±n
Ġdudak
Ġriski
ĠgereÄŁ
ĠyazarÄ±
ĠHalil
otosiklet
doÄŁu
tas
Ġbirlikt
abileceÄŁini
ĠyÄ±llarÄ±nda
ĠÃĸztÃ¼rk
ĠFi
Ġkadros
Ġhoca
Ġorijinal
ĠEmin
ĠolmasÄ±n
ĠÃľs
Ġsonradan
Ã¼min
ĠaÃ§Ä±klandÄ±
malarÄ±nÄ±n
eysel
amalarÄ±
41
ĠgÃ¶rme
ysa
Ġdersi
Ġsekiz
Ġkendime
2011
ĠManisa
ĠBeni
ĠdaÄŁÄ±tÄ±m
Ġkurdu
masÄ±dÄ±r
ĠMÃ¼slÃ¼m
ĠBirinci
Ġtuvalet
Ġomuz
uel
Ġbizden
ĠTedav
ĠPara
ĠYÄ±lÄ±
operatif
ĠayrÄ±m
Ä±yan
Ġ|--
Ġisimler
ĠgÃ¶nÃ¼llÃ¼
ĠAday
Ġetkiler
ÅŁak
ĠdeÄŁiÅŁken
Ġgemi
ĠDef
Ä±ÅŁÄ±klÄ±k
ĠyapÄ±larak
Ġmisiniz
Ã¼sÃ¼nÃ¼
ĠboÅŁan
ĠSn
Ġtutmak
ĠPa
))
Ġabon
Ġmedyada
aydÄ±
Ġ600
luÄŁun
ĠYavuz
ndaki
Ġduyar
ĠvatandaÅŁlarÄ±n
Ġbilgilerin
ĠDoÄŁum
Ġsus
ĠKoordin
yak
ĠÃ§ant
ĠhalkÄ±nÄ±n
Ġbulacak
Ġistenilen
ifi
ĠÅŁahit
Res
ĠSalonu
ĠmÃ¼zak
edektif
lip
Ġittifak
Ġihmal
ĠgeÃ§erek
ĠAkÄ±n
ĠtamamladÄ±
Uy
birliÄŁi
SD
ÄŁimde
Ġturnuv
iliÅŁ
Ġtrend
ĠaÄŁÄ±rlÄ±k
hiÅŁ
Ġkonse
ĠBeÅŁ
ĠZiyaret
Ġgereklidir
ĠDÃ¼nyanÄ±n
ÅŁet
Ġmilletin
KadÄ±n
iver
ĠyapacaÄŁÄ±
ĠÃĤ
iÃ§i
masÄ±z
esun
ĠÃ§Ä±kardÄ±
ĠetkileÅŁ
ĠMir
ildiÄŁinde
ĠtavÄ±r
ĠbÄ±Ã§ak
ĠgeliÅŁtirmek
Ġtazminat
Ġizleyen
ĠsÃ¶mÃ¼r
ĠÃĸde
Ġtutun
Ã¼nÃ¼r
madÄ±m
ĠanlatÄ±m
rit
Ġmaz
Ġoynamak
ĠAziz
ĠÃ¶tÃ¼rÃ¼
ĠbugÃ¼nkÃ¼
ĠortasÄ±nda
Ġfit
Ġbozukluk
ĠortamÄ±
Ġpiyasa
Ġcasino
Ġhakem
Ġnik
Ġsisteme
alaxy
ĠTÃ¼rkmen
eyince
ocuÄŁ
ĠkoÅŁullarÄ±
Ġtatmin
Ġvurgulayan
Ġasgari
ĠÃ§Ä±karmak
ĠÃ¶zgÃ¼n
sÃ¼n
yn
Ġzamana
Devlet
Ġbag
ĠBanka
Ġ2002
Ġreferans
Ġesnek
Ġbayanlar
Ã¼el
ĠaltyapÄ±
KAR
ANBUL
ĠÃ§evresinde
ĠBoÄŁaz
Ġsordu
ĠTim
ĠseÃ§ilen
Ġhttps
Ġlastik
iyorsunuz
opark
ĠSizin
ĠBÄ°L
Ġlen
Ġbardak
Ġnefret
Ġsunuyoruz
ĠSelÃ§uk
ĠSaray
ĠtÃ¼y
GB
ĠKÃ¶pr
Ġpilot
ĠÃľniversite
Ġeseri
ĠuygulanÄ±r
ĠyararlÄ±
anak
ĠRo
ĠSabah
ĠiÅŁletmeler
yolu
mediÄŁini
Ġtopluluk
Ġstok
Ä±nÄ±zdan
ĠyalÄ±
Ã¼ksek
Ġkullanmaya
Ġsamimi
ora
taÃ§
Ġkaybed
ĠMel
coin
Antalya
ĠhikÃ¢y
Ġkade
Ġemr
ĠoluÅŁturur
ĠbaÅŁÄ±ndan
ĠBazen
ĠÅŁeyden
Ġkaydeden
ĠzamanlÄ±
ĠÃ¶zÃ¼r
ĠÄ°mparator
ish
zaman
tiÄŁiniz
aÅŁkÄ±n
Ġsizinle
culuk
Ġdey
Ġmetr
ĠTh
ĠOla
ĠCanlÄ±
Ġobj
ĠKa
aseb
amalar
uluÅŁ
Ġziyade
Ġoyna
ĠÃ§Ã¶zÃ¼mÃ¼
ĠAla
cuk
ĠGÃ¼nlÃ¼k
ĠHangi
ĠitibarÄ±yla
Ġ46
ĠTrans
ĠmÃ¼te
ĠSamsung
Ġsaatte
del
ĠKem
ĠmarkasÄ±
ĠTip
Ġduran
ĠsÄ±radan
ĠHollanda
ĠkaÄŁÄ±
ĠÅŀubesi
Kan
ĠsaÄŁlay
ĠkorunmasÄ±
ĠBulgar
77
ĠCep
gelen
SP
Ġhid
ĠfÄ±
ĠmÃ¼st
Ġilerleyen
lÃ¼ÄŁÃ¼ne
lilerin
Ġplanda
ĠDiÅŁ
ĠolmasÄ±dÄ±r
Ġmaksimum
Ġzorlu
kÃ¢r
Ġimam
ĠboÅŁal
ĠtakÄ±mÄ±n
ĠBÃ¶yl
onlar
Ġtoplamda
Man
ĠMÃ¼cadele
Ġdilim
Ġisimleri
rd
ĠSaf
ĠÄ°ÅŁletme
ĠdolarlÄ±k
ĠâĢĺâĢĻ
ĠÃľretim
Ġvize
ĠgÃ¶reve
ĠCumhurbaÅŁkanlÄ±ÄŁÄ±
Ġvol
Ġgetirilen
ĠKitabÄ±
ĠolaÄŁanÃ¼stÃ¼
ĠKoruma
ĠsilahlÄ±
tihar
ĠHerkes
Deniz
ĠHoca
ĠÄ°L
ĠOnu
Ġkel
ĠcoÅŁ
ĠkaynaklÄ±
ladÄ±m
ĠJaponya
ĠÃ§Ã¶zÃ¼mler
Ġtopu
dolab
ĠgÃ¼v
Ġyoksul
Ġsag
uÅŁtuk
ĠdÃ¼nyayÄ±
ĠErmen
mik
Äł
ĠolacaÄŁÄ±z
gul
dirim
anya
yaÄŁ
Ġniye
Ter
ĠÃ§am
Su
ĠortamÄ±nda
ĠGol
Ġhareketi
Ġibaret
ĠneÅŁ
ĠDigiturk
itab
Ġzincir
ĠÃĩetin
ĠaÃ§Ä±klamalarda
Ġfiyatlar
ĠÃľl
Ġirtib
dinde
ĠbaÅŁlÄ±ÄŁÄ±
Ġsandal
Ġsayfada
Ġbeton
ĠPolitik
ĠgÃ¶sterilen
Ġkaynaklanan
amayacak
Ġoynayan
ĠhattÄ±
Ġgirip
Ġresimleri
rid
Ġdenize
ĠYoksa
TT
Ġplaj
Ġ2003
ĠCo
Ġmemnuniyet
Eski
Ġperde
ulma
ĠTeÅŁkil
ĠmÃ¼sa
Amer
uki
lidir
Ġminik
raÄŁÄ±
ĠanlatÄ±r
Ġbilgilerini
Ä°B
Ġevvel
ĠgeÃ§mek
ayn
dÄ±ÄŁÄ±nÄ±n
ĠSuudi
ĠÄ°talyan
Ġch
ĠmeÅŁhur
ĠonarÄ±m
Ġyavru
ĠÄ°nan
unum
ĠcevabÄ±
ĠEmir
ĠkÃ¼l
ĠolanlarÄ±n
ĠoluÅŁturduÄŁu
ĠSohbet
ĠdeÄŁiÅŁimi
ĠbaÅŁarÄ±lar
ĠoluÅŁturulan
Ðº
ĠÅŁok
!..
ĠiÅŁleme
ĠgÄ±d
ĠYakÄ±n
Ġmotiv
Ġhemde
ucusu
Ġorganik
ont
Ġbekliyorum
urdu
ellef
Ġteklifi
ĠyÄ±ldan
ĠdÃ¢hil
Ġdisk
ĠkÄ±saca
ĠToplantÄ±
amin
und
amÄ±yorum
Ġrobot
Spor
ĠStad
ĠAslan
Ġdevleti
BazÄ±
Ġverin
ĠKadÄ±nlar
lusu
ĠalmayÄ±
Ġkapsamda
Ġburun
ĠfirmalarÄ±n
ĠaldÄ±ÄŁÄ±nÄ±
ĠÄ°Ã§er
Ġmedeniyet
burg
Ġyetki
likten
Ġgirmek
Ġsergilen
OD
ĠkitaplarÄ±
ĠRob
esidir
iller
Ġsh
ĠhÄ±zlandÄ±r
Ġnereye
Ġdeneyimi
itÃ¶r
ĠaÅŁÄ±k
ĠSelim
Ġhakaret
ĠiÄŁ
ĠMedya
ĠgÃ¶rÃ¼nen
Ġberaberinde
ĠForum
ĠboÅŁluk
Ġcemaat
io
GK
ĠBÃ¼r
Osman
Ġuydur
Ġistemez
ĠUzmanÄ±
metik
Ġformat
Ġ49
Ġmalzemeler
ano
alarca
Ġard
ĠBayrak
ĠEN
cin
Ġmevzuat
Ġhayli
Ġnoktaya
ĠBaÅŁar
ĠDis
ĠÃ§Ä±kmak
hale
ĠAbdÃ¼l
dÄ±ÄŁÄ±nÄ±zda
Ġkoz
ĠolmasÄ±ndan
ĠYazÄ±
ĠGeliÅŁ
ĠÃ¼reten
ĠKadÄ±kÃ¶y
ĠDes
ĠtemizliÄŁi
ĠdÃ¶ner
Ã½nÃ½
Ġkedi
ĠkullanÄ±cÄ±larÄ±n
ÃĸK
Ġdepolama
Ġgiderken
Ġex
Ġkitaplar
Ġboyun
Ġrivayet
Ä±lmalÄ±dÄ±r
Ä±sÄ±ndaki
Ġistifa
hid
Ġduyurdu
ĠkÃ¶prÃ¼
Ġnam
SA
Ġtitiz
ĠSoÄŁ
yacaÄŁÄ±z
Ġpomp
lerinizin
ĠFor
Ġzem
ĠduyduÄŁu
ĠaldÄ±ÄŁÄ±mÄ±z
Ã½m
ÄŁrÄ±
ĠgirmiÅŁ
ĠÃĩank
Ġkritik
ĠiÅŁten
MAN
Ã¼lÃ¼k
ĠCom
Ġnolu
Ġikamet
Ġnakliye
ĠarayÄ±ÅŁ
ĠBos
Ġsizde
ĠvarlÄ±ÄŁÄ±
Ġhaberler
ĠÃĸncelikle
ĠErmeni
ĠÅŀekil
Ġ42
Ġkavg
Ġmerh
Ġdurumlar
ĠuÄŁur
Ġge
tÄ±klarÄ±nÄ±
ĠkadÄ±nÄ±
ĠdoÄŁrusu
ĠgerekÃ§esiyle
ĠEkonomi
Ġna
hats
Ġtarihten
igÃ¼r
mÃ¼yor
ĠÃľrÃ¼nleri
anÄ±zÄ±
ĠYukarÄ±
Ġonlarca
Ġtavuk
Ä°ki
ĠMo
dukÃ§a
ĠBÃ¼yÃ¼kel
Ġminim
Ġyazma
nav
ĠBilimler
ĠsÃ¼z
ĠAnne
Ġhamil
Ġvermeden
ĠoluÅŁturul
ĠgenÃ§ler
ĠJo
ĠSinan
Ä±lacaÄŁÄ±nÄ±
Ġheyet
ĠhaksÄ±z
unÃ§
ĠbÄ±rakÄ±n
Ġkonuyla
sÃ¶r
kut
ĠBunlardan
ĠihtiyaÃ§larÄ±nÄ±
ĠyarÄ±ÅŁma
DÃ¼ny
ĠÄ°liÅŁkin
ĠÄ°stik
ĠOb
uper
ence
Ġgittim
press
ĠHolding
Ġgazete
Ġiftar
ĠyÃ¼rÃ¼m
iyanet
rah
Ġolursunuz
Samsun
Ġdenen
ĠDayan
ĠSalih
ĠÃ§alÄ±ÅŁmalarÄ±n
IF
ĠaÃ§mak
Ġmusunuz
Sur
ĠparÃ§alarÄ±
Ġsinyal
ĠgidiÅŁ
ĠoranlarÄ±
Ġsaniye
ĠlayÄ±k
Ġpersoneli
ĠÃ¶ÄŁrencisi
ĠgÃ¶rÃ¼lÃ¼yor
larÄ±mÄ±zda
ĠÄ°lan
Ġtesisat
Ġoturum
Ġkendinize
Ġgirecek
ĠOÄŁuz
ĠyÃ¼zÃ¼
ĠBes
olos
ĠAcil
ĠgÃ¶nderilen
ĠKartal
Ãµ
rib
Ġediyorlar
ĠiÅŁit
ĠÃ§Ä±l
ĠBiy
tuÄŁu
Ġprotesto
Ġverip
ĠsÄ±nÄ±fÄ±
ĠinanÄ±yorum
ĠuyandÄ±r
ĠdoÄŁu
ĠboÄŁaz
Mal
ĠJohn
Ġdeli
ATO
ĠUÃ§
ebilirler
ĠÄ°laÃ§
Ġharca
tÄ±ÄŁÄ±nÄ±z
ĠyÃ¼kleme
ĠBiraz
fir
kÄ±ÅŁ
ĠsektÃ¶rde
Ġveriyoruz
ĠsÄ±klÄ±kla
ĠkullanÄ±r
Ġbununla
Ġima
ĠGÃ¶rÃ¼ÅŁ
Ġili
Ġstratejik
Ġdahilinde
ion
ĠParkÄ±
ĠaÄŁrÄ±sÄ±
Ġ@
ĠEdirne
Ġ00
ĠrÄ±z
Ġorganiz
Ġparsel
ĠYaklaÅŁÄ±k
ĠArslan
Ġithalat
azz
Ä±rt
ĠbÃ¼tÃ§e
Ġrady
Ġbirinde
ĠIÅŀ
ĠKadir
laÅŁan
ĠÄ°ht
ĠaÃ§Ä±klan
Ġfot
Ġkimseye
ĠbaÅŁladÄ±k
ĠHiÃ§bir
ĠBaba
lunun
ĠAzerbaycan
ĠdÃ¼kkan
ĠyapÄ±lacaktÄ±r
ĠuzaklaÅŁtÄ±r
ĠÃ§aÄŁdaÅŁ
ĠSayÄ±lÄ±
Ð»
Ġtarihlerinde
ĠÃ§alÄ±ÅŁtÄ±
ĠreÃ§
Ġilham
ĠolmanÄ±z
ĠSize
);
afe
ĠtaahhÃ¼t
ĠÃ¶ykÃ¼
ĠCamii
ĠBalÄ±kesir
Ġfikr
ĠbasÄ±nÃ§
ĠgerÃ§eÄŁi
Ġkurumlar
ĠbaÅŁlay
ĠyazÄ±sÄ±
ĠgeÃ§tik
Ġstil
ĠhÄ±zÄ±
ĠKaÅŁ
ĠMaliye
work
ilmeye
Ġtutuklu
ĠSine
Ġmol
Ġme
Ġhastaneye
ĠvurguladÄ±
ĠayrÄ±lan
Ġmilyonlarca
ĠYÃ¼ksel
ĠkarmaÅŁÄ±k
ĠOtobÃ¼s
ĠZiraat
Ġtarihte
Ġbizde
Ġonlardan
Sosyal
Ġizledi
Ãĸncelikle
Ġgetirildi
ĠmesajÄ±
ĠsÃ¼resince
ĠvirÃ¼s
ĠistediÄŁim
ÃľL
maye
ĠÃĸrgÃ¼tÃ¼
adiÅŁ
ĠÃľcretsiz
ĠgÃ¼lÃ¼m
ĠfarkÄ±nd
Ġmarket
ĠEfendi
ĠtadÄ±nÄ±
abol
ĠyapÄ±yorum
MADDE
ĠKuvvetleri
âĢĿ.
ilerinde
ojistik
Ä°YE
ĠÃ¶rneÄŁin
ĠDetay
cal
SÄ°
ĠteÅŁkilat
ĠAlÄ±ÅŁ
ĠMeydanÄ±
ĠtartÄ±ÅŁma
ĠgerÃ§ekleÅŁtirdi
Ġsesli
ĠTez
Ġrandevu
ĠMahmut
ĠaÃ§Ä±l
Ġhastane
Ä±lmÄ±ÅŁtÄ±
laÅŁmÄ±ÅŁ
bit
Ġisminin
sp
rasi
urun
ĠyapÄ±ÅŁtÄ±r
Ġharic
ĠÃ§eÅŁitleri
Ġsuya
ĠdÃ¼ÅŁt
LÄ°K
evler
ĠdÃ¶ndÃ¼r
ech
larÄ±mÄ±zdan
ĠHaklarÄ±
saray
Ġtesti
ĠsayÄ±lÄ±r
ĠMicrosoft
ĠgÃ¼mrÃ¼k
ĠBolu
ĠÅŀanlÄ±urfa
Ġtarafta
ĠprogramÄ±na
Ġutan
ĠyarattÄ±ÄŁÄ±
Ġperiy
emeyecek
irdaÄŁ
caÄŁÄ±m
Ġlimon
ĠcezalandÄ±r
ĠZor
Ġyorumlar
ĠyaptÄ±ÄŁÄ±m
kale
ĠÃ§Ä±rp
Ġhic
ĠkÃ¶t
icil
uluÄŁu
Har
Ġgelmez
Ġdedektif
Haz
Ä±tma
NA
ĠattÄ±ÄŁÄ±
Ġbelirlendi
luÄŁunda
ĠDel
ĠSektÃ¶r
ĠyazdÄ±
ĠmÃ¼raca
eriler
ĠgirdiÄŁi
ith
ĠÅŁiirleri
ĠÃ¶nlemek
row
ĠsayÄ±sÄ±nÄ±
caÄŁÄ±na
ĠdÃ¼zel
Ä±lÄ±mÄ±
ĠSistemleri
EÄŁitim
Ä±cÄ±sÄ±
ÃľK
ĠyÃ¼klen
Ġkoca
Ġatmosfer
ĠkardeÅŁi
ĠkÄ±yÄ±
avÃ¼z
Ġdurumuna
Ġkula
Ġgergin
ĠbakÄ±ldÄ±ÄŁÄ±nda
encere
Ġikna
ĠaÄŁÄ±rlÄ±klÄ±
ĠfirmanÄ±n
ĠRektÃ¶r
ĠkullanÄ±c
Ġyerinden
ĠTrabzonspor
ĠNik
ĠgÃ¶zler
ĠSÃ¼t
ĠAteÅŁ
ĠKÄ±zÄ±
ĠyapÄ±ldÄ±ÄŁÄ±nÄ±
ĠÅŁansÄ±
Ġsomut
ĠtoplantÄ±da
ĠMuÄŁla
ĠSc
iliÄŁin
ĠMali
76
eten
ĠaldÄ±klarÄ±
ĠyaÄŁÄ±ÅŁ
ĠinsanlÄ±k
cunun
Ġpor
low
ĠkitabÄ±n
ecilik
Ġolabiliyor
umun
ĠbaÄŁlantÄ±sÄ±ndan
Em
ĠyaptÄ±ÄŁÄ±nÄ±z
madÄ±ÄŁÄ±nÄ±
Kim
Ġvicdan
Ġmuhafaza
Ġpis
omuz
ĠKonuÅŁ
sus
HK
ĠAjansÄ±
ĠyazÄ±n
ĠDan
ĠdÃ¼ÅŁÃ¼nen
ĠhastalÄ±klarÄ±
ĠgerÃ§ekleÅŁtirilecek
ĠMuhar
ĠyaÅŁa
Ġetmekte
ĠFuarÄ±
Milli
ĠGec
Ġkimin
Ġonlarla
Bay
Ġtemsilcisi
ĠMatematik
ĠKK
ĠDernek
ĠsÃ¶zcÃ¼k
ĠbardaÄŁÄ±
ĠOyunu
Ġbran
ĠyapacaÄŁÄ±z
amadÄ±
ÅŁtur
ongul
tÄ±p
Ġrekor
ĠuzmanÄ±
sizin
Ġtac
Has
ĠYaÅŁar
Ġtopar
ÃĩalÄ±ÅŁ
Ge
onsor
ĠTÃľRK
Ġleh
ĠKilis
ĠdÃ¼ÅŁer
ix
ĠÃĩeÅŁit
ĠdÃ¼nyasÄ±nda
ĠElektronik
saÄŁ
Ġhang
ĠoynadÄ±ÄŁÄ±
ĠyarÄ±sÄ±
Ġyapay
ĠBoÅŁ
losuz
onguldak
Ġgerektiren
ĠGece
ĠsÃ¶zlerine
Ġvitamini
ĠBol
mesin
ĠReklam
Ġgetirerek
ower
Ġburs
Ġhissettir
Ġkasab
LIK
ĠatÄ±lan
biz
Ġkesi
cam
ĠBaÅŁsav
ĠÅŀampiyonasÄ±
Ġhangisi
Bizim
oÃ§
klar
ĠTatil
ÄŁrul
ĠtÄ±bbi
ahil
Ġsahte
ĠÅŁiddetli
ĠKanal
Ġmenf
abah
Ġilgilendir
ĠiÅŁtir
âĢ¦âĢ¦
ĠkatlÄ±
ĠsayfasÄ±nda
ĠdiÄŁeri
Ġheykel
ĠEg
ĠÅŁeref
ĠTuz
ebir
ahya
SS
ĠolayÄ±n
ĠEK
Ġadresine
fÃ¶y
Ġedilmelidir
ĠNedir
Ġtrafi
Ġkarn
ĠÃ§alÄ±ÅŁÄ±rken
ĠprogramÄ±nda
Ġsosy
ĠGez
ĠvazgeÃ§ilmez
ĠihtiyacÄ±nÄ±z
Ġgecesi
ĠmÃ¼sabak
Ġkonusundaki
lÄ±ÄŁÄ±ndan
alarak
ĠEsas
lini
ĠMÃ¼st
53
ĠtÃ¼rkÃ§e
ĠkarÄ±ÅŁÄ±k
landÄ±rma
ĠOyunlarÄ±
ĠsorunlarÄ±n
halde
Uzun
ĠKuruluÅŁ
Ġvekil
Ġyeme
Ġmacer
ĠHazret
ĠdanÄ±ÅŁmanlÄ±k
ĠSÃ¼n
Ġhormon
ĠkonularÄ±nda
ĠSP
ĠisteÄŁi
ĠÃ¶zelliklerini
ĠMutfak
ĠHÃ¼kÃ¼met
ayarak
ĠKongresi
Ġispat
Ġgayrimenkul
Dem
LAM
dilik
Ġkablo
ĠilaÃ§lama
Ġopsiyon
ff
Ġbelgeler
ĠdÃ¼rÃ¼st
ĠVergi
ĠyaÅŁandÄ±
ĠgeÃ§iren
istler
Ġuzaktan
Ġila
Ġaley
Ġiktid
ĠTÄ±k
ĠVÃ¼c
ĠÃĩavuÅŁ
antol
ĠoluÅŁmaktadÄ±r
Ġdinlen
Ã¼ldÃ¼ÄŁÃ¼
ĠmaÄŁlup
Ġhaberine
UluslararasÄ±
IC
ĠÃ§oÄŁunlukla
icileri
olata
ĠSak
app
500
ĠcihazÄ±
Ġokuyan
ĠkuruluÅŁlarÄ±
Ġoyuna
Ġsarf
Ġsevdik
!"
ĠsÃ¼rdÃ¼rÃ¼lebilir
ĠgeliÅŁimi
Ġkrizi
ĠyanlÄ±
Ġzik
The
Ġhil
ĠGay
Ġbelgeleri
ĠArda
ĠgÃ¼nÃ¼mÃ¼ze
ĠrÃ¶portaj
ĠAyr
acaksÄ±nÄ±z
Ġfikri
ĠaldÄ±ÄŁÄ±m
ĠGelir
mayla
ĠdÃ¶nemine
lack
Ġtemsilcileri
Ã¼mde
atÃ¶rÃ¼
Ġtavan
ĠsÃ¼nnet
ĠVatandaÅŁ
ĠMalzem
ĠÃ¼rÃ¼nlerini
ĠiÅŁveren
ĠaÃ§ar
Ġizleme
Ġchat
ĠGerÃ§ekten
icisi
ĠKudÃ¼s
ĠPlatform
ĠyayÄ±nlandÄ±
Ġgezi
Ġyir
Ġedilecektir
ĠmÃ¼zi
zir
ĠInstagram
Ġgarip
Ġgereksiz
ĠÅŁehirde
Ġalman
Ġdoz
Ġyoldan
ĠsÄ±nÄ±rsÄ±z
Ġsebze
Ġyaratan
alarÄ±mÄ±z
Kap
ĠdÃ¶nÃ¼m
GeÃ§tiÄŁimiz
Ġvitamin
ĠseÃ§in
Ġdet
Ġetkileyen
ĠdevamÄ±
ÅŁun
aracak
ĠdediÄŁimiz
ÄŁday
Ġveril
ĠÄ°sa
lenmiÅŁtir
ĠverdiÄŁimiz
imine
ĠsÃ¼rdÃ¼
ĠiliÅŁkisi
Ġhizmetlerini
Ġserisi
amil
ĠhafÄ±z
Ġsorgu
Ġoldug
tiy
ĠDak
Ã¢nÄ±
Ġkeyfini
LEM
medim
ĠKUR
ĠKalite
Ġrestoran
inizle
ĠBon
ĠÅŁirketler
ĠsaÄŁladÄ±ÄŁÄ±
leÅŁmiÅŁ
Ġelini
ĠQu
Ġsade
Ġhareketli
ĠDol
Bursa
ĠBelgesi
ĠTa
ticaret
ĠvarmÄ±ÅŁ
ĠmÃ¼thiÅŁ
ĠMor
ĠaracÄ±lÄ±ÄŁÄ±
val
ĠsatÄ±lÄ±k
Ġyazmak
69
ĠgeliÅŁtirilen
Hz
ĠÃ¶nemini
Tarih
Ġmuhalefet
atlar
57
ĠMÃ¼ÅŁteri
ĠVen
ĠÃ¶rnekleri
ĠList
Ġkuvvetli
ĠverdiÄŁini
hisar
Ġ41
Ġtarihe
ofÃ¶r
Ġtoplanan
ĠGalaxy
Ġmesl
ĠOnur
ĠtÄ±kanÄ±k
Ġsex
ĠiÃ§erisindeki
Ġailenin
Ġsevilen
ĠyÃ¼kselen
ĠsaÄŁlayacaktÄ±r
Ġokuyucu
Ġtarihinin
erg
AynÄ±
Ġdevre
Ġcar
Ä±ÄŁÄ±
ĠUkrayna
ĠEve
ĠcÃ¼mle
ĠtÃ¼p
ĠVideo
ĠAnal
ĠhastanÄ±n
ĠSayÄ±
Ġdeneyimli
Ġintik
Ġresmen
ĠÃ¶ÄŁle
Ġmotoru
ĠÃ¶len
ĠGÃ¼nde
ĠyaÄŁlÄ±
Ġmilliyet
Ġolursak
ĠyÃ¶nlÃ¼
ĠÃľnlÃ¼
ĠulaÅŁan
ĠBÄ°R
ĠbaÅŁa
Ġcinsiyet
eveyn
Ġelbise
ĠGÃ¼nÃ¼mÃ¼zde
ĠKoz
ĠkullanÄ±yor
Ġmuc
osunu
ĠCol
ĠuygulanmasÄ±
Ġ06
Ġaittir
ĠKuran
ĠeÄŁlenc
Ġverebilir
akende
ĠKiÅŁi
Ġvarsay
Ġsec
ĠÅŁÃ¼pheli
ĠUr
ÂŁ
Ġankara
faiye
BÃ¼tÃ¼n
ĠbaÅŁarÄ±yla
omb
Ġdola
Ġhedefi
aklar
ald
ĠÃĸdÃ¼lÃ¼
Ġmat
ĠperformansÄ±
Ġaleyh
Ġoturma
Ġsis
olojisi
ivan
BA
ebileceÄŁini
Ġdeg
)âĢĻ
Ġdeneme
Ġbilmek
Ġmel
ĠSim
Ġmaddenin
ĠsÄ±navÄ±
ĠyÃ¼kseldi
obi
lÃ¼ÄŁÃ¼nde
leÅŁen
2010
Ã¼mÃ¼zÃ¼n
Ġantrenman
Ġcezaev
Ġposta
Ġgebelik
amda
barat
ĠÅŁÃ¶
feri
ĠÅŀeker
Ġolurlar
ĠÃ¶nder
Ġfatura
Ġhur
eÄŁinin
Ġkendimizi
ĠÃ¼lkeleri
oni
astam
isim
ĠyÄ±llarÄ±n
ĠTelekom
ĠHafta
ĠolsaydÄ±
ĠgeÃ§ecek
ĠhÃ¢lÃ¢
Ġgazeteci
GeÃ§en
ĠsÄ±fat
Ä°TESÄ°
ĠtaÅŁÄ±nmaz
Ġolgu
Ã¼ntÃ¼
Ġuzanan
iyorsanÄ±z
ĠDavut
ĠÅŀiir
ĠyÃ¶netici
gÃ¶l
Ġbildirim
ĠgÃ¶rÃ¼ntÃ¼len
ceÄŁim
82
Ġdolara
Ġmerkezli
ĠyeryÃ¼z
ĠKardeÅŁ
ĠAfyon
ĠÄ°daresi
BB
ĠÃ¶yk
urya
Ġentegre
ĠdÃ¼nyadaki
Ġhikaye
ĠTuran
Ġ44
ĠsÃ¼rdÃ¼ren
ĠgeliÅŁmeleri
ĠÃ¼zÃ¼l
Ġbirbirlerine
ĠgeÃ§irdi
etli
ĠkÃ¼ltÃ¼rÃ¼
Ġnereden
Ġoksi
ĠStar
ĠPla
Ġkanaat
ĠyaÅŁamÄ±ÅŁ
Ġsaptan
67
ĠmÃ¼j
lerimizde
ĠSiyah
Ġzorlan
ĠKÄ±ÅŁ
Ġmetrekare
Ġboyutu
Ġoyuncusu
ĠbÃ¶lgelerde
Ġkurucu
ĠgitmiÅŁ
Ġinanc
ita
ĠmÃ¼ÅŁ
ĠÃĩam
ĠSendik
luyor
ĠbaÄŁlÄ±dÄ±r
ĠkullanÄ±ldÄ±ÄŁÄ±
ĠNitekim
iyo
Ġproblemi
Ġmiras
Ġvesile
ĠOnlarÄ±n
ĠAdnan
iriz
ason
ĠiÃ§e
Ġyi
ĠUygun
ĠoruÃ§
ĠÃ¼yelerinin
maraÅŁ
melerine
Ġhepimiz
ĠanÄ±m
Ġparla
Ġkaplama
Ã¼minyum
zen
ĠbÃ¶lÃ¼mÃ¼nÃ¼
ĠyapÄ±ÅŁ
ĠDub
Ġ03
Ġzafer
Ġgev
ĠÃ¶ÄŁrencinin
Ã§in
ĠartmasÄ±
Ġekleyin
ĠGB
acasÄ±
Ġkararlar
ĠsavaÅŁÄ±
berg
ĠoluÅŁuyor
ID
ĠgeÃ§tiÄŁi
ĠOlan
ceÄŁiz
ĠsÄ±ral
aÄŁÄ±ndan
ĠGeri
Ġerdi
Ġstaj
Ġoyunda
Ġsitede
ĠnÃ¼kleer
ĠSÄ±k
ĠEkonomik
St
85
larÄ±dÄ±r
ĠfÄ±rÄ±n
ĠKaraman
Ä±plak
ĠkatÄ±lmak
ĠCengiz
ĠAksi
ĠodalarÄ±
Ġmobilya
Ġmadal
Ġnitelikli
ĠIÅŀÄ°D
Ġmaddesinde
ĠdÃ¼nyasÄ±nÄ±n
Ab
lash
habalar
Ġfrag
ĠtÄ±rman
ĠBaÅŁak
adiÅŁah
ĠSÄ±nÄ±r
ĠkÄ±lav
ĠÄ°nsanlar
ĠCihaz
ĠDirektÃ¶rÃ¼
Ġisyan
Ġdonat
Ã¼mÃ¼zÃ¼
ĠcÃ¼z
Ã¢yet
ĠÃ§iÄŁ
beyaz
ÃľZ
Ġislam
ĠdÃ¼
yaÄŁÄ±
Ġyang
elerimiz
Tur
ĠVad
ĠetkinliÄŁi
ĠkatÄ±lÄ±mÄ±yla
Ġmaddeleri
ym
Ġformu
EÅŀ
Ä°VERS
emedim
ĠsorumluluÄŁ
Ġilim
acaÄŁÄ±na
ĠKapÄ±
Ġgezeg
ĠgÃ¶rÃ¼ldÃ¼
amÄ±zÄ±
ĠaÅŁamada
emektedir
Ġoyuncular
ĠsigortalÄ±
ĠdÃ¼zenledi
Ġtespiti
emde
Ġdomates
mÃ®
ĠyorumlarÄ±
larÄ±nÄ±zda
tikleri
lerimizden
ĠbÄ±rakÄ±p
ĠDevamÄ±
Ġrot
ĠedildiÄŁini
ĠLab
ĠAlbay
ĠZar
Ġseviyesi
grama
miyorum
ĠrazÄ±
alanÄ±
ĠkarÄ±n
faf
ĠsektÃ¶rÃ¼n
ĠkullanÄ±n
GE
ĠgÃ¼mÃ¼ÅŁ
ijyen
Ġgun
ĠTest
Ġkalitesini
Ġsalonu
ĠDurum
Ġpik
ĠÄ°N
Ã¼sÃ¼nde
IP
Ġruhsat
Ġadresinden
Ġakrab
ahattin
ĠdÃ¶nÃ¼k
ĠgÃ¶rÃ¼nÃ¼r
duklarÄ±nÄ±
ĠÃľzerine
aklarÄ±
ÙĨ
ullarÄ±
ĠÃ¶rgÃ¼
ĠmeÅŁru
mayacaktÄ±r
Ġgelebilir
usa
ĠToto
Ġmuayene
Ġ07
ĠyaptÄ±rÄ±m
ĠherÅŁey
ĠKomutanlÄ±ÄŁÄ±
ĠKDV
tisiz
Af
Ġkoydu
ĠgÃ¶Ã§men
Ġsantral
Ġkader
Ġetsin
ĠMÃ¼n
sinden
ĠhÃ¼kÃ¼mleri
ĠsevdiÄŁim
ĠbÃ¶lgedeki
Ġdk
ames
ĠBirlik
ĠHedef
ĠÄ°mar
ersek
abildi
Ġyetkilileri
Yine
sk
ĠvarlÄ±ÄŁÄ±nÄ±
amanÄ±n
ĠparÃ§alar
ĠkurulmasÄ±
vis
buki
Ġmask
pro
Ġdalga
tiÄŁim
eda
ĠimkansÄ±z
Â°
over
ÄŁa
ĠaÃ§tÄ±ÄŁÄ±
ĠÃľNÄ°VERS
peryal
Ġsitemizde
Ġpaz
Ana
Ġetmeden
malarda
Ġdeyip
ĠtÄ±klayarak
ĠyapacaÄŁÄ±nÄ±z
ĠmÃ¼kellef
ĠtÄ±pkÄ±
Fir
ĠCumhurbaÅŁkan
Ġdegil
ĠdoÄŁdu
abey
ĠkÄ±zar
Ġtutk
Ġzorla
Ġkaleme
ĠsÃ¶zlerini
ĠBalkan
Ġtetik
ĠhayatÄ±nÄ±n
Ġsep
Mes
ilmesinin
Ġgelecekte
ĠKesin
ĠyÃ¼ks
Ä±rnak
ĠHatay
dy
ĠElazÄ±ÄŁ
BaÅŁbakan
ĠÃ¶ldÃ¼
ĠKel
orld
ĠDa
ĠbÃ¶cek
ĠÃ¶ÄŁrenim
Ġsaatlik
Ġfiltr
ua
Ġag
Ġtabir
ĠihtiyaÃ§larÄ±
ĠNormal
Ġcerrahi
ĠTablo
ĠTÃ¼rkler
ĠfazlasÄ±yla
Ġetkisini
ĠayÄ±nÄ±n
Ġ52
ĠdÃ¶nen
ĠÃ§alÄ±ÅŁmalarÄ±nÄ±n
ĠiÃ§ten
ĠSeb
incan
ĠolabileceÄŁini
Ġdiyebiliriz
ĠiÅŁlemlerini
Ġyerin
avv
ĠMis
ÃĸZ
mÄ±ÅŁlar
ĠMahal
ĠoÄŁlum
Ġmuhtar
Ġerkeklerin
Ġbakmak
YukarÄ±
EFA
Ġmerdiven
arac
ĠbaÅŁlayarak
Ã¼nÃ¼zÃ¼
Ġmaliyeti
ĠtecrÃ¼be
ĠdetaylarÄ±
ĠartÄ±ÅŁÄ±
ĠdeÄŁilse
ĠDost
Ġbalkon
Ġdostu
Kam
ilmiÅŁti
ĠÅŁartlar
Sar
ĠÅŁirketlerin
ayÄ±cÄ±
uÅŁtuÄŁ
ĠBrezil
ĠgereÄŁince
ĠdeÄŁerler
tÄ±ÄŁÄ±nda
Ġtoptan
ĠToprak
ĠarkadaÅŁlÄ±k
onomik
ĠSekreteri
ĠyapÄ±ya
ileriyle
ĠFull
ĠkadÄ±na
ĠMilletler
Ġgirerek
Ġeyalet
GerÃ§
ĠkÃ¶ylÃ¼
ĠilaÃ§lar
ĠfotoÄŁraflarÄ±
ĠElbette
ĠgerÃ§ekleÅŁtirdiÄŁi
ĠTaÅŁÄ±ma
De
baÄŁ
ĠSÄ±cak
Ġihtimali
ĠÃĸnemli
Ġikiye
Ġekstra
lantÄ±sÄ±
ehr
ĠtasarlanmÄ±ÅŁ
Ã¼stri
ĠResim
ĠÄ°liÅŁkiler
ĠKÄ±rmÄ±zÄ±
Ġsenaryo
ĠTep
ĠBi
ĠyayÄ±nlan
ĠbÃ¶lgesel
ĠkurduÄŁu
Ġva
ĠkÃ¼p
Ġvergisi
ĠanlamÄ±yla
ranÄ±
ciÄŁer
eÅŁme
ĠdÃ¶rdÃ¼ncÃ¼
Ġizliyor
Ġanket
Ġsatan
Ġseviyesine
Ġ64
ĠatÃ¶ly
outube
ĠkÄ±smÄ±na
Ġbulgu
ĠOL
Ġrica
ĠbaÅŁrol
Ã§uklu
ĠKaymakamÄ±
ĠhazÄ±rladÄ±ÄŁÄ±
ĠkuruluÅŁu
59
Ġistedikleri
Ġcon
ĠBelediyespor
mosyon
ĠkiÅŁiden
ĠhÃ¼kÃ¼meti
ĠkullanÄ±ma
ĠyÃ¼kseliÅŁ
Ġnazar
ĠPC
Ġlif
piyat
ĠyÃ¼klÃ¼
Ġlev
dunuz
ĠBa
ĠGeÃ§miÅŁ
ĠkullanÄ±lacak
ĠdavasÄ±
Ġyemin
Ġbot
DÃ¼nyanÄ±n
Ġekledi
Ġelektrikli
tra
YÃ¼ksek
alik
Ġortala
uÅŁtum
ĠÄ°Ãĩ
Ã¼nc
ĠarttÄ±
Ġboyutlu
ĠdirektÃ¶r
Ġnis
ĠMADDE
ĠaydÄ±nlat
Ġpeynir
Ġreferandum
Ġmuhtemelen
Ġbilgilendirme
ĠBize
lasÄ±
Ġadaylar
ĠbÃ¶brek
iyordum
ĠStratej
ĠHÄ±zlÄ±
Ġsitesinden
ĠÃĸte
eÄŁiyle
Ġeksiksiz
Ġkira
ational
ĠVakÄ±f
ÄŁince
ARI
Ġtoplama
Ġetkinlikleri
ĠYAP
ĠÃĩat
Ġizmir
Ġpap
Ġdurumunu
Ġhastalar
ĠBakanlar
Ġyolun
ĠHesap
ĠiÅŁken
ĠaldÄ±ÄŁÄ±nÄ±z
ĠartÄ±yor
ĠemeÄŁi
ĠolacaksÄ±nÄ±z
ĠÃ§Ã¼r
ĠolabileceÄŁi
BÃ¶yle
ĠEvren
Ġseminer
ĠFiyatlarÄ±
td
Ġ2001
Ġvas
ĠÄ°Ã§iÅŁleri
parta
UZ
ĠkalmasÄ±
ĠJapon
Ġilerlem
Ġtahsis
Ġfilmleri
ĠayrÄ±ldÄ±
Ã§elik
ĠProt
ĠBelg
aci
64
ĠMesleki
iÃ§in
ĠvasÄ±t
ĠÄ°nÅŁallah
Ġmineral
ocam
kÃ¼dar
ĠkoltuÄŁ
ĠkardeÅŁim
ĠnoktalarÄ±
hak
ĠSuÃ§
Ġkanseri
Ã¼zÃ¼n
elin
ografi
Ġbaraj
ĠCin
ilde
AslÄ±nda
Ġsorgulama
bÃ¼r
ĠdoÄŁalgaz
yalar
Ġokulu
enizin
Ġliman
Ġnadir
sede
Ġemanet
Ġolas
ï¿½ï¿½ï¿½
ĠaÃ§Ä±lmasÄ±
ĠetmiÅŁti
Ġadli
elikop
Ġmezunu
ĠkÄ±lÄ±
OC
58
Ã¢s
Ġmasal
ĠCerrah
Ġmelek
ĠSigorta
menize
ĠkÄ±zÄ±n
ĠÃ§alÄ±ÅŁmalara
ĠÅŀer
Herk
Ä°SÄ°
ĠseviÅŁ
ĠayrÄ±c
ĠuzaklaÅŁ
arda
Ġbirimi
ĠFÄ±rat
Ġhel
ĠmÃ¼lt
ĠyapmÄ±ÅŁtÄ±r
masya
ĠyazÄ±lan
Ġoynat
Ġked
ĠgeÃ§irdiÄŁi
ington
oban
ĠboÅŁalt
ĠsÄ±kÃ§a
dedi
iliÄŁinden
ĠkurallarÄ±
ĠgÃ¶stergesi
ĠbaktÄ±ÄŁÄ±mÄ±zda
Ġasans
aciÄŁer
ĠsÃ¶zlÃ¼
ĠÃ§alÄ±ÅŁanlarÄ±
ĠEÄŁ
Ġoturan
Ġkelimeler
dÄ±ÄŁÄ±n
ĠmekÃ¢n
ĠKKTC
ĠgÃ¼ncellem
ĠparayÄ±
ĠvermiÅŁtir
ĠpoÅŁ
Ġsiteler
http
ĠÃľNÄ°VERSÄ°TESÄ°
ĠartÄ±rmak
ĠdÃ¼nyasÄ±
ĠbaÅŁlamak
ArkadaÅŁ
ĠZeyn
ĠTrafik
Ġbulunmayan
ĠkÃ¶yÃ¼
ĠTv
Ġgeldim
ĠbaÅŁlandÄ±
Ġfes
ĠFon
Ġanlatmak
âĢĭ
kif
Ġbilmeyen
Ġmidir
ĠaklÄ±ma
akkak
ĠsÃ¼rÃ¼ÅŁ
ĠettiÄŁim
kender
Ġbelirlenir
ĠJe
ĠyaÅŁar
Ġesir
ĠIP
Ġ57
ĠbÄ±raktÄ±
Ġhayv
Ġbilgiyi
Ġmevki
Ġgetirilmesi
Ġnihayet
amÄ±zÄ±n
Ġgelsin
ĠkatÄ±lma
ĠbaÅŁvurusu
eneral
!)
ĠtÃ¼ketici
Ġtrav
Ġedilemez
ĠbahÃ§e
Ġatmak
ĠâĨ
Okul
Rusya
Ġtitr
ĠtecavÃ¼z
ĠgenÃ§lerin
takÄ±m
Ġpatron
amÄ±za
Ġmezh
Ġetmeleri
cim
ĠyazÄ±lmÄ±ÅŁ
Ġbelirlenmesi
ĠkazÄ±
Ġdikkati
Ġmotosiklet
Ġendek
Ġverdikleri
ela
ĠÃ§if
Ġkendisinden
Ġettiklerini
ĠÃ§Ä±ÄŁ
raj
ĠgÃ¼ndÃ¼r
ĠbaÅŁlatÄ±lan
Ġmimari
ĠherÅŁ
ĠÃ¼ste
ĠFuar
Ġbekledi
Ġkonforlu
astamonu
ĠyÃ¶neticileri
Ġetkisiyle
Ġduyulan
ĠaÅŁÄ±
ĠBasketbol
ĠBaÅŁkanÄ±mÄ±z
ĠkaÃ§Ä±nÄ±lmaz
epyeni
cular
TS
ĠbilinÃ§li
ĠtÄ±klayÄ±nÄ±z
ĠGÃ¼mrÃ¼k
Ġilgisi
lanmaz
Ġnelerdir
Ġ54
ÄŁÄ±n
ĠTerc
ĠsatÄ±lan
Ġtencer
ĠÃ§ekerek
ever
ĠKanununun
ĠÃ¶ncelikli
ĠhÃ¢kim
ĠhaklarÄ±nÄ±
ĠAdet
ĠgÃ¶zÃ¼
Ġevlat
Ã¼cel
lerince
ĠCas
Ġsir
ĠMardin
dirme
ĠkÃ¶ÅŁe
ularak
Ġbakter
Ġfull
ĠTEK
sc
ĠAlp
mÃ¼ÅŁtÃ¼
ĠÃĩiz
Ġliraya
ĠÃ§amaÅŁÄ±r
Cumhuriyet
ĠYerel
Ġtarihsel
ĠsevdiÄŁi
ĠhÃ¼cre
Ġby
Ġpatates
Tak
ĠyaÅŁadÄ±
ĠmenÃ¼
Ġkurucusu
ĠÃĸlÃ§
ĠAY
ĠGit
Ġyapabilecek
Ġeti
ida
ĠÃ§ekilen
ĠÃ¶ncÃ¼
ĠTev
ĠCey
Ġanlata
eliyiz
ĠyapÄ±landÄ±r
ĠÄ°ncel
Ġepey
ĠÃĸy
Ġetek
osun
ĠadÄ±mlar
Ġgene
Ġzira
avan
âĢ¦âĢĿ
ĠfakÃ¼lt
Ġdog
ĠKitab
ĠdeÄŁiÅŁtirmek
ĠalÄ±ndÄ±ÄŁÄ±
ĠdeÄŁerini
ĠdirenÃ§
lamanÄ±n
ĠmÃ¼slÃ¼man
ĠÃ¼retici
lenmektedir
izmi
Ġveriliyor
TM
oot
ĠÃ¼lkeyi
ĠCemal
Ġbest
nci
ĠEng
ĠMusa
Ġartar
Ġhaliyle
Ã¼ÄŁÃ¼nÃ¼
idin
Ġborc
abilim
ĠoluÅŁtu
Ġbuldum
Ġgerilim
irkin
Ġtarafa
Ġ43
Ġhocam
ĠkampanyasÄ±
Ġintihar
Ġmemnuniyeti
ikler
Ġokudum
ĠaraÃ§larÄ±n
ĠaÃ§Ä±ÄŁa
Ġtemizleme
ĠÅŀarkÄ±
ĠBekir
ĠbaÅŁlÄ±
Ä°yi
ĠsÃ¼rdÃ¼rÃ¼yor
Ġdersleri
ĠmÃ¼d
ĠmÃ¼racaat
Ġplanlanan
Ġsebz
Ġhek
cilerin
Ġannem
irse
etle
ĠGelin
LA
ĠUnut
ĠAsker
ĠÃ§ub
vil
Ġhaberdar
Ġkucak
ĠkÃ¼tÃ¼phan
Ġcadde
Ġmenfaat
Ġdaim
ĠHad
ĠsandÄ±k
ĠpÃ¼r
Ġnakit
ĠilÃ§esine
lÃ¢h
ĠyÃ¶nÃ¼nden
Ġaynen
Ġmahkum
Ġelden
GÃ¶z
ĠSigort
ĠNes
END
ĠmÄ±dÄ±r
ĠÃĩÃ¶zÃ¼m
ĠOna
alÄ±lar
oyun
ĠResul
Ġlimit
ĠrÃ¼ya
KÄ±z
ĠalÄ±ÅŁkanlÄ±k
ĠÃ§Ã¶zÃ¼nÃ¼r
ĠKeÅŁ
Ġarazi
ĠÃ§Ä±kmaktadÄ±r
ĠaklÄ±m
Ġibar
ĠIII
ĠgenÃ§lik
ĠGÃ¶nÃ¼l
iÃ§re
ĠgeÃ§erlidir
ens
ĠMetal
ĠÅŁuan
ĠÄ°sveÃ§
ĠnamazÄ±
Ġalmadan
ĠKomutanÄ±
Ġedelim
Ġokulda
ĠFizik
........
Bar
tuÄŁrul
ĠtanÄ±ma
Ġbelirtmek
Ġmetro
Merkez
ĠNATO
ĠRize
ĠKum
iteli
Ġkurma
ĠtamamÄ±nÄ±
Ġhastanede
ĠakÅŁamÄ±
ĠgeÃ§mesi
Ġitiraf
ĠyÄ±kan
Ġfav
ĠkatÄ±lacak
Ġmisyon
ĠadlandÄ±rÄ±lan
ĠHil
Ġuf
Ġbenims
mil
ĠatÄ±ÅŁ
Ġkapsayan
ĠyÃ¼zÃ¼ne
zel
Ġyapmadan
ĠÅŁartÄ±
ĠbasÄ±
Ġteminat
ĠaÃ§Ä±p
ĠKlima
Ġseviyesinde
Ġbelirlem
Ġreddet
ralya
ediÄŁim
Ġedebilecek
bulans
Ġifadesi
Ġhassasiyet
Ġharicinde
ĠYum
ĠalÄ±na
ĠAfrin
ediÄŁimiz
ĠyaptÄ±klarÄ±nÄ±
ĠgÃ¶rmez
dÄ±zÄ±
Ġmantar
melerde
adam
ĠaÃ§Ä±klamaya
ĠKÃ¼rd
ĠPo
ĠOlarak
ĠvakÄ±f
ĠYunus
ĠsaÄŁladÄ±
Ġate
ĠadamlarÄ±
Ġidrar
Ã¼rler
eleme
PSS
Ġ85
ĠnÃ¶bet
ĠkonuÅŁmada
Ø±
Ġpasta
Ġfrek
Ġkoyup
ĠpeÅŁinde
ĠVekili
Peki
Ġklas
ĠkararÄ±nÄ±
ĠkullanÄ±lÄ±yor
ĠdÃ¼ÅŁÃ¼nceler
Ä±mlÄ±
gatif
ĠyÃ¶netmelik
ĠkapÄ±sÄ±
Ġkomik
Ġiltih
Ġfabrika
ĠÃĩocuklar
Ãĸte
memektedir
kay
ĠTelevizyon
Ġdiyorlar
Ġistemiyorum
ĠBurak
ĠDam
ĠbaÄŁlantÄ±sÄ±
ĠpolitikasÄ±
ĠPap
liliÄŁini
ĠsÄ±ÄŁÄ±n
Ä°st
Ġded
ä¸
ĠgerÃ§ekleÅŁecek
Ġtehlike
Ġodaklan
KÄ±s
ĠKoÅŁ
ĠkalmadÄ±
ĠKiÅŁisel
resel
ĠkeÅŁfed
ĠsoÄŁan
ediyesi
ĠeÄŁitime
Ã¶rek
SM
ĠGiresun
ĠTÃ¼rkÃ§
ĠaralÄ±ÄŁ
ĠGr
Ġiktis
uhaf
ĠsÃ¶yleyerek
ĠtÃ¼zel
ĠEsen
atÄ±lÄ±k
Ġinsanlarla
ĠdÃ¼zeni
ĠdeÄŁiÅŁtirme
Ġsiteye
umda
ĠbebeÄŁin
88
Ġfacebook
enlerin
asay
Ġpantol
ĠBurs
Ġpartner
Ä°LÄ°
ĠVeli
Ġmeme
Sit
ĠÄ±ÅŁÄ±n
ĠduÅŁ
ĠHastalÄ±klarÄ±
ĠÃ§im
Ġfilmde
ĠHikay
ree
Ġmuhtemel
ĠBAÅŀ
ĠÅŀey
fez
arya
Ġoranla
ĠsÄ±rasÄ±yla
Ġreak
don
DK
marÄ±m
Ġdinley
Ġ95
atay
ĠÃ§iÃ§
ĠsÄ±kÄ±ÅŁ
ĠtanÄ±nan
ĠSalon
2009
Ġpiyasada
Yer
idir
yumu
Ġdinlem
ĠkurulmuÅŁtur
ĠKatÄ±lÄ±m
Ġ56
ÃĩÃ¼nkÃ¼
ĠarÄ±za
ĠÃĸzdemir
Ġhd
ĠArapÃ§a
ĠbaÅŁkanlÄ±k
ĠAyÅŁe
ĠmÃ¼cadelesi
ĠOrada
Ä°slam
Ä°kinci
limat
ĠDeÄŁerlendirme
ĠRehberi
ĠmÃ¼ÅŁterilerine
ĠgÃ¼ler
ĠtecrÃ¼beli
Ġkusursuz
Ġyollar
saspor
enizde
Ġtakib
gÄ±tay
ehri
Ġvakti
ĠkÄ±t
ĠMag
iret
ĠÃ§alÄ±ÅŁÄ±yorum
ï»
ĠMuharrem
".
ĠgÃ¶revleri
ĠErdem
TÄ°
delik
ĠkullanÄ±ÅŁlÄ±
ĠmÃ¼c
ĠBakÄ±r
ĠpuanÄ±
ĠyaÅŁamÄ±
Ġyetmez
amay
Kah
ĠyanÄ±l
ĠAmerikalÄ±
Ġailesinin
2008
ĠmutluluÄŁ
losu
eÄŁim
tenj
Ġkonsept
ĠDikkat
Ġgiriyor
SaÄŁlÄ±k
Ġkurab
yacaÄŁÄ±
Ġiyilik
Ġburadaki
Ġprop
ĠbaÅŁardÄ±
fan
ĠsÃ¶ylediÄŁi
Ġyil
Ġ]
Ġehliyet
Ġmuam
Ġhissi
Ġeuro
ĠmaÃ§Ä±n
ĠKahv
ĠtanrÄ±
ĠtutarÄ±
ĠÃ¼nit
Ġeks
ĠsayÄ±lan
ĠyakÄ±nda
ĠyapÄ±lmasÄ±nÄ±
ĠGeliÅŁtirme
Ġsahada
ĠMÃľ
ĠkaygÄ±
ĠsÃ¼recini
barek
Ġbilinmektedir
Ġmerkezleri
ĠAÄŁrÄ±
enci
Ġviz
Ġant
71
Ġrit
Ġhuzurlu
labilir
ÄŀÄ°T
Ġvideosu
Ġkonul
ĠÅŁÃ¼phesiz
Ġmuhabbet
ĠsÃ¶zleÅŁmesi
ĠTatlÄ±
ĠtÃ¼ketimi
Ġatarak
Ġkuran
melisiniz
ĠGu
Ġhi
Ġdayanan
ĠgÃ¶receksiniz
ĠÃ§Ä±karÄ±lan
Ã§Ä±nÄ±n
Ġcihazlar
ĠsÃ¼recinin
lerinizde
ĠalacaÄŁÄ±
ĠbÃ¼rok
Mah
ĠyatÄ±rÄ±mcÄ±
ĠBunlarÄ±
eÄŁinde
ĠEbu
ArtÄ±k
ĠMit
Ġyuvarlak
BaÅŁkan
ĠKi
ĠPal
ĠSÄ±navÄ±
ÄŁinizde
ĠSÃ¶y
ĠÃĩukur
Ġbam
ĠyoÄŁurt
Ġamir
Ġrejim
ĠÅŁekeri
ĠkÃ¢r
Ġreform
Ġpasaport
ĠToplantÄ±sÄ±
Ã½nda
Â¼
Ä±h
ehmet
ĠEmlak
ĠkeÃ§
ĠyÄ±ÄŁ
ĠRadyo
ĠCilt
GÃ¶n
ĠFaaliyet
Ġsponsor
lana
ĠgiriÅŁi
ĠÃ§alÄ±ÅŁanlarÄ±n
ĠYeter
ĠyÃ¼rÃ¼ttÃ¼
Ġ800
.-
Ġ04
alisyon
Ġbakarak
ĠkÄ±zlar
naf
Ġ1999
ĠkaldÄ±m
ĠtÃ¶reni
dÄ±ran
Ġkurut
ĠÃ§ekme
ĠsatÄ±cÄ±
ĠtÃ¼rleri
Sadece
lib
ĠgÃ¶stererek
ĠLÃ¼tfen
56
ĠTÃ¼ket
ĠTRT
lÃ¼kte
ĠNef
ĠModern
Ġdepresyon
ĠyÃ¼kle
ĠbaÅŁÄ±nÄ±
Ġmodeller
ĠFel
Ġileride
ĠÅŀeyh
ĠgeleceÄŁini
ĠtaÅŁÄ±r
ãĢ
Ġsi
Ġverirken
cesi
ĠkavuÅŁtur
OÄŀLU
ĠModa
ĠBÃ¶ylelikle
izin
ĠgÃ¶rÃ¼lebilir
ĠgeleceÄŁe
Ġkesintisiz
Ġcal
ĠGÃ¶khan
bab
Ġgelmek
leks
ĠbaÄŁlamda
eyebilir
ĠFeth
ĠMavi
...]
ĠDenetim
oskova
Ġapartman
atan
ĠhaftasÄ±nda
ĠgÃ¶nderildi
ĠÃĩel
ĠÅŁimdiye
Ġyahut
ĠAlev
arlÄ±k
ĠbaÅŁlÄ±ca
Ġherhalde
Ġberek
ĠAkÅŁam
cili
ĠyaÅŁamaya
Ġkopar
Kullan
ergah
EH
Ġanalizi
Ġsergi
ĠEvden
Ġkredisi
Ġtir
ĠyÃ¼kÃ¼mlÃ¼lÃ¼k
ĠSekreter
ĠÃ§adÄ±r
Ġaskerlik
ĠAdÄ±yaman
ĠbaÅŁlattÄ±
ELÄ°
Ġsezonu
ĠyazmÄ±ÅŁ
ĠoluÅŁturuyor
uzel
Ġkonunun
Ġgazetesi
Ã½l
ĠgÃ¶rdÃ¼ÄŁÃ¼nÃ¼z
ĠBÃ¼y
ĠyapÄ±lacaÄŁÄ±
ĠGÃ¼venliÄŁi
ĠdÃ¶nÃ¼p
oterapi
Ġenerjisi
fone
larÄ±mÄ±n
ĠbabasÄ±nÄ±n
ĠÃľz
ĠðŁĺ
ĠTanÄ±tÄ±m
ĠgeÃ§miÅŁte
Ġsevinirim
asal
Ġneyse
ĠStandart
ĠBaÅŁbakanÄ±
istir
Ġevli
ĠsaÄŁlanÄ±r
Ġ53
Ġsaray
Ġyelpaz
Ġotob
yacaÄŁÄ±nÄ±z
navut
Ġnegatif
ĠZafer
ĠEser
eceÄŁimiz
arm
ĠÄ°hracat
98
52
mazlar
ĠTurgut
Ġdurak
ĠyazÄ±mÄ±zda
ung
ĠSov
enleri
Ġinsani
koz
ĠaÃ§Ä±klamasÄ±nda
ĠÃ§oÄŁunluÄŁu
Ġaya
Ġvan
ĠÃ¶zelliÄŁini
Ä°MÄ°
ĠyenilikÃ§i
Ġsitenin
Hem
Ġhain
Ġbirde
keme
kurmay
ĠiÅŁley
ĠgittiÄŁi
ĠsÃ¼recek
tiz
ĠanÄ±lan
ĠarÄ±
Ġhareketleri
ĠaltÄ±ndan
Ġmuhalif
72
ĠSelÃ§uklu
BÃ¶lÃ¼m
dÃ¼ÄŁÃ¼nde
ĠyaÅŁta
ĠKategor
ĠYayÄ±ncÄ±lÄ±k
Ã¶zel
Ġberaberlik
-)
ĠgÃ¼Ã§leri
ĠtÄ±rnak
Ġtezgah
ĠYÃ¼ksekokulu
ĠFaruk
ĠdÄ±ÅŁarÄ±dan
Ġduv
Ġkot
Ãľniversit
Ġserin
ĠÃ§ekt
Ġdiyoruz
ĠalÄ±nmÄ±ÅŁtÄ±r
Hep
Ġfakir
hem
Ġklinik
Pol
ĠkazanÄ±r
ĠbulunmamaktadÄ±r
ĠdÃ¼zeyinde
ĠGenellikle
Et
ĠasansÃ¶r
ĠgiriÅŁimi
ĠBahar
Ä±lmasÄ±nÄ±n
ÃľÃ§
HiÃ§
ĠGran
Ġbeyler
Ã§ika
ĠhakkÄ±na
Ġkime
ĠyazÄ±lar
ĠfigÃ¼r
ĠyardÄ±mcÄ±sÄ±
ĠNil
ĠRef
Ġseslendir
xt
ĠÃ§eliÅŁ
ĠBl
ĠkavramÄ±
ãģĤãģĤãģĤãģĤãģĤãģĤãģĤãģĤãģĤãģĤãģĤãģĤãģĤãģĤãģĤãģĤ
YÃ¶n
Ġanayas
Ġeminim
ĠolanlarÄ±
Ġhikayesi
KARA
Ġharam
Ġaramak
ĠyÄ±p
Ġartarak
Ġotopark
ory
ier
Ġgeleni
Ġefend
liydi
zÄ±
ĠKurban
Ġhavada
dis
Ġsoya
Ġdilerim
ĠbaÅŁlÄ±klarÄ±
54
Net
Ã½z
ĠgeliÅŁtirilmesi
Ġzan
Ġlazer
so
ĠUzak
Ġje
ĠTamam
HAL
ĠHerhangi
steri
ĠUSB
ĠÄ±ÅŁÄ±
ĠgruplarÄ±
Ġturu
ĠbÃ¼yÃ¼yen
ĠyazÄ±yÄ±
ĠkÃ¶mÃ¼r
ĠsÄ±nava
ĠÃ§oÄŁal
ĠsayfasÄ±
ANI
Ġemlak
ĠAlanya
ĠnoktasÄ±na
ĠMÃ¼steÅŁ
ĠÃ§Ä±kmÄ±ÅŁtÄ±r
ĠYalÃ§Ä±n
ĠÃ¾
ĠMemur
ĠsakÄ±n
ĠÄ°spanyol
rÃ¼
Ġvermez
Ġkasa
Ġkep
ĠArtvin
arka
Ġbasketbol
Ġtarifleri
ĠgÃ¶rÃ¼ldÃ¼ÄŁÃ¼
Ġmutlak
ue
landÄ±ÄŁÄ±nÄ±
Ġsos
ĠanlatÄ±
graf
Ġgenetik
ĠgelmiÅŁti
HY
Ġbuhar
ĠMesaj
ĠgÃ¶revlisi
Tab
ĠbuluÅŁtu
ĠseÃ§imleri
ĠBilgiler
Ġparamet
Ġkongr
ĠKÄ±zÄ±lay
ain
Ġetkileyici
eteriner
ĠdÃ¼ÅŁÃ¼nÃ¼yoruz
Ġbutonuna
atin
ĠolaylarÄ±n
adÃ¼f
Ġdinle
61
falt
Ġsars
ĠkÃ¼m
ĠyaÅŁÄ±na
ÃľrÃ¼n
Ġhalini
GÃ¼zel
ĠBÃ¼t
ĠkarÄ±ÅŁÄ±m
ĠdoÄŁumlu
ĠtaÅŁÄ±t
Ġdenli
ĠBulgaristan
ĠeÄŁilim
oker
ĠaydÄ±r
ars
ĠyaÅŁamÄ±n
ĠhastalarÄ±n
ĠistediÄŁimiz
FF
Ä±labilecek
ingir
TP
lÃ¼t
Ġoynama
ĠÅŁehrinde
è¦
âĢº
ahisar
Ġtopluma
Ġstad
ĠbazÄ±nda
ĠkadÄ±nlara
ĠtopraÄŁa
Ġunvan
ĠeksikliÄŁi
ĠkÄ±smen
ĠsÄ±kÄ±ÅŁtÄ±r
ĠSilahlÄ±
ecekler
ilmi
MET
ĠKiralama
ĠÃ¶ÄŁretmenler
Ġhev
Ġcild
ĠBerlin
lerimizle
istanbul
âĢĻ,
Ġdolap
ĠSÃ¼rekli
ĠÃľmit
oza
Ġekrana
Ġyaratmak
ĠfazlasÄ±nÄ±
Ã®n
tiÅŁ
ĠhÃ¼kÃ¼metin
Ġsofr
ĠMilyon
ĠgeÃ§in
ĠolduÄŁumu
Ġnitelendir
ĠyaptÄ±ktan
SÃ¼r
ĠkaldÄ±rÄ±ldÄ±
evre
ĠsorunlarÄ±nÄ±
63
adar
Ġfilmler
ĠÃ¶tesinde
ĠAS
Ã½k
ilmeli
Ġfiyata
luÄŁunun
Ġbant
ĠOs
eyecektir
Ġdergi
KÄ±
Ã¼sÃ¼ne
Ġuygundur
Ġilke
Ġkokusu
ĠYalova
Ġetkinlikler
ĠplakalÄ±
Ġetmesini
Ġcenaze
ĠturlarÄ±
Ġediyordu
ĠYou
Ġvideoyu
Ġderhal
Ã§ekmece
ĠOfis
Ġekme
Ġserp
Tel
daha
ĠsikiÅŁ
ĠGiriÅŁim
Ġbitkisel
ĠcoÄŁrafy
Ġkeskin
Ġkurtulmak
å¤
ĠkarÅŁÄ±lamak
ĠgÃ¶t
off
ĠÃ¶dÃ¼lÃ¼
ĠKurs
Ġdokuz
Ġbilinmeyen
ĠkurumlarÄ±
ĠÃĸÄŁrenciler
ĠgerÃ§ekleÅŁtirmek
ĠkalkÄ±ÅŁ
Ġbomba
Ġtaht
ĠÄ°ST
Ġyolla
Ġceh
Ġtedavisinde
ĠAta
Ġkapasitesi
ĠÃ§alÄ±ÅŁanlar
ĠsÃ¼tÃ¼
ĠBorÃ§
elikopter
ILI
onomi
Ġfed
iÅŁimi
ĠÃ¶ÄŁrenebilirsiniz
Ġ180
Ġverilerine
ĠyaÅŁadÄ±klarÄ±
Adana
Ġ81
Ġboyunda
cuz
KÃ¼Ã§Ã¼k
ĠBiliÅŁim
Ġrenkler
ĠalkÄ±ÅŁ
adÄ±ÄŁÄ±nÄ±
Ġetmeyin
Ġkilis
Ġyepyeni
ĠRak
ĠÄ°p
Ġslogan
ĠÃ¼lkeden
ĠDiyanet
ĠiÅŁlemini
Ġsent
Ġdileriz
79
ĠdÃ¶kÃ¼l
Ġmesafe
ĠCami
Ġdizayn
ĠOlim
Gazi
SeÃ§
pazarÄ±
ĠtÄ±kla
usuyla
ĠKurumsal
ĠÅŀÃ¼k
Ġfas
amlar
ĠeÄŁil
ĠÅŁan
ĠPil
Ġunutulmaz
ĠayÄ±n
ĠfotoÄŁrafÄ±
ĠhazÄ±rlanÄ±yor
ĠÃľye
Ġkef
Ġrakib
Ġkast
ĠsÃ¶yledik
ĠdÃ¼ÅŁÃ¼nÃ¼n
Ġ59
Ġbelgesel
ysanÄ±z
ĠAntik
Ġsahibinin
kz
ï»¿
ĠSite
ĠFirma
ĠakÄ±n
veÃ§
)'
maktadÄ±rlar
aydÄ±n
Ġresimler
ĠÅŀef
etk
ĠÃ§ektir
Ġyaban
ĠÄ°stiklal
Ġmuz
ĠÄ°smet
ĠyÃ¶nelt
ĠÅŁekillendir
Ġgelmiyor
Ġsorusuna
ĠiÅŁlerini
ĠyÃ¼rek
ĠhaftanÄ±n
Ġeserleri
ĠzamanÄ±n
Ġbuzdolab
ĠiÃ§me
ĠYÃ¶r
ĠHÄ±rist
que
Ġ51
elerdir
ĠTas
ĠsonuÃ§larÄ±nÄ±
Ġfaaliyetlerini
ĠÃ§Ä±kmaya
aliman
ĠkiÅŁileri
ĠDÃ¶nÃ¼ÅŁ
ĠkullanÄ±cÄ±larÄ±
Ġvarken
ĠtabanlÄ±
Ġco
ojen
ĠbaÅŁlayÄ±p
Ġzihn
ĠKongre
Ġlaboratuvar
ĠsÄ±nÄ±rÄ±
ĠyÃ¶ntemler
Ġmasum
ĠyaÅŁandÄ±ÄŁÄ±
Ġnci
ĠSenin
ĠAvusturya
Ä¢
ĠÃ§Ä±karan
ĠkÄ±rsal
ĠbirtakÄ±m
mÄ±ÅŁlardÄ±r
Ä±msÄ±z
Ġdetaylar
Ġbilinir
ĠbaÄŁÄ±rsak
Ġebeveyn
ĠÃ§alÄ±ÅŁacak
ĠSermaye
ĠbiÃ§imi
ĠanlÄ±k
ĠTemizlik
Ġsisteminde
Ġhamile
ĠvÃ¼cudun
ĠyÃ¼zÃ¼nÃ¼
ÅŁa
TE
ĠAnt
Ġbireyler
lov
____
Ġredded
ĠTurkcell
lish
Ġkilometr
Ġpaketi
ĠtÃ¼f
Ġbasamak
Almanya
Ġhijyen
uyuz
ĠAVM
Ġbo
Ġcik
âĢ²
ĠKars
ĠiliÅŁkili
YK
ĠEkip
luÄŁuna
ĠgerÃ§ekleÅŁtiren
Ġklav
Ġbabam
ĠYolu
Ġsuyunu
Ġgetirecek
ĠsÃ¼rdÃ¼rdÃ¼
ĠinÃ§
ĠDuvar
Ġsalat
Diy
Ġ1980
ĠarÄ±yorum
ĠbaÅŁlamadan
ĠÅŁarap
Ġoldular
eron
Ġonar
BeÅŁiktaÅŁ
ĠhastalÄ±ÄŁÄ±n
OG
SayÄ±n
ĠLED
ĠyÃ¼kÃ¼mlÃ¼
deÄŁer
ĠaÃ§Ä±lÄ±r
Ġiv
aze
ĠÅŁeytan
ĠardÄ±
Ġatar
ĠgÃ¶nl
Ġalev
Ã¼sÃ¼nÃ¼n
general
ĠyÄ±llarca
Ġolduktan
iyorsa
Ġkenara
ĠyapÄ±lmalÄ±dÄ±r
Ġtayin
ĠTasarÄ±mÄ±
Ġgrubun
Ġbireylerin
Ġedemez
Ġrenkleri
Ġtamamlayan
ĠyÃ¼zyÄ±lda
ĠmÃ¼dÃ¼rÃ¼
Ġbebe
ĠgÃ¶rÃ¼ÅŁt
ĠmÃ¼ÅŁterilerimize
âĢĶ
ĠyÃ¼rÃ¼
ĠDÃ¶rt
ĠaÅŁam
ĠMol
Ġgruplar
ĠKON
Tam
ĠmeÅŁgul
ilmesinde
Ġbuluyor
osman
ĠErtuÄŁrul
ĠpÄ±r
ĠÃ¶rne
Ġmuayen
ĠedeceÄŁini
ĠmÃ¼ddet
Ġyuk
Ġkavga
imizdeki
ĠPir
ĠEur
ĠbuÄŁday
ĠgÃ¶rmeye
Ġokut
ĠgÃ¶rÃ¼p
ĠtebliÄŁ
ĠAhmed
Ġeli
Ġkaydedildi
ĠErol
Ġetmeyen
ĠtÃ¼ken
Ġ1990
Ġerit
ĠTeÅŁekkÃ¼r
ĠTol
Ġcumhuriyet
ĠfarkÄ±na
Ã»r
ĠÄ°ktis
ĠyazÄ±da
Ġprogramlar
Ġfiil
Ġyapama
ĠyukarÄ±daki
ademi
RET
lig
ĠbildiÄŁi
ĠdÃ¼ÅŁÃ¼nm
ĠbÄ±rakmak
Ġeskiden
Ġkopy
ĠbakÄ±mdan
koÅŁ
ĠseÃ§men
Ġkalmaz
ÌĨ
ĠKomitesi
Ġevrensel
Ġabi
alanan
ĠâĨĴ
ĠkuruÅŁ
ĠMarka
Ġtoplumu
ĠgÃ¶zleri
ĠMÃ¼hendislik
ness
ĠtÃ¼n
ĠsorumluluÄŁu
Ġhissede
Ġkib
Say
ĠkÃ¶tÃ¼lÃ¼k
ĠburasÄ±
Ġvesil
ĠfÄ±ndÄ±k
ĠKolay
ĠÃ§Ã¶zÃ¼l
ĠolmaksÄ±zÄ±n
ĠniteliÄŁinde
Ali
ĠsÃ¶zcÃ¼
ĠSad
fÃ¼m
ĠHayvancÄ±lÄ±k
Ġkaba
ĠÃ§orb
ild
Ġistediklerini
ĠaÄŁÄ±
Ġ68
ĠDili
Ġkentin
Ġkayd
anik
HayÄ±r
ĠKapalÄ±
ĠÃ§Ä±lgÄ±n
larsa
ref
ĠsonlandÄ±r
Hayat
Haf
ĠDakika
ĠmÃ¼ziÄŁi
Ġkatil
mayÄ±p
Ġarayarak
ĠgÃ¼b
Ġbeyn
YÃ¼z
Ġyoksun
ĠÃ¶zlem
ĠÅŁen
Ġvurgulan
Ġetap
DeÄŁ
sÃ¶z
Ġtelefondan
ĠYazÄ±lÄ±m
ĠsaÄŁlayarak
ĠMc
Ġordus
Ġkentinde
ĠEh
Ġmesafede
ĠYahudi
ĠYÄ±k
ĠBirbir
Ġceb
ĠiÅŁine
Ġkuruldu
lenecek
ĠkÄ±smÄ±nÄ±n
,âĢĿ
Ġetkisiz
ĠrolÃ¼
ĠyapalÄ±m
Ġgerektirir
ĠÃĩevr
Ġizleyic
ĠDevam
Ġcem
ĠÃ§alÄ±ÅŁmanÄ±n
ĠÃ¼ncÃ¼
Ġtank
ĠDolar
ĠgÃ¼ncelleme
artÄ±n
ĠdeÄŁerlendirilmesi
Ġkombi
ĠgÃ¼zergah
ĠgÃ¶vde
ĠaÃ§Ä±klanan
baÅŁka
ĠÅŀehircilik
imiÃ§i
ĠvasÄ±tasÄ±yla
ĠHaberler
ĠyaÅŁÄ±yoruz
ĠaktÃ¶r
Ġiyisi
ĠØ§
pas
ĠBizans
Ġkarara
BaÄŁ
Ġgor
ĠihtiyacÄ±nÄ±
ĠPlanÄ±
ĠuÄŁ
Ġemeklilik
ĠFatma
Ġzeka
ozgat
bolu
Ùħ
Ġpres
ĠKullanÄ±m
ĠgetirmiÅŁ
ĠiddialÄ±
ĠfotoÄŁraflar
ĠYÃ¶netmeliÄŁi
ersen
Ġdostluk
ĠsevinÃ§
Ġkuz
edia
Hak
ĠbaskÄ±n
Ġzarf
AÄŁ
aspor
ĠÃĸlÃ¼m
aganda
Ã¼phe
ĠKanada
Ġnar
ĠdemiÅŁti
CO
ĠdoÄŁrul
ĠkonuÅŁmasÄ±nda
ĠgÃ¶nderdi
ĠÄ°dari
ĠEvi
ĠSerdar
ladÄ±ÄŁÄ±mÄ±z
ĠarayÃ¼z
ĠbarÄ±ndÄ±ran
Ġhepimizin
Ġdiyalog
emeye
yetik
ds
aleti
Ä±rda
ĠbaÄŁlantÄ±lÄ±
ĠEÄŀÄ°T
ledikleri
ĠRah
AtatÃ¼rk
Gir
ĠgÃ¶rÃ¼ntÃ¼ler
ĠkÄ±ymetli
Ġyirmi
fesÃ¶r
lenin
Ġsitesine
ĠÃ¼rÃ¼nlerinin
luyum
ĠHaftasÄ±
Ġkoymak
ĠdÃ¼ÅŁÃ¼nerek
ĠHab
ĠkullanÄ±yorum
Ġruhsal
ĠÅŁeri
Ġdersler
Ġdurumdan
baba
ettÃ¼r
ĠkanalÄ±
Ġifadesini
Ä°nternet
ĠMari
ĠMy
Ġmeselesi
unt
gir
KÃ¶
izy
omi
2019
Ġkarakteri
ĠSarayÄ±
atlarÄ±
Ġ700
ĠartÄ±
ĠSuriyeli
dÃ¼kten
iger
ruklu
lediklerini
Ġlogo
anlÄ±ÅŁ
ĠhazÄ±rlamak
51
ĠdilediÄŁiniz
Â§
ĠdÃ¼ÅŁÃ¼yor
ĠayÄ±na
ĠLef
ĠGiz
Ġborcu
Ġsolunum
ĠiÅŁg
73
ĠsÃ¶yleÅŁ
ĠGeÃ§tiÄŁimiz
ekke
Ġveda
ĠarasÄ±ndadÄ±r
ĠÃ¶te
Ġderler
ĠgÃ¶rÃ¼yorum
ĠsuÃ§lu
ĠÃ§ikolata
crip
Trabzon
dest
Ġzann
dini
Ġpersonelin
lenebilir
ĠTrak
ĠtaÅŁÄ±macÄ±lÄ±k
ĠBulun
Ġsark
ĠOlaÄŁan
ĠGÃ¼len
ĠMutlu
ĠverildiÄŁi
Ġmetabol
beti
Ġbuyurdu
Ġfiyatlarla
ĠBizler
ĠÃ§alÄ±ÅŁtÄ±m
ĠPazarlama
Ġdefalarca
Ġisabet
Ġsitesinin
ĠiÅŁsiz
Ġstandar
Ġminimum
ĠAÃ§ma
ĠAlanÄ±
Ġseviyeye
ĠHalÄ±
ĠendiÅŁe
ĠuyuÅŁ
ĠkararlarÄ±
eksel
Ġpast
ĠiÅŁlemlerinin
Ġaldat
ĠkadÄ±nlarÄ±
ĠTeknolojileri
ĠÄ±ÅŁÄ±ÄŁÄ±
ettin
ĠÄ°pek
memiÅŁtir
Ġbelirsiz
odafone
Ġduyan
ĠYrd
Ya
iha
ĠKiralÄ±k
ĠgeÃ§ip
ĠedeceÄŁi
tes
ĠvuruÅŁ
Ġkendinden
mazlÄ±k
Ä±nÄ±p
ĠYazÄ±cÄ±
alizasyon
ĠsÃ¶ndÃ¼r
ĠÎ
ĠUsul
larÄ±mla
sÄ±nÄ±
Ġkomb
Ġilgisini
AydÄ±n
ĠBÃĸ
YapÄ±lan
Fa
ĠCD
ĠmÃ¼lkiyet
TÄ°R
ĠsaÄŁlama
mod
Ġihbar
Ġkenti
Ġeserler
ĠYÃ¼ce
Ġhayvanlar
Ġplanlama
insan
sten
Ġdiyebilirim
iyenin
Ġhele
izmin
ĠaÄŁac
ĠÃ§alÄ±ÅŁmalarÄ±nda
hy
Ã§o
Ġkocaman
Ġimaj
ĠparasÄ±
74
ĠHÃ¼rriyet
ĠkanalÄ±nda
ĠaydÄ±nlatma
ĠbiÅŁ
ĠTekirdaÄŁ
Ġprensip
ĠYÃ¶ntem
ĠdÃ¼ÅŁÃ¼ndÃ¼m
Ġtoplumda
Ġinceleyebilirsiniz
ĠbÃ¶lÃ¼mÃ¼ne
Ġaralar
ĠBuz
une
ĠDemirtaÅŁ
Ġiseniz
Ġnasip
ĠcevabÄ±nÄ±
diki
ĠsÃ¶zde
Ã¡
ĠÅŀem
ĠUN
Ġharik
deler
ingÃ¶l
ĠyÄ±ldÃ¶n
masa
langÄ±Ã§
Ġfelaket
daa
Ġteknolojileri
ĠyazdÄ±r
ĠsÃ¼p
afak
mayÄ±nÄ±z
ĠsÃ¼recin
Ġbelirlemek
vur
ĠÃľnal
Ġtansiyon
ĠDekor
Ġkontr
ĠkullanÄ±mÄ±na
Ġvadede
ĠdeÄŁiliz
Ġdamla
Ġtakdim
ĠÅŁeffaf
tiniz
GÃ¼nÃ¼mÃ¼zde
eyz
ĠGÃľN
ĠYIL
Ġplatformu
atÃ¼r
ĠÃ¼mit
ĠÃ§ocuÄŁa
Ġoturup
RAM
ĠAlÄ±ÅŁveriÅŁ
Ġzihinsel
è¦º
Ġkitapta
ĠÃ§eyrek
ĠSEO
allÄ±
ĠdireniÅŁ
YON
ĠÃ§Ä±karma
Ġcom
Ġmesai
ĠAnlat
Ġdeyince
Ġhizmetini
ĠGÃ¼ler
ĠkÄ±lan
ĠBatman
Ġailesine
ĠkorkunÃ§
ĠhÄ±rsÄ±z
ĠarayÄ±p
ĠRaporu
Ġyeterlidir
Ġalerj
ĠdurumlarÄ±
ĠBed
ĠyaptÄ±lar
iet
ĠalÄ±yoruz
Ġdenildi
ĠMoskova
ĠeklenmiÅŁ
Ġhayati
SYM
kisi
kileri
Ġkarg
ahan
Ġkont
ike
Ġpartinin
ĠĠĠĠĠĠĠĠ
larÄ±nÄ±zla
ĠCity
olan
ĠÅŁap
deres
FenerbahÃ§e
unuzda
ĠhÃ¼kÃ¼mlerine
ĠsayÄ±n
eybol
ĠKole
ĠgÃ¼
ĠsÃ¶yleyebiliriz
ĠadaylarÄ±n
ĠYahud
ĠBerk
ĠKonser
Ġnice
ĠÃ¶lÃ§ekli
ĠKursu
civ
giltere
ĠYarÄ±ÅŁmasÄ±
abiliyorsunuz
ĠtadÄ±
ĠTS
Ġteknikleri
ĠÃ§ektiÄŁi
Ġmetrekar
Ã°i
Ġedilmesini
con
ĠkÄ±zÄ±m
ĠkarÄ±ÅŁtÄ±rÄ±n
port
ĠsaÄŁlanan
ĠÄ°f
ĠÃ¶fk
ĠÅŁebek
Ġdib
ĠKey
ĠkazanÄ±m
ĠtaÅŁÄ±maktadÄ±r
taydÄ±
Ġadil
ĠyÃ¼zme
ĠÃ§irkin
Ġdestekleyen
Ä°P
ĠÅŁeklindeki
Ġert
×Ĺ
yani
ÄŁinize
ĠbinasÄ±
ĠZonguldak
ĠmÃ¼f
ĠsÃ¶zÃ¼nÃ¼
ĠHekim
ĠyapÄ±nÄ±n
onuÃ§
ĠalanÄ±ndaki
ĠayaÄŁa
ilemez
ikleri
ĠadaylarÄ±
Elekt
ĠaldÄ±r
esten
ĠNas
ule
ulab
ĠPolat
ĠdÄ±ÅŁarÄ±da
ĠiÅŁyeri
ĠgÃ¶zle
ĠMadrid
Ġinternette
ĠAfgan
ĠÄ°sviÃ§re
ĠÅŁofÃ¶r
larÃ½
ĠÃĩorum
Ã¼lecek
Ġfeder
oksi
Ġfilan
ĠAngel
ney
ĠPlus
ĠdÄ±ÅŁÄ±ndan
ĠAst
ĠÃ¼yeli
aktif
fiye
ĠyaptÄ±rmak
mamÄ±zÄ±
ĠPamuk
ĠkimliÄŁi
cm
ĠdÃ¶neme
Not
ĠAnayas
Ġ99
Ġbankalar
ĠdÃ¼zenleyen
Ġvaran
Ġambulans
,"
ĠkarÅŁÄ±nÄ±za
Ġyatan
ĠGeniÅŁ
ĠmantÄ±klÄ±
Yani
Ġhelal
eck
ĠiÅŁareti
Ġgirmesi
EÅŁ
Ġekleyip
Ġcehenn
ĠseÃ§ildi
odik
Ġmuhakkak
ĠÃ¼zÃ¼m
Ġetmiyor
mran
Ġkeyfi
liyorum
ĠÃ¼lkemize
ĠÄ°slami
Ä°LER
ĠdeÄŁiÅŁti
Ġimparator
Ġlamb
sir
ĠKafkas
ĠalanÄ±n
Ġsesini
ĠFabrik
Ġtekstil
Ġkelimesi
ĠBulut
Ġduyuru
Ġizleyebilirsiniz
ĠkÃ¶klÃ¼
ĠÅŁÃ¼phel
ÃħÅ¸
Ġmiting
ĠÃ¶lÃ¼mÃ¼
miÅŁtim
Ġuygulanacak
ĠsarÄ±m
ĠÃ¼cretleri
ĠiÃ§indir
Ġkimdir
Ġsuda
siyle
ĠKÃ¶k
ĠLevent
ĠÃ¶zelliklere
DÃ¼z
ĠÃ§Ä±
eneÄŁini
ĠyaÅŁadÄ±ÄŁÄ±mÄ±z
PD
lÄ±nÄ±n
Ġizn
ebilme
Ġaksiyon
ĠbinanÄ±n
ekiz
ĠamatÃ¶r
ĠkÄ±lavuz
inli
ĠkÃ¶kenli
ĠMilliyet
Ä±ldÄ±m
Ġgelecektir
ahit
Ġgelmeye
ĠÅŀÃ¼ph
ĠSivil
hir
ĠÃľlkemizde
ĠkurumlarÄ±n
ĠÃ§oktan
ĠÄ±sÄ±n
Olay
Ġetnik
ĠISO
ĠgeÃ§irilen
Ġederse
tÄ±nÄ±z
ĠYÃĸN
ĠkeÅŁif
'm
Ġpul
dinilen
ĠLok
ĠyÃ¶nden
Google
ĠÄ°Y
ĠadÄ±nda
Ġceviz
Suriye
Ġsezonunda
ĠYET
ĠbelirlenmiÅŁ
Ġoperasyonu
ĠKurtuluÅŁ
Ġkentsel
diÄŁinde
ĠiÅŁsizlik
ĠDÃ¼ÄŁÃ¼n
ĠgeliÅŁmesi
Ġca
ĠÃ§ocuklarÄ±nÄ±n
lenmesine
ĠAdem
ĠSayÄ±sÄ±
ĠAtak
Ġveriyorum
ĠbaÅŁlamÄ±ÅŁtÄ±
ĠOR
isy
Ġkazanma
Ġyut
ĠÃ§alÄ±ÅŁmada
Ġbirebir
ĠSerbest
ceÄŁini
Ġolanlara
ĠcihazlarÄ±
Ġproblemleri
ĠAvukat
yacaÄŁÄ±m
ĠalmanÄ±z
Ġilde
Ġbulup
ĠHarit
ĠkÄ±n
aÅŁehir
lass
ĠtamamlandÄ±
ĠdÃ¼zenlemeler
ĠÄ°hale
ĠGÃ¶lÃ¼
Fi
ashington
ĠRed
ulduÄŁu
ĠiÅŁÃ§iler
ĠNor
Ġtahliye
ĠkurÅŁun
biye
ĠCor
ulabilir
ĠÃ¶mrÃ¼
ĠarkasÄ±ndan
ĠmuhtaÃ§
Ġoksijen
ĠDijital
ĠiÅŁle
Ã¼nÃ¼ze
ĠÃ§et
Ġ72
fe
Ġkontenj
Ġanlatmaya
Ġhastalarda
ĠyÃ¼rÃ¼tÃ¼l
ĠsÃ¼recine
ĠkÄ±skan
ĠUEFA
Ġvermeyi
Ġyemekleri
ĠbÃ¶lgesine
esih
ĠÃ§eker
ĠÃ§arpÄ±cÄ±
ĠHatip
iyotik
ĠportfÃ¶y
ling
ĠEkran
idd
ĠKahramanmaraÅŁ
ÙĲ
Ã¢k
Ġdest
Ġperakende
ĠyollarÄ±nÄ±
Ġtalepleri
ĠEst
evÃ®
ĠyakalandÄ±
araba
ĠBirleÅŁmiÅŁ
Ġsundu
ĠÃ¶ldÃ¼rÃ¼l
Ġyiye
ĠAvrup
ĠseÃ§imlerde
ĠÃ§orba
ĠbÄ±r
IV
Ġmuhabir
ifer
ĠBence
Az
ĠumarÄ±m
tum
ikli
ĠSuper
ĠElem
ĠÃľskÃ¼dar
Ġfos
ĠbeÄŁendi
ĠkaldÄ±rÄ±lmasÄ±
ĠÃĩocuÄŁ
MHP
Ã§iliÄŁi
ĠtesadÃ¼f
ĠayÄ±rt
lamÄ±yor
ĠÃĸzkan
Mut
Ġelma
ĠAnabilim
ĠEfendimiz
dÄ±ÄŁÄ±mÄ±
ĠoperatÃ¶r
ĠÃ¶demeler
Anadolu
Ġhikmet
Ġanayasa
ĠtutuklandÄ±
ĠÅŁartlarda
ĠÂĳ
ayollarÄ±
limi
ĠkadarÄ±yla
ĠhesabÄ±ndan
Ġpamuk
iper
Ġallah
taur
ĠMi
ĠLtd
Ġhesaba
ĠolmayacaktÄ±r
arÅŁ
Ġmuhat
!!!
Ġrah
Ġyazmaya
ĠKarabÃ¼k
Ġterap
ĠistemiÅŁ
ĠÃ¢lem
ĠaldÄ±ktan
iliÄŁe
ĠÃ§eyre
ĠdeÄŁiÅŁir
sad
atik
Ä±mÄ±zla
ĠÃĩakÄ±r
ĠsayÄ±sÄ±z
Ġetmenin
Ġmerhaba
ĠMevcut
ico
ĠpeÅŁin
Ġverilerin
Fakat
Ġkonumunda
ĠbÃ¶lgesindeki
Ã¼ÄŁÃ¼nde
Ġtalebinde
mine
Ġtahta
Ä±dÄ±r
62
aden
ĠhÃ¼r
Oyun
ĠbaÅŁladÄ±ÄŁÄ±nÄ±
Ġtersine
ÄŁinizin
Ġ[...]
Ġnefis
Galatasaray
urlar
ĠDavutoÄŁlu
ĠiÅŁÃ§ilerin
ĠbulunduklarÄ±
Ġkorum
ĠEvde
ĠSanay
ĠkazanmÄ±ÅŁ
Ġkapital
Ġsalonunda
Ġpartisi
ErdoÄŁan
atÃ§Ä±
BM
ĠYargÄ±tay
ĠtoplantÄ±ya
atma
leyebilirsiniz
ĠtÃ¼rkÃ¼
abo
Ġdiledi
ĠnÃ¼fusu
ĠdeyiÅŁ
ahtarÄ±
Ġyapanlar
ĠbakanlÄ±k
Un
Ġ69
Ġoturt
ĠiÅŁlemlerin
Ġgereksinim
udum
ĠoranÄ±nÄ±n
ĠDÃ¼zce
Ġkronik
Ġkesme
Ġvermekteyiz
Bit
Ġkurtarma
Ġyerlerden
ĠÃ§alÄ±ÅŁarak
ĠseÃ§imlerinde
Ġsef
ĠValiliÄŁi
ĠeÄŁitimin
iden
Ġlitre
ĠcoÅŁk
DÄ±ÅŁ
ĠakciÄŁer
amÄ±zdan
mÃ¼
juv
ĠAjans
teb
ĠmaÄŁaza
ĠiOS
ĠAksaray
ĠPlatformu
Ġdinin
ĠyazÄ±cÄ±
Ġterey
ĠaÅŁan
ĠyÃ¼ce
tayÄ±m
Ġemperyal
ĠBildir
ĠEndek
Ġmoral
Ä±yaka
Ġpropaganda
Ġkesint
Ġdeplasmanda
Ã°Ã½
Ver
ĠateÅŁli
ction
ĠyÃ¶neticisi
ĠbaÅŁladÄ±lar
Ġkis
olik
Ġmakale
ĠkullanÄ±lmÄ±ÅŁtÄ±r
ĠDu
ush
ĠolanaÄŁÄ±
Ġbitkiler
Ġferah
ĠÄ°skender
Ġaktaran
Ġhizmetlere
ĠCEO
ĠEngin
ĠÃ§anta
ĠbaktÄ±m
Ã¼cÃ¼k
ĠkaydÄ±yla
ĠOtomobil
ĠfarkÄ±ndalÄ±k
ĠoyuncularÄ±
ĠgÃ¼nlerinde
ota
ĠEsnaf
ĠUmut
mayalÄ±m
ĠPatent
ĠhastalÄ±klar
ladÄ±k
kÃ¶
Ð°Ð
linin
Ġmalzemesi
ĠyazÄ±larÄ±
Ġertesi
Ġkatman
ĠfÄ±rÃ§
Ġlav
ĠBitcoin
ĠeÄŁitimini
Ġkare
Ġita
ĠkaraciÄŁer
roup
ĠgÃ¶rÃ¼ntÃ¼leri
ĠMÃ¼slÃ¼manlar
Ġprogramda
Ġdireksiyon
Ġekim
Ġbelirtiliyor
Ġkabar
ĠolursanÄ±z
abb
Ġteslimat
Ġkonsan
ĠSonrasÄ±nda
Ġkitle
ĠÃ§Ä±plak
ĠharÃ§
emediÄŁi
Ġbelirtileri
ĠKapsam
Ġromantik
Ġtarihini
Ġolu
ĠZeynep
Ġakademisyen
Ġkonumda
ĠsÄ±rala
ĠGem
ĠÃĩor
Ġsorusu
ĠKork
ĠyapÄ±yorlar
ĠgÃ¶lg
ĠMini
ĠgerektiÄŁine
ĠÄ°htiy
ĠtuÅŁuna
Ġmakul
ĠBAK
ĠHakkÄ±
ĠLir
Ä±nÄ±zla
Ġyatay
×Ĺ×Ĺ
Ġindirimli
Ġkendiniz
Ġrep
organ
ĠÄ°bn
Ġlistesinde
ĠRa
Ġbirbirini
ĠgÃ¶nderdiÄŁi
king
Ġlak
Ġtelaf
Erkek
lad
Ġyararlanmak
ĠEL
ĠsunulmaktadÄ±r
ĠDenet
ayeti
uzun
ĠBelir
ĠkÃ¶yÃ¼nde
ĠBrezilya
Ġasfalt
ĠÃĩoÄŁu
ĠkÄ±lÄ±n
way
ĠfiÅŁ
ĠKalp
Ġkatliam
ĠAP
Ġkayg
ĠÃ§Ä±kardÄ±ÄŁÄ±
sÄ±na
ĠgÃ¶sterg
ĠbuÃ§uk
ĠyÃ¶netiminin
ĠKaÄŁÄ±t
ĠsavcÄ±
ĠaÃ§Ä±lacak
Ġistismar
CD
ĠTuÄŁ
usundan
Bas
Ġhakikat
ĠÃ§alÄ±ÅŁmalarda
ĠMete
ĠMobilya
dine
Ġbulunmakta
Mev
Ã§inin
itli
ĠAnti
ĠÃ§erÃ§evede
Ġkolon
Ġtarihin
ĠYTL
ĠkatkÄ±sÄ±
inip
ĠÅŁanslÄ±
ÅŁir
ĠHasta
Ġderim
ĠkararÄ±n
ĠdÃ¼ÅŁÃ¼nmek
Ġmekanik
ĠTeh
ĠRÄ±za
cay
Ġpembe
Ġolmam
ĠÅŀirketi
Ġorjinal
ĠgÃ¼nÃ¼ne
Ã±
ĠUmarÄ±m
ĠanlaÅŁÄ±lÄ±r
olsun
ĠdosyalarÄ±
ĠbÃ¶lÃ¼mleri
zim
Cev
Ġolabilmektedir
ĠmÃ¼zaker
Ä±lÄ±yorum
ĠÃ¶ngÃ¶rÃ¼len
ĠyÄ±ldÄ±zÄ±
osa
ilmekte
Ġertel
wn
ĠyaÅŁÄ±ndan
ĠHo
SL
ĠmodÃ¼l
Ġoluyoruz
sada
inizdeki
ĠsoÄŁut
ĠsÄ±ralarÄ±nda
ĠÃ§alÄ±ÅŁmaktadÄ±r
alÄ±dÄ±r
Film
ERK
ĠkullanÄ±cÄ±lara
ĠÃ¼mmet
Ġsaatler
Ġsistemde
siyum
Ġkala
Ġmasaya
aÄŁan
Ġnikah
ĠatÄ±n
ĠkolaylÄ±k
Ġokumaya
ĠÃľrÃ¼nler
Ġaileler
ĠGider
ĠAvustralya
Ot
ĠavantajlÄ±
mon
Ġucu
ĠBlog
Ġbenzet
Ġhususunda
ĠAlex
ĠÃ§Ä±ktÄ±ÄŁÄ±nÄ±
ĠSinema
ĠsahasÄ±nda
Ġkatma
âĢ¦.
alÄ±ÄŁÄ±n
ĠayrÄ±calÄ±k
ited
lanÄ±p
Ġisteriz
ĠtÃ¼rkiye
Ġsevimli
ĠmÄ±sÄ±r
Ġprograma
emiÅŁtir
ĀĀ
ĠvatandaÅŁÄ±
Ġengellemek
ĠaskÄ±
ĠsÄ±rf
ĠÃĸzcan
BÄ°T
ĠoluÅŁturma
Ġulus
DevamÄ±
amadÄ±m
ĠbaÅŁarÄ±sÄ±
Ġtuhaf
ĠÃ¶rnekler
Ä±lmadan
Ġnerde
ĠFay
nes
Ġarsa
sÄ±nÄ±f
ĠYGS
ĠkurtuluÅŁ
Ñı
ĠCoÅŁ
ĠbakÄ±r
ĠdoÄŁrultu
Ġbirisidir
Ġyara
Ġzorunludur
Ġfl
Ġ900
ĠgÃ¶rdÃ¼ÄŁÃ¼mÃ¼z
ĠBeden
ĠOne
ĠsÄ±Ã§
Ġprosed
ĠbÃ¶lgeler
ĠBelÃ§ika
ĠZiya
ĠbÃ¶lÃ¼mÃ¼nden
Ġsamim
ty
DEN
Ġmp
Ġediniz
ĠIr
ĠsÃ¼reyle
mun
Ġcuma
Ġgiyin
ĠKAY
Ġyorumu
ĠÃ¶nÃ¼ndeki
edd
lanmaya
Ġkablosuz
ĠsaklÄ±
ĠbulaÅŁ
ĠimalatÄ±
ms
Ġnitelikte
Program
ĠdeÄŁerlendirmek
ÅŁar
olay
ĠkalÄ±ntÄ±
ĠKastamonu
ĠOK
Ġkoalisyon
ĠpiÅŁman
ĠgÃ¶kyÃ¼z
ĠMekt
ĠihtiyacÄ±mÄ±z
ĠbÃ¶lgelerinde
Ġkurumu
Ġseviye
ĠyÃ¼zyÄ±lÄ±n
ĠbÄ±rakan
ĠDÃ¼nyada
Ã¼lk
karahisar
Ġvaat
ĠkendiliÄŁinden
temiz
ĠniÅŁan
ĠNuri
Ä°STANBUL
ĠÃĸnder
ĠMax
cÄ±mÄ±z
ĠyatÄ±rÄ±mlar
Ġhelikopter
Ġ1998
ĠWat
ĠDA
Ġmg
aÃ§Ä±k
ĠÃ§ocukluk
ĠGezi
ĠdÃ¼nyasÄ±na
ĠÃ¼stelik
ĠaÃ§Ä±sÄ±
ĠtarafÄ±na
ĠgeÃ§irildi
cer
elerindeki
AÅŁaÄŁÄ±
ĠÃĿ
Ġturistik
ĠChar
ĠÄ°Ã§inde
dÃ¼zÃ¼
ATI
ĠKÃ¼tahya
giniz
ĠÃ¢yet
Sal
cileri
ĠBÃ¶
Ġyemekler
ĠSanatlar
Ġatom
ĠÃ§Ä±kmaz
,,
lendiÄŁini
Ġdonan
OJ
Â²
ĠAskeri
ĠÃ§ekirdek
Ġaram
ĠÅŁube
ĠYÃ¼cel
ĠEyÃ¼p
atih
avir
ĠkararÄ±nÄ±n
Ġbulabilir
ĠPak
ĠgerÃ§ekÃ§i
eve
Ġdereceye
Ġpoli
Ġhizmetlerin
Ġaksi
Ġbirikim
fice
ĠyaÅŁÄ±
Ġ63
ĠkaÄŁÄ±dÄ±
ĠfÃ¼z
Ġpantolon
Ġverdiler
ÃĤ
Ġnedenleri
ĠimkÃ¢nÄ±
ĠmÃ¼hendislik
ĠdakikalÄ±k
Ġnur
irmen
ĠyÃ¼rÃ¼ten
ew
ĠsaÄŁlayabilirsiniz
ĠheyecanlÄ±
ĠZeki
erin
eld
ĠkomÅŁ
Ġkorkut
ĠÃ¼
ĠmeraklÄ±
alamaya
Ġaradan
incisi
Yal
anÄ±zda
Ġfren
opi
Ġmemuru
ilk
Ġmiz
ĠLog
ics
Ġvurdu
ĠsavaÅŁÄ±n
ĠkoÅŁullarda
ĠerkeÄŁin
Ġanlaya
main
ĠVeri
ĠSeyahat
Ġï
ĠVergisi
ĠErzincan
ĠKonak
ĠUÃ§ak
Ġ78
Ã§ay
Ġokulun
lerse
ĠatÄ±yor
ĠParla
ĠbaÅŁlamasÄ±
ĠDemirel
ĠÅŁur
ĠIÅŁ
ĠAkif
Ġayni
ĠTap
ĠÅŁÃ¼phe
FETÃĸ
Ġkonudaki
ĠprogramÄ±nÄ±n
ĠkandÄ±r
atÄ±cÄ±
Ġtrib
Fran
asÄ±dÄ±r
Ġilkokul
ĠBlu
ĠdevamÄ±nÄ±
Ġzordur
ĠÃ¶ÄŁretmeni
ĠsayÄ±larÄ±
Ġtutarak
ĠBirkaÃ§
ĠToplu
Ġacel
ĠformÃ¼l
Ġatama
Ġkadrosu
ĠfaydalarÄ±
ĠsÄ±ralan
Ġnedenlerle
ĠkaÅŁÄ±k
ĠfaydasÄ±
Ġmesele
Ġtesisi
Ġotelleri
tÃ¼lÃ¼
Ol
Ġbulunacak
ĠAmir
ĠyapÄ±sÄ±nÄ±
Ä±ysa
lÄ±klarÄ±nÄ±
hendisi
eliÄŁin
Ġtakibi
Ġguzel
lÃ¼kleri
ĠÅŁimdilik
ĠdavanÄ±n
ĠmÃ¼ÅŁterilerimizin
ĠErg
ĠbaÅŁkent
Ġversin
ĠkÃ¼fÃ¼r
ubay
ĠtanÄ±mak
ĠÅŁampiyonluk
ĠteÅŁhis
Ġtelefonla
Ġsesleri
ĠModelleri
MK
ĠoluÅŁturulmasÄ±
ĠÄ°lkÃ¶ÄŁretim
abilitasyon
ĠaÃ§Ä±lmÄ±ÅŁ
iÄŁde
Ä°k
Ġfeth
ĠÃ¶dÃ¼n
ĠalÄ±ndÄ±ÄŁÄ±nda
ĠBoya
ĠGÃ¶Ã§
ĠkalkÄ±n
ĠNok
Ġkalor
ALI
asp
Ã¼phane
ĠGÃ¶re
Ġkonumu
Ġkonusunu
pik
ĠolmadÄ±ÄŁÄ±na
ĠMÃ¼s
Ġafet
ĠAkÅŁ
ĠÅŀampiyonlar
KiÅŁ
ila
Ġoluruz
ĠsÄ±caklÄ±ÄŁÄ±
ĠÄ°lhan
Kitap
fte
ĠEz
ĠyaÅŁayacak
ĠgÃ¶rdÃ¼ÄŁÃ¼m
ĠDoÄŁa
ĠSÃ¶zleri
ĠgÃ¶rÃ¼leb
Mak
ĠMakine
Ġbilmem
tibiyotik
Ġsunacak
ĠBilin
baz
ĠsaÃ§ma
ĠuÄŁruna
ĠSertif
Ä°ngilizce
Ġkoyan
box
ĠÃ§arpÄ±ÅŁ
ĠkurtarÄ±
hh
Ġatma
ĠProfesyonel
ĠsonuÃ§ta
ĠÃ¼lkelere
ĠbozukluÄŁu
ĠGid
Ġpromosyon
ĠgÃ¼lÃ¼ms
ĠHrist
Ġsipar
ĠÃ§Ä±kÄ±ÅŁÄ±
Ġfiziki
Ġitfaiye
ĠeÄŁitmen
iyeler
Ġdikkatini
alleri
izma
ĠliralÄ±k
Ġinternetten
Ġkarab
Ġkoyarak
Ġanimasyon
ART
ĠoÄŁl
Ġmaddesine
ĠalgÄ±lan
ĠAmasya
ĠMacar
kest
ĠprogramÄ±nÄ±
ĠAlb
ĠTed
ĠBursaspor
ĠBlack
ĠdesteÄŁini
ĠyÃ¶netiminde
ĠhatÄ±rlatan
ĠgÃ¶rÃ¼ÅŁÃ¼
Ġzihniyet
Ġfrekans
CE
Ġmum
Ġingilizce
OsmanlÄ±
',
ĠkonuÅŁmak
ĠDeÄŁiÅŁiklik
Ġkurallar
Ġseans
ĠendÃ¼striyel
Ġihrac
Ġelit
ĠÅŁehirler
iba
Ã¼sk
ĠDevletleri
ĠTÃ¼rklerin
ĠmÃ¼him
ĠLaz
ĠyazÄ±p
ilerimiz
Ġdesteklem
Ġsendro
Ġrev
iirt
Ñĭ
Ġtakvim
ÙĪ
Ġbron
Ġbilmiyor
Ġbekler
wood
ĠkaplÄ±
Ä±nÄ±zdaki
Ã»lullah
ĠaÃ§Ä±ktÄ±r
lot
ĠHele
yem
ĠHÃ¼k
ĠÄ°dare
ĠaÅŁaÄŁÄ±ya
Ġuyu
ĠÃ§alÄ±ÅŁmasÄ±nÄ±
--------
ĠvideolarÄ±
ĠgÃ¶rÃ¼ntÃ¼sÃ¼
ĠortaÄŁÄ±
MB
Ä±lamaz
ĠbulduÄŁu
Ġkre
Ã¢d
Ġbilgisay
Ġtahmini
ĠbakÄ±mlÄ±
Ġverebilirsiniz
ezya
Ġdub
ĠsayÄ±sÄ±nda
alÄ±p
last
Ġmerakla
Ġov
ĠarÄ±ndÄ±r
leÅŁtirilmiÅŁ
ĠoluÅŁturmaktadÄ±r
caya
lilere
ĠÃ¼lkelerinde
tedir
Ã¼ri
DER
mart
Â·
Ġandan
ĠPiyasasÄ±
ĠtaraflÄ±
ĠÅŀar
ĠfiyatlarÄ±nÄ±
tÃ¼d
ĠgÃ¶stermiÅŁ
rasÄ±
Ġreaksiyon
ĠÅŁaÅŁkÄ±n
ĠÃ§alÄ±ÅŁmayÄ±
Ã¼ltÃ¼
Ġdeh
ĠÃ§Ä±kabilir
ĠaÃ§arak
Ġrahatla
ĠTedavi
ĠAcÄ±
ĠÅŁeylerin
ĠsigortasÄ±
ruz
ĠÃ§ocuklarda
Ġlaik
gov
ĠKelim
ansa
ĠhatalÄ±
Ġvaj
taurant
Ġ67
Ġmuhasebe
ĠyayÄ±nladÄ±
ĠÅŁarkÄ±cÄ±
leden
Ġistin
ĠSy
ĠdÃ¼kk
ĠKÃ¼rdistan
ĠgÃ¶zlerini
2007
ĠyapÄ±lÄ±rken
LAH
ĠMarmar
ĠTom
Ġsokakta
ĠMÃ¼slÃ¼manlarÄ±n
ĠDÃ¶nemi
Ġokullarda
Kaz
Ä±lmalÄ±
ĠEÅŁya
ĠDemokrasi
hael
Ġbine
ĠÄ°ÅŁÃ§i
lil
Web
ĠprogramÄ±n
ĠtÃ¼rb
ĠÄ±sÄ±tma
Ġtaktir
ĠsaygÄ±n
Ġdestekli
ĠÃ§eÅŁidi
ĠNerede
ĠsÃ¶ylenen
Ġtaciz
ĠsÃ¶ylÃ¼yorum
Ġmerhamet
Ġhor
ĠÄ±z
Konya
Ġekonomisi
Ä±ÅŁÄ±klÄ±
ĠÄ°stih
ĠSonuÃ§larÄ±
ĠGenÃ§ler
ĠHazine
Ġnorm
ĠBilgisi
ĠYÄ±llÄ±k
ĠArk
ĠÃ¶nlemler
ĠHikmet
UB
ÄŁindeki
ĠmakinasÄ±
Ġhost
Ġfan
ĠÃ§ekip
Ġdurumdur
Ãľst
ĠÅŀimÅŁek
ĠmÃ¼cadelede
minin
ĠmÃ¢n
ĠNihat
onim
Ġkabuk
Ġidam
ĠOrganize
ĠÃ¶nemine
App
ĠEkrem
ĠZirv
ÅŁten
ĠteÅŁeb
ĠiÅŁtah
ĠGenelkurmay
ĠhalkÄ±na
ĠÄ±ÅŁÄ±ÄŁÄ±nda
urat
Ġobjektif
ĠSGK
ĠdosyasÄ±
FotoÄŁraf
ĠÃ¶ÄŁrendim
ĠÃĸÄŁ
ĠyÃ¶nÃ¼
ĠkullanÄ±lmÄ±ÅŁ
reÄŁ
ĠdÃ¼ÅŁmÃ¼ÅŁ
Ġodalar
ĠAÅŁaÄŁÄ±daki
Ä±laÅŁtÄ±r
ĠbakÄ±yor
Ġiskel
ĠÄ°zle
uj
gusu
ĠBizi
ĠAdasÄ±
Ġevleri
omen
Ġbelirtiyor
ase
Ġsahiplerine
asayfa
ĠgerektiÄŁinde
ideki
BÄ°TAK
Ġyetkisi
Ä±rh
ĠÃ¶zenle
ĠkaldÄ±rmak
Ġvazif
kk
Ġduygusu
ĠayrÄ±lÄ±r
Ġsunulacak
Ġsezonun
Ġtemp
ĠRehber
Ġsorgula
lediÄŁini
Ġbiten
ĠklasÃ¶r
Ġgiys
ĠÄ°Ã§eri
ĠCevaplarÄ±
101
LÃľM
meliyiz
ÄŀI
ĠniteliÄŁi
ĠGÃ¶nder
Ġmisin
ĠÃ¼lkesi
ĠTen
Ġsahiplerinin
89
ĠÃ¼t
Ġplay
ĠTEM
Ġdengeli
ciliÄŁi
ĠFah
laki
ĠUcuz
Ġyapmakta
Ġkonusudur
EÃĩ
ĠsÃ¼rer
ĠÃ§Ä±karken
roÅŁ
eller
ĠYapÄ±m
ĠgittikÃ§e
gara
ĠPe
ĠDurumu
koÅŁa
ĠMekke
ĠsorularÄ±nÄ±
ĠKenan
Ġnun
Ġvakt
ĠgeÃ§ebilirsiniz
Ġsitemizden
ĠtekniÄŁi
ĠElif
ĠsÃ¶yledim
CÄ°
Ġkayak
ĠAley
ĠbulunmuÅŁtur
ĠÃ¼cretli
gs
ĠBende
erez
ader
ĠBinali
Ġprojede
ELER
ĠyapÄ±lar
Ġdenge
ĠolduÄŁumuzu
ĠyapÄ±da
ekler
ĠÄ°nÃ¶nÃ¼
Ma
Ġsistemler
ĠÃĩeÅŁitli
ĠbulunmuÅŁ
ĠbankacÄ±lÄ±k
ĠgÃ¶revine
ĠbeÄŁeni
Ġeksiklik
ĠÃ¼rettiÄŁi
ĠsahasÄ±
Ġriskini
ĠseÃ§kin
ĠAkademisi
ekteki
malarÄ±nda
ĠhavalandÄ±r
ĠMÃ¼ÅŁ
ĠparÃ§alan
ĠEndÃ¼str
ĠSana
ĠKulÃ¼p
ĠRestor
ĠOyuncu
hen
ĠkanlÄ±
ĠÃ§eviri
ĠkuÅŁak
ĠÃ§Ã¶zÃ¼mleri
iÅŁan
ĠbaÅŁarÄ±ya
ĠkoyduÄŁu
,...
ĠMenderes
Ã¼nist
ĠdesteÄŁiyle
ĠkoÃ§
Ġsonuca
ĠdeÄŁerlendirmeleri
Ġmotivasyon
ĠkazandÄ±ÄŁÄ±
Ġoynanacak
ĠkuruluÅŁlar
ĠÄ°zmit
Ġkalitede
Ġlezz
Ġertelen
ĠTekrar
kurt
yah
Ġsunuluyor
ĠkatÄ±lÄ±mÄ±
alaÅŁ
Ãĩin
ĠdeÄŁiÅŁiyor
ĠAyak
ĠaÄŁacÄ±
ĠLin
ĠVit
ĠmaÃ§a
Ġilgil
ĠbÄ±rakma
Ġdamg
YO
yazÄ±lÄ±
Ġgarantili
ĠkarÄ±ÅŁÄ±mÄ±
Ġ:))
amasÄ±
ĠGre
ĠortaklÄ±k
Ġharcan
OKÄ°
Ġikil
ĠdÃ¼zeyi
Ġsenden
ĠalÄ±ÅŁk
Ġarma
ĠgeÃ§tikÃ§e
ĠFas
Ġ110
ĠAmatÃ¶r
ĠmeslektaÅŁ
pi
Ġyerlerinde
ĠST
ĠkalmÄ±ÅŁtÄ±r
Ġdeyim
artma
cÄ±m
ĠSÃ¶zcÃ¼sÃ¼
ĠÃ§atÄ±ÅŁma
OBÄ°
ĠolmamÄ±z
ĠsÄ±kÄ±nt
acaklar
ĠDEÄŀ
ĠhayvanlarÄ±n
ÙĬ
ĠArnavut
Ġdevrimci
ĠbaÃ¾
Ġokurken
ĠgeÃ§miÅŁi
abilirim
86
feksiyon
ĠWhats
alp
ĠmÄ±sÄ±nÄ±z
yacaktÄ±r
Ġsolu
Ġtasarlanan
ĠÃ¼retmek
Ġbelirtir
Ġhe
IA
pir
Ġpist
ĠUsta
ĠÄ°mparatorluÄŁu
Ġenj
ĠyarÄ±sÄ±nda
Halk
tÄ±kÃ§a
ĠServer
Ġseti
ovasyon
esk
ĠBÄ°LG
Sabah
ĠarttÄ±rmak
ĠSatÄ±lÄ±k
Ġkimseyi
Ġgelebilecek
ĠkaldÄ±k
ĠalbÃ¼mÃ¼
ĠPaket
Ä±yer
ento
ĠÅŁehre
kuÅŁ
ĠSoÄŁuk
ĠHukuku
vanÄ±
MÃ¼
eÃ§h
ĠkatÄ±larak
yanÄ±n
ĠmesajlarÄ±
Ġsevindir
ĠuygulamayÄ±
Ġrefah
Ġfarz
Ġalem
Ġgelmedi
Ġsahneye
ĠgÃ¶rÃ¼ntÃ¼lÃ¼
ĠasÄ±r
Ġnimet
ĠBaÅŁakÅŁehir
Ġbirileri
ĠiÅŁtirak
ĠyurttaÅŁ
Ġzev
Åŀirket
Ġtransferi
ĠKural
Ġpatlama
2006
Ġ112
ilasyon
ĠÄ°YÄ°
Mod
ĠEdebiyatÄ±
ĠOrtaokulu
ĠsÄ±kÄ±ntÄ±lar
ĠAyhan
ĠyanÄ±nÄ±zda
Ġedilmesine
laÅŁmaya
Ġ1997
Ġruhu
ĠcoÄŁrafi
ĠMÃ¼f
ledikten
opar
Ġray
Ġwith
ĠalÃ§ak
ĠtarayÄ±cÄ±
ĠkÄ±yasla
ĠKlasik
ĠÃ¶nerileri
ĠyazÄ±lÄ±mÄ±
Ġoperasyonda
ĠiÅŁlerin
Ġderinlik
ĠKPSS
Re
ĠYarÄ±
eÅŁim
ĠMÃ¼k
ĠÃľÃ§Ã¼ncÃ¼
Ġdayanarak
ĠfÄ±rÄ±nda
ĠYardÄ±mcÄ±
haf
Ġpiyan
Ġgezin
Ðµr
ĠÄ°nsanlarÄ±n
alÄ±sÄ±nÄ±z
tiÃ§i
Ġoynuyor
ĠarkasÄ±na
ÅŁen
Ġcephe
ĠmalÄ±
ĠgÃ¼venliÄŁini
Ġhizmetine
ĠÃ¼yelerine
AG
ĠPÄ±nar
ĠMakinesi
iliÄŁini
ĠÅŀerif
ĠtakÄ±lan
ĠboÅŁa
Ġdiyelim
ys
Ġteknolojinin
ĠDanÄ±ÅŁmanlÄ±k
Ġkonusuna
ĠgÃ¶rÃ¼ÅŁleri
Ġbulunarak
Ġspr
ĠsuÃ§undan
unup
ĠLib
Ġcazip
Ã¼ÅŁÃ¼
ĠaÄŁÄ±rlÄ±ÄŁÄ±
Ġkurgu
ĠIsparta
ĠDede
ĠseÃ§imler
eceÄŁine
Ġgelmesini
ĠbaÄŁÄ±ÅŁÄ±klÄ±k
Ġsizlerde
GÃ¼ven
Ġbilerek
ĠYangÄ±n
ĠbiliÅŁim
ĠkenarÄ±nda
eyla
ĠhazÄ±rlanmÄ±ÅŁtÄ±r
ĠÃĩankaya
Ã»m
].
Ġ62
ansal
ĠEle
Ok
Ġsaatlerde
ĠSipariÅŁ
Ġkendim
ĠDevrim
ĠyoÄŁunluk
feransÄ±
Ġemzir
Ġsorunlara
ĠvereceÄŁi
ĠTemsilcisi
ĠhesabÄ±na
Hav
Ġetmekten
ĠÄ±slak
uÅŁtan
Ġglobal
ĠbiÅŁey
BalÄ±k
Ġpatent
Ġneye
EG
erkan
ĠaktardÄ±
ĠbÄ±rakÄ±r
Ġedilmez
ĠolacaÄŁÄ±na
edin
madde
Ġrul
ĠÄ°ster
Ġatak
Ġverecektir
ĠSeni
Ġgarantisi
Ġelle
Ġret
ĠsonuÃ§larÄ±na
ĠNÃ¼f
Ġboyn
ĠWe
ĠyayÄ±nlarÄ±
ĠMarket
ĠBaÅŁarÄ±
ĠyÄ±lÄ±nÄ±
ĠÃ§aresiz
Orta
ĠzeytinyaÄŁÄ±
Åŀeh
Ġistihbarat
post
Ġfarket
ĠBurcu
ĠseÃ§ilmiÅŁ
ĠOtur
Ġhamilelik
Ġziyareti
barÄ±
Kas
ĠNeyse
au
Ġyama
ĠHy
matÄ±
ĠMuhtar
Ġkurtarmak
Ġihtil
Ä°srail
ĠalacaÄŁÄ±nÄ±z
nn
ĠIM
Ġnevi
ĠilÃ§ede
ĠErsoy
ĠIl
ĠHizmetler
Ġfinansman
AÃĩ
ĠÅŁÃ¼kÃ¼r
Ġseverek
Ġbahsede
fon
ĠÃĸzellikleri
ĠBuradan
ĠatmÄ±ÅŁ
Ġduyul
TO
Ġistemeyen
Ġgoogle
yacaÄŁÄ±nÄ±
ĠuzmanlÄ±k
Ġitaat
Ġolmamak
Ġkestir
ĠgÃ¶rmesi
ĠSof
zeme
ilebilecek
ĠbÄ±rakarak
verengi
ĠÃ¶neriler
ĠbaÅŁlattÄ±ÄŁÄ±
SC
ĠHoÅŁ
ĠyurtdÄ±ÅŁÄ±
delen
Ġpank
ĠsÄ±nÄ±flandÄ±r
ĠTeÅŁkilatÄ±
Ġso
ĠkitabÄ±nda
ĠbranÅŁ
adÄ±ÄŁÄ±mÄ±z
Tes
sah
Ġaylarda
ĠbaÅŁkanlÄ±ÄŁÄ±nda
ĠyapÄ±lma
ĠKans
KÄ±brÄ±s
iyetle
Ġengeller
Ġhatun
ĠtakÄ±mlarÄ±
ĠhÃ¼kmÃ¼
Ġtatb
ĠÄ°c
ĠÃĩelebi
Ġbeklemek
ĠSaÄŁlÄ±klÄ±
ĠyalÄ±tÄ±m
rent
ĠHepsi
Ġbadem
Ġotuz
ï¼
ABER
Ġezber
ĠWorld
ool
niz
ĠPost
Ġlar
Ġyenileme
ĠbulmuÅŁ
ĠsanÄ±
ĠMimarlÄ±k
Ġneyi
ĠyapÄ±lmasÄ±na
ĠBoyut
Ġph
ĠÃ§evreye
Beyaz
Ġistikamet
Ġfilminin
Ä±lmasÄ±nda
ĠDÃ¼nyasÄ±
Ġyapmam
ĠbildiÄŁimiz
ĠKÄ±rÄ±k
ĠTekin
ove
Ġcir
Koca
ĠtutulmasÄ±
Ã§Ä±larÄ±
ĠGÃ¼neydoÄŁu
Ġetmedi
dirler
ĠAkÄ±llÄ±
Ġmuaf
ĠArac
ĠÅŀam
ĠadÄ±mÄ±
ĠCel
ĠsokaÄŁa
Ġsorar
Ġabone
ĠÃ¶dev
ĠKÄ±rÄ±m
Bilg
lic
Ġtadil
ĠUY
ĠOlimpiyat
Ġhareketle
ĠÅŁartÄ±yla
ĠÅŀart
win
ksÃ¼r
Ġhedefleyen
ĠiddiasÄ±yla
Ġyapamaz
Ġkirli
ĠziyaretÃ§i
ĠedeceÄŁim
Ġhakik
ĠÃ¶ÄŁrencilerinin
ĠalÃ¼minyum
isten
Ġbut
ĠonaylÄ±
ĠMÃ¼t
ĠYeniden
burnu
Ä±lama
Ġsih
ĠkatÄ±nda
Ġgaliba
Ġzahmet
Ġlistesine
ĠkonuÅŁuyor
ĠÄ°lah
ĠÃľlke
ja
ĠdiÄŁerleri
ĠanÄ±msat
istal
esiniz
ĠKabul
Ġgezdir
Ġkumanda
viv
TI
ĠKargo
ĠbÄ±rakmÄ±yor
ĠbÃ¼ro
ĠSorun
bn
ĠWashington
ikatÃ¼r
Ġsimg
gÄ±cÄ±
Kr
vir
ĠaÃ§Ä±yor
Ġtermin
eza
AKP
Ġihanet
Ġcari
ĠYur
ĠmarkanÄ±n
Ä±lÄ±rsa
gele
Ġbeklentiler
Ġyedir
tÄ±mÄ±
ĠpiÅŁirin
kah
ĠzulÃ¼m
ĠdoÄŁrultuda
ĠÃ¶zgÃ¼rlÃ¼ÄŁÃ¼
Ġizler
Ġbiriktir
Ġekranda
Ġsirk
ĠsoÄŁutma
ĠarÄ±yor
ĠPop
Ġedebilmek
ĠkapsamÄ±ndaki
imer
ĠkoÅŁullar
ĠbirÃ§
Ġ66
ĠÃ¶ncÃ¼l
ĠmÃ¼barek
ned
ĠfarklÄ±dÄ±r
ĠÃ§ekiÅŁ
ĠharitasÄ±
leyse
bistan
Ġolumsuzluk
ĠyanÄ±ndaki
Â®
Ġdedektiflik
osuna
Ġmaddelerin
yalarÄ±
ĠplanlarÄ±
Ġilgilendiren
Ġmilleti
ĠKayn
emizdeki
ĠfaÅŁ
ĠyapÄ±sÄ±na
Ġsorumludur
lanmak
ĠKÃ¶ÅŁ
ĠinsanlÄ±ÄŁÄ±n
Ġ77
cÄ±n
Ġkoruyan
ĠuÄŁrat
ĠSinop
Ġmevs
ĠyanÄ±ndan
Ġkalbi
ĠReal
ÃľM
Yurt
Ġordusu
ĠÃĩavuÅŁoÄŁlu
ĠgÃ¶stermiÅŁtir
GÃ¶
sion
Ġmakar
Ġank
Ġadap
Ġplanla
Ġ1995
Ġeksen
ildikten
Ġtarama
ella
ĠuygulamasÄ±nÄ±
ĠYÃ¼zyÄ±l
ĠBEL
KÄ°
inceye
etice
apur
mraniye
Ġkonulan
laÅŁtÄ±ÄŁÄ±
ĠÄ±lÄ±k
Ġuzmanlar
ÄŁimizde
ĠÄ°statistik
Ġbiliniyor
sÄ±nda
ĠgeÃ§tiÄŁini
Ġkaynaklar
ĠTaksim
Ġversiyonu
ĠteÃ¢lÃ¢
ĠgÃ¶rÃ¼lmesi
Ġprof
ĠpadiÅŁah
ĠgÃ¶zyaÅŁ
Ġbelde
ĠgÃ¶steri
ĠkÄ±rk
Ġ61
ĠtÃ¼rden
Ġheyeti
Ġileriye
ĠgÃ¼Ã§lÃ¼k
leyebilir
ĠSahip
ĠaÅŁkÄ±
ÙĴ
ĠanahtarÄ±
ĠÄ±ÅŁÄ±l
ĠyazÄ±nÄ±n
ÄĲ
Ġoldugu
ĠbaÅŁkanlarÄ±
Ġdestekler
ĠâĢĶ
lenmek
Ġbenzersiz
ĠdeÄŁerlendirildi
ĠKÃ¼l
gÃ¶ren
ĠUm
Ġortamlarda
alÄ±n
Ġkale
ĠkayÄ±tlarÄ±
Ġtelif
ĠiliÅŁkilerin
ĠYoÄŁun
gren
Bul
ĠDÃ¶v
Ġkalmaya
ĠkaldÄ±ÄŁÄ±nÄ±
ĠoyuncularÄ±n
ĠeditÃ¶r
Ġuyk
ĠtasarÄ±mlarÄ±
arlÄ±ÄŁÄ±
ĠaradÄ±ÄŁÄ±nÄ±z
Ġelimizden
ĠUlus
ĠyurtdÄ±ÅŁÄ±nda
Ġsoluk
ĠTarif
ĠtasarÄ±
Ġkaleci
Ġhepsinin
ĠsÃ¼resinin
ĠalanlarÄ±n
Ġfena
ĠKendisi
ĠNumar
ĠAÄŁa
Ġzarif
ĠkÃ¢ÄŁÄ±
Ã¶rler
cÃ¼l
Ġtemelinde
nesi
ĠuzaklÄ±k
Ġadamlar
Ġdizinin
ĠsaldÄ±rgan
ĠArama
ĠHoc
ĠyakÄ±nlarÄ±
Ġotomotiv
ĠgÃ¶rÃ¼ÅŁmek
Ġefsane
Ã®m
kinlik
ĠKonferans
Ġolunur
ĠPetrol
ĠkarÅŁÄ±tÄ±
ĠbaÅŁlangÄ±
ĠboÅŁanma
ĠParÃ§a
Ġmolek
no
ĠhÃ¼zÃ¼n
Ġnoktalar
obile
Ġedilip
ĠÃ§evresindeki
Ä±sÄ±ra
Ġmiyim
ocu
ĠÃ§Ã¶zmek
eÄŁen
Ġprojeye
ĠyapÄ±t
ĠMaltepe
Ġekleyerek
ĠTicari
ĠbambaÅŁka
ting
ĠÄ°hsan
Ġdiyecek
ranÃ§
ĠuygulamanÄ±n
Ġadresini
ĠkullandÄ±ÄŁÄ±mÄ±z
ĠKimi
ĠSo
ternational
ĠyaÅŁant
ĠayrÄ±lmÄ±ÅŁ
Ġkrip
Ġilki
Ġbilgisini
ĠaÃ§Ä±klayan
Ġaranan
ÐµÐ
Ġkurb
ĠMahkeme
ĠAraba
Ġistemiyor
ĠlÃ¢
cid
ĠTokat
Ġtutuyor
Ġburcu
Ban
Ġeliyle
ĠtakÄ±
Ġmakineleri
by
Sevgili
Ġopt
itan
ĠtÃ¶renle
ĠsensÃ¶r
ĠSte
ĠTebliÄŁ
ĠOnlara
Ġkud
ĠodasÄ±nda
ĠSky
ĠAÅŀ
Ġfaaliyetler
ĠtercÃ¼me
ĠFilmleri
Ġekipler
cc
avar
ĠsektÃ¶rÃ¼ne
ĠOD
Ġsoruyu
ĠdilekÃ§
Ġcesur
edikal
ĠYollarÄ±
ĠoynadÄ±
Ġalarm
ĠÅŁun
ĠdÃ¶nÃ¼yor
Ġtema
tv
kab
akkab
ĠMP
ĠErkan
abileceÄŁimiz
Ġazaltmak
ĠprosedÃ¼r
ĠTAR
300
Ġyetenekli
ĠAbdul
Ġsonbahar
ĠAltÄ±
ĠPaul
eÅŁe
lileri
ĠLaborat
Buna
ĠhÄ±rsÄ±zlÄ±k
ĠbaÅŁvurularÄ±
ĠyÃ¼zlÃ¼
Ġarkadas
ĠÃ§alÄ±ÅŁtÄ±k
Ġsub
ĠsuÃ§u
Ġendeksi
tÃ¼dyo
Ġmuht
Ġfu
Ġhizmetin
SonuÃ§
ĠÃ§Ä±karÄ±p
ĠkadÄ±nlarda
Ġkabin
Ġbireyin
Ġbilmez
ĠmaÃ§Ä±nÄ±
amanÄ±z
Ġokullar
Ġ350
Ġnemlendir
ĠulaÅŁtÄ±ÄŁ
lm
YS
Ġsicil
reÄŁli
Ġtraf
lÄ±klarÄ±n
ĠÃ¼reticisi
ĠMalzemeleri
ĠÃ¶zelliÄŁine
ĠKÃ¶prÃ¼sÃ¼
ĠKuru
abilecekleri
ĠEvleri
="
ĠÃ§Ä±karÄ±n
ĠtakÄ±ma
ĠÃ¼lkelerden
ĠyapabileceÄŁiniz
ĠWord
ĠyÃ¶nÃ¼ndeki
ĠKeÃ§
ĠkonuÅŁtuk
EST
sasÄ±
ĠyanÄ±sÄ±ra
Ġkupon
ĠgÃ¼nkÃ¼
ĠÃ§Ã¶zÃ¼me
nel
ĠsayÄ±sÄ±na
ĠCelal
ĠÃ¶zelliklerine
ĠDNA
Bun
ĠdeÄŁiÅŁiklikleri
irve
ĠkullanmayÄ±
Ä±klar
Ġkalori
Ġvermeyen
Ġ1996
ĠFikir
ski
Ġvaziyet
ĠparanÄ±n
acan
ĠSevgil
Ġbiyolojik
ĠSÃ¶zleÅŁmesi
Ġsubay
Ġsandaly
Ġmesajlar
ĠkonuÅŁmasÄ±nÄ±
Bunu
haber
ĠvatandaÅŁÄ±n
Ġsiv
ĠgÃ¶zÃ¼kÃ¼yor
tane
ĠyÄ±llara
abilmeniz
likdÃ¼zÃ¼
Ġgeceleri
ĠKos
ĠOnlarÄ±
Ġseviyor
layalÄ±m
ĠSonuÃ§ta
ĠsaÄŁlayabilir
ĠkullanabileceÄŁiniz
ĠBakÄ±mÄ±
Ġyaralanan
ĠonayÄ±
Konu
feder
ĠmÃ¼sait
ememiÅŁ
ĠAvcÄ±
Ġq
ĠFazla
Ġhaml
ĠiliÅŁkiye
ĠgÃ¼zelliÄŁi
Tem
Ä°ran
Ġpencere
ĠdolaylÄ±
ĠbÃ¼l
ĠÃ¶nÃ¼nÃ¼
eksika
ĠdÃ¼ÅŁtÃ¼ÄŁÃ¼
ĠdÃ¶kÃ¼m
ĠVadisi
Ä°ngiltere
ĠTÃ¶r
Ġ1994
oluk
rap
ĠaÃ§lÄ±k
Ġyazarak
azzam
koÃ§
ĠHani
ĠkurallarÄ±na
ĠzanlÄ±
2000
Ġbirimleri
df
Ġgalip
Ġsevgiler
Kom
Ġmuhafaz
ĠhatasÄ±
ĠÃ§alÄ±ÅŁÄ±n
nem
Ġradikal
stem
Ġyakalay
ĠCN
ĠÃ§evresi
Ġkurulumu
ĠSaldÄ±r
ĠYel
ĠDiyet
ĠÄ°lkokulu
Ġgruba
ĠfazladÄ±r
Ġastr
ĠSili
ĠCer
Ġlehine
ĠseÃ§mek
ĠKÃ¢
ĠgÃ¶revlileri
Ġup
ĠPerforman
ownload
Ġkalmadan
Ġseyirc
Ġlistelen
Ġizah
ĠkapsamÄ±na
ĠWi
ĠÃ§ekildi
taraf
ilikon
ĠtÃ¶renine
ihaz
Ġinceleyerek
ĠFinal
ĠalÄ±yorum
ĠMars
not
ward
ĠWar
ĠÃ¼retilmiÅŁ
ĠErken
ĠdÃ¶nemlerinde
ĠSeri
ĠÅŀif
Ġergen
ĠsorularÄ±n
Ġsans
ĠyarÄ±ÅŁÄ±
ĠÅŁifre
ĠBÄ±rak
ĠBaskÄ±
Ð¸Ð
ĠmÃ¼ze
ĠKaliteli
ĠÃ¶dÃ¼llendir
Ġilahi
amadÄ±ÄŁÄ±
ĠsaÄŁlÄ±ÄŁ
Bab
Ã§ilere
Ġzamandan
dakilerden
ĠelveriÅŁ
Ġsoruya
ĠsÄ±y
ĠÃĸdeme
ĠÃ¶nems
ĠzararÄ±
ĠkazasÄ±
Ġyetin
ĠsanatÄ±
Ġderdi
ĠMedine
ĠpirinÃ§
Ġkolu
Ġzamanki
ĠfiyatlÄ±
ĠTekstil
ĠAlmanca
ĠyÃ¼ze
ĠhaksÄ±zlÄ±k
ĠbulunmadÄ±ÄŁÄ±
81
Ġdurur
ĠdayanÄ±ÅŁma
ĠÃ¶ÄŁÃ¼n
Ġevrim
ĠyapÄ±larÄ±
Ġilinde
ĠHint
Ġemri
SÄ±nÄ±f
ĠdeÄŁinen
ĠbÃ¼k
ĠodasÄ±na
ĠKu
Ġinsanlardan
Ġkurulacak
ĠAlevi
Ġkemer
ĠbayanÄ±m
Ġolmayabilir
avvuf
enli
ilmeyen
Ġgiyen
ĠSMS
Ã¶lye
Mehmet
mekt
Ġlojistik
Bal
Ġkozmetik
ĠGEN
ĠKod
ĠDavid
2005
ĠparfÃ¼m
Ġharita
ÃĸÄŁrenc
TAL
Ä°NE
ANS
ĠCal
Sonra
ĠsaÄŁlÄ±ÄŁÄ±nÄ±
ĠMÃ¼dÃ¼rÃ¼mÃ¼z
ĠBahÃ§e
Ġdiyabet
YeÅŁil
devlet
Ġtetk
suru
ĠSizler
ĠDevr
mazsa
Ġmuv
ĠgÃ¼venle
ĠVir
ilan
pen
ĠEnglish
Ġpal
ĠkarÅŁÄ±t
Ġticareti
otek
ĠAfganistan
Bana
Ġsavunan
ĠkaÃ§an
ĠÃ¶neri
Ġtatili
ĠyazdÄ±m
ĠburÃ§
Ġifadeleri
ĠEbÃ»
DeÄŁer
Merhabalar
ĠÃ¼retiminde
ĠaldÄ±lar
ĠÃ§ekilmiÅŁ
ĠkararlaÅŁtÄ±r
Ġjandarma
ĠatÄ±p
Ġkendimize
Ġgeliri
ĠÃ§izim
ĠÃ¢lim
Kendi
ĠmakamÄ±nda
leridir
ĠTSK
ĠyÄ±lbaÅŁÄ±
Ġiri
Ġolabildi
ĠÅŁov
ĠBingÃ¶l
ĠbÃ¼rÃ¼n
Ġseramik
ĠameliyatÄ±
ĠgÃ¼cÃ¼ne
Ġburc
Ġdevred
Ġaileleri
Ġmermer
Ġbalon
ĠbazlÄ±
DÃ¼ÅŁ
Ġcivar
ĠVatan
ĠyÃ¼ksektir
Ġalanlara
Ġisterse
Ġster
Ġdeneyin
hissel
ĠbaÅŁkalarÄ±nÄ±n
amamen
ĠSÃ¶zleÅŁme
ÛĮ
Ġkalkan
ĠaÃ§abilir
Ġmilletvekilleri
ĠtarafÄ±n
Ġvermem
Ġokudu
ĠTOP
Ġgetirip
ĠustasÄ±
ĠkullanÄ±rken
adÄ±klarÄ±
ĠpoÅŁet
ÄŁÃ¼s
Ä±mlar
tÃ¼k
jant
ĠMeydan
Yol
ĠÃ§ukur
zacÄ±
Ġakan
ĠÄ°Z
Ġsahaya
ilyon
Ġiftir
Ġressam
ĠMikro
Ġkahvalt
latan
ĠSempoz
ĠrahatÃ§a
ĠBeyoÄŁlu
ĠÄ°ddi
ezz
ĠimkanlarÄ±
96
Ġarke
laÅŁmanÄ±n
ĠTon
ĠÅŁudur
Ch
ĠOperasyon
Ġeklemek
ĠÃ¶ÄŁÃ¼t
cistan
Ġesin
Ġpartiler
ĠmÃ¼tte
Ġharcama
ĠSert
ĠsÃ¼rÃ¼len
ĠHor
GÃ¼l
ĠAM
ĠArif
Ġkoyuyor
seler
ĠEren
ĠadÄ±mlarÄ±
Ġhavaya
****
Ġml
larin
Ġgrubunda
Ġomur
ĠRisk
ĠiÃ§ermektedir
Ùĩ
asla
ĠÃ§alÄ±ÅŁtÄ±ÄŁÄ±nÄ±
Ġettikten
ope
ĠStadÄ±
ĠTeklif
melere
Ġmahkemeye
Sin
Ä±rsa
Ġteorik
ĠÃ¶demek
DF
ĠakÄ±ÅŁÄ±
Ġikincisi
Ġsayfalar
rut
ct
eddin
ĠtarÄ±msal
ĠazÄ±n
Ä±rÄ±z
Ġevler
arklÄ±
ĠtÃ¶reninde
Ġtutulan
ĠÄ°ÅŁbirliÄŁi
ĠrÃ¼zg
ĠbaÄŁlama
leÅŁmesi
Dav
Ġharman
ĠMahalle
ĠAC
Ġyerle
Ġkonumuna
Ġsorulara
Ã§aÄŁ
Ġatlat
tle
Ġhizmetlerinin
Erz
malÄ±k
ĠHis
Ġliradan
ĠgÃ¼ldÃ¼r
ĠIV
Ġgerekiyordu
Ġisteyenlerin
akip
Ä±zÄ±n
Ġolabilmek
Ġdul
ĠÃĸnceki
ÃĸrneÄŁin
ĠRektÃ¶rÃ¼
ĠZey
Ġinter
Ġprojesinin
Ä±lmamÄ±ÅŁ
ĠaklÄ±na
ĠÅŁamp
ĠalmÄ±ÅŁtÄ±
ĠMerk
Ġkimseler
ĠHP
Ġtekne
ĠAA
Ġth
Ġsigar
ĠÃ§amur
ĠkÄ±zÄ±l
ĠyÄ±ldÄ±zlÄ±
Ġmerkeze
Ġaks
ĠÃ¶ÄŁrencilerine
Ġsenedir
Ġbelirleyen
ĠiÄŁne
ĠPutin
ĠÃĩal
ĠcumhurbaÅŁkanÄ±
ĠAlÄ±m
ĠbÃ¶lÃ¼mÃ¼nÃ¼n
ĠÃĸÄŁret
Ġnda
ĠHel
oga
Gazet
tive
Ġalmakta
Ġdiyeb
Ġtamiri
ilin
ss
ĠKimya
ll
Ä±v
Ġgri
ĠgÃ¶rÃ¼lmÃ¼ÅŁtÃ¼r
ĠsektÃ¶re
ĠÄ°ÃĩÄ°N
tÄ±na
Ġstrateji
400
ĠCennet
ĠAlbayrak
ĠkalkÄ±nma
ĠyÃ¼ksekliÄŁi
ĠSizlere
civert
Ġpotansiyeli
ĠAkademik
ĠsÄ±ralarda
Ġmetod
meme
Ġbayr
Ġvek
ĠiÅŁleyen
Ġsevdi
ĠÃ§Ä±karÄ±lmasÄ±
Ġ1960
Ġkorid
ĠgeÃ§meden
Ġiyidir
renses
ĠolacaktÄ±
ĠTakip
jik
ĠInternet
AND
ediklerini
ĠgÃ¶stermeye
ÃĦÅ¸
ĠaÃ§Ä±n
ĠDonald
lanmasÄ±nÄ±
Yazar
ĠdevamÄ±nda
ĠazdÄ±r
Ġsindir
ĠverdiÄŁiniz
Ġzihin
Ġsordum
celona
ĠnumaralarÄ±
Ġsola
my
ĠÃĥ
ĠBurhan
ĠaraÅŁtÄ±rmaya
yapÄ±
ĠdolandÄ±rÄ±cÄ±
Ġunutma
Ġmutsuz
YaklaÅŁÄ±k
Ġindirmek
Ġprov
AÃ§
ĠÅŁiddetle
Ġmadalya
UÅŀ
casÄ±
Ġsulama
ĠYÃ¼ksekÃ¶ÄŁretim
ĠTarifi
cedes
adÄ±ÅŁÄ±
ilet
ĠBÃĸLÃľM
ubat
ĠFestival
kiye
ĠoluÅŁu
ĠAdÄ±m
ĠTesisleri
Ġedilmek
tij
ĠAyakkabÄ±
malÄ±yÄ±m
Ã¼lte
Mustafa
Ġhavaalan
ĠCap
Ġadresinde
ĠBB
ĠayaÄŁÄ±
umhurbaÅŁkanlÄ±ÄŁÄ±
ĠgÃ¶stermesi
ĠÃ¶yl
Ġkullanabilir
ĠÃ¶nlemleri
ware
ĠyapmanÄ±n
Ġfilminde
Ġkutusu
ĠsÄ±nÄ±fta
ĠgeÃ§erken
hidrat
ĠErkekler
Ġkendisiyle
ĠbakÄ±p
Ġheves
Ã¤
Ġotelde
ĠgÃ¶recek
ligi
Ġadama
ĠadÄ±nÄ±n
Ġhadi
ĠTic
Ġbenziyor
ĠekranÄ±
ĠGaranti
ï½
Ġyon
lex
icilerin
Ġengellem
Ġkendilerinin
ĠAtaÅŁehir
ĠyapacaÄŁÄ±m
ĠPlastik
Ġdersiniz
Kamu
Ġstart
ĠdokÃ¼m
ĠAg
Ġhedefleri
ĠDemokrat
ĠbaÅŁvuruda
leÅŁtirmek
ĠdÃ¼ÅŁmesi
ĠyapacaÄŁÄ±nÄ±
ĠKÃ¼tÃ¼phan
dÄ±ÄŁÄ±mda
ĠSorumlu
ĠPolonya
Ġoldugunu
..."
Ġnotu
Tube
ĠfirmasÄ±nÄ±n
eddÃ¼t
ĠKHK
ĠÄ°leri
itim
ĠBaÅŁkanlÄ±k
ĠgÃ¼rÃ¼lt
ĠiÅŁkence
Ġistendi
ĠYazÄ±lÄ±
ĠShow
Ġanneler
ELÄ°K
ĠpÃ¼rÃ¼z
ĠiÅŁlevsel
ĠduygularÄ±
Ġbirliktelik
Belediye
ĠKep
mo
Ġistiyorsunuz
Ġnihai
Ġekibimiz
><
Ġolaya
ĠAyv
ĠdÃ¶neminin
ĠKarÅŁÄ±yaka
Zaman
Ġkurumun
LARIN
arch
Ġkoyar
ederken
ĠgÃ¶nderilir
ĠKÄ±brÄ±slÄ±
Ġbulunmuyor
ĠÃ§ayÄ±
ĠBahis
ĠsÃ¼rÃ¼n
ĠkuruluÅŁlarÄ±n
ĠÄ°ÅŁler
ĠGo
Ġ79
ĠsÄ±kÄ±ntÄ±sÄ±
ĠhazÄ±rlanmasÄ±
ĠsÃ¶ylediler
Bilim
ĠkitabÄ±nÄ±
sÄ±nlar
iyen
ĠdÃ¼ÅŁÃ¼ndÃ¼k
ĠyazarÄ±n
kitap
Ġbellek
duÄŁuna
Ġhacmi
Ġokuyup
ĠPAR
ĠavuÃ§
Ġyaparlar
ĠFinansal
ĠolmadÄ±ÄŁÄ±ndan
ĠgeliÅŁtirilmiÅŁ
ĠMesut
ĠYÃ¼rÃ¼y
ĠseÃ§erek
iyse
Ġfaaliyetlerine
ĠKOBÄ°
Ġmuciz
ĠkuruluÅŁlarÄ±nÄ±n
ĠvÃ¼cudu
ĠEM
makam
ĠÄ°y
osunda
ĠOktay
ĠSezon
ĠKO
ĠUlaÅŁtÄ±rma
Han
ĠdÃ¼nyaca
merhaba
SAN
uyan
ilmeden
YayÄ±n
Ġsorumlusu
ĠÃĸSYM
ĠAdres
Ġartacak
Ġaydan
Ġtaktirde
ĠgÃ¶rÃ¼nÃ¼mÃ¼
RE
ĠdediÄŁim
Ġhiz
Ġimha
Ä°F
ĠdolandÄ±r
ĠPuan
ĠyaÅŁanÄ±yor
iyete
ĠAkademi
Ġhayali
ĠGazze
ĠsaÄŁa
Ġ1992
ĠÃ§apraz
Ġtemeli
Ä±nak
ĠpolitikalarÄ±
rad
ĠsÃ¼rÃ¼mÃ¼
IY
Ġuygulamak
bun
ĠPlaj
DÃ¶n
ĠolduÄŁunuzu
Ġkurarak
ĠSami
ĠDevamÄ±nÄ±
Ġadrese
Ġseh
ĠÅŀiÅŁli
Ġlistesini
ĠbÃ¼yÃ¼klÃ¼ÄŁÃ¼nde
Ġantibiyotik
ĠÅŀark
Ġgrev
ĠÃ§aÄŁrÄ±sÄ±
ato
ĠÃ§alÄ±n
ĠKaraca
ĠarayÄ±n
Ġalay
akt
ĠÃ§are
Ä±lmamasÄ±
Ä±nÃ§
ĠdÃ¶nmek
AraÅŁtÄ±r
ĠalÄ±nÄ±p
otu
Ġkooperatif
Ã¼mÃ¼n
Ġseninle
rot
Ġsalg
Ġverilebilir
ĠÅŁak
Ġsokt
dalÄ±
ĠSec
KUR
ĠUÅŁak
ĠBÃ¼tÃ§e
Ġburda
ĠgÃ¼vence
ĠgÃ¶revden
esterol
Ġ1993
Yat
ĠgÃ¼nÃ¼nÃ¼
ĠdÃ¼ÅŁmanÄ±
Ġiste
ĠkonuÅŁmalar
ĠmaÃ§larÄ±
ĠyeteneÄŁi
eliler
ĠkapÄ±larÄ±nÄ±
Ġ000
ĠdÃ¼zenlenmesi
ĠÃĸdÃ¼lleri
Ġelindeki
ĠaÃ§Ä±klamalarÄ±
sÃ¼r
Ġ76
ĠPremi
ðŁĺ
rojen
apÄ±
ĠSiyaset
ĠBilgileri
Ġfaaliyete
ĠkÃ¶l
ĠÃĩil
ĠAsÄ±l
ĠDemek
ĠdeÄŁerlendiren
ĠFirmamÄ±z
ĠeleÅŁtiri
ĠgÃ¶zde
ĠÃ§evrimiÃ§i
ĠKÃ¶rfez
ĠKomp
Ġhatalar
Ġdaral
Ġacent
ĠYeri
Ġalgorit
ĠGebze
Ġmemnuniyetini
ĠbaÄŁlayan
ĠfragmanÄ±
ĠsÃ¼releri
Ġantalya
ĠavantajÄ±
ĠAut
ĠanladÄ±m
ĠvatandaÅŁlara
Ã¼h
ĠLid
Ġaksam
lanmasÄ±na
ĠdeyiÅŁle
orge
ĠPortekiz
Ġdor
ĠgÃ¶sterecek
Ġligde
ĠherÅŁeyi
ĠtÃ¼tÃ¼n
Ġcad
ĠUzay
Ġyetkililer
ĠMerkezleri
ĠâĢº
ĠkollarÄ±
Ġkana
ĠMÃ¼dÃ¼rlÃ¼ÄŁÃ¼ne
ĠErcan
ĠsÃ¶yleyebilirim
ĠKampan
ĠEtik
ĠÃ§izen
Ġoyuncunun
Ġlens
Ġcevaplar
iyye
ĠsÃ¼rgÃ¼n
ĠkarÅŁÄ±laÅŁma
Sh
Ġsistemlerinin
Ãľlkemizde
ĠBaÄŁdat
fab
evet
ĠiÅŁlen
Ġdilerseniz
ĠtanÄ±mÄ±
ĠkasÄ±
igh
ĠtanÄ±ÅŁma
Prof
ĠBaÅŁbakanlÄ±k
Ġeksi
Tekn
ÑĮ
ĠArka
ĠyatÄ±rÄ±mlarÄ±
ĠÃ¶denmesi
ĠalÄ±nabilir
Ġdayat
Bundan
talama
ĠkÄ±sÄ±tlÄ±
ĠHit
ĠkullanÄ±cÄ±nÄ±n
2004
ous
ĠTrakya
Ġgemisi
Ġgelirken
ĠtanÄ±y
Ġcaiz
ĠÃĸN
caÄŁÄ±nÄ±z
Ġhani
Ham
Ä°YET
lesin
ĠdaÄŁÄ±lÄ±m
Ã¼fer
ĠvÃ¼cuda
MÃ¼z
ĠYÃ¶netmeliÄŁin
ĠniÃ§in
yazÄ±
Ġaniden
ĠÅŁirin
ĠadÄ±ndan
Ġorganizasyonu
Ġstand
ĠÃĩaÄŁrÄ±
ĠRis
Ġgidin
Kir
Ġbilginin
Ġhukuka
ĠtÄ±kan
alamak
ĠartÄ±ÅŁla
Ġkurallara
calan
Ġburjuv
Ġsezonda
Ġsitelerinde
ĠyÃ¶ntemlerle
Ġdr
ĠsÄ±kÄ±cÄ±
ĠBakÄ±rkÃ¶y
ĠDeri
dr
ĠkarlÄ±
Ġdevlete
ĠyapÄ±sal
ĠBaÄŁÄ±msÄ±z
ĠSAY
ĠZek
ĠDayanÄ±ÅŁma
Ġyapmaktan
ĠEdit
Ġdosyalar
Bat
Âħ
ĠyapmalarÄ±
aklÄ±k
Ġhavuzu
ĠyapmamÄ±z
ografik
haz
Ġkonulara
ĠiÃ§ini
Ġederseniz
cinsel
ĠalmasÄ±nÄ±
Ġmalum
Ġvarol
ĠNamaz
oroloji
gunluk
Ġbirbirleriyle
ĠÄ±sÄ±r
Sah
ĠtemasÄ±
Ġparametr
Ġolana
ĠHalbuki
Ġvermekte
Ġmotif
afet
Ġkullanacak
ĠVÃ¼cut
Ġminnet
lop
ĠBeykoz
rettin
akÃ¢r
ĠkullanÄ±mÄ±nÄ±
84
ĠTUR
lÃ¼ÄŁÃ¼n
ĠkolaydÄ±r
ĠDerin
ĠMetro
Ġolayda
Ġistiyorlar
Ã¼ksel
ĠbÄ±raktÄ±ÄŁÄ±
ĠPorno
ĠvereceÄŁiz
ĠgÃ¼reÅŁ
Ġyerlerini
ĠObama
Ã¼bnan
ĠGayrimenkul
Ä°ÅŀTÄ°R
Ġseg
ĠPakistan
ĠRen
ĠyazÄ±mÄ±z
ĠAyn
Ġtutma
ford
Ġsizce
ĠYaÄŁmur
ĠfÄ±rsatlarÄ±
ĠÃ§evresel
sÄ±nÄ±n
yy
Ġkin
Ġkamuoyu
Ġistenmeyen
ĠyÃ¼klem
ĠLise
Ġgitar
ĠBanyo
bih
beral
ĠuÄŁra
ĠSatÄ±n
Ġhazin
Øª
ĠVodafone
¸ı
adasÄ±
Ġlistede
ĠYetkili
ilmem
Ġsormak
MÃ¼ÅŁt
ilendirme
Per
ĠYozgat
ĠSefer
KAN
ĠEylem
Ġgecenin
aryak
ĠiÃ§erikli
ĠSiyasi
ĠFikret
ĠKÃ¼resel
ĠYatak
ĠtÃ¼mÃ¼
Mas
ember
ĠsaÄŁlamaya
Ġsenary
Ġkorur
ĠGiyim
ĠbelirlenmiÅŁtir
Ä±ntÄ±lÄ±
Ġuygulanabilir
ĠsavaÅŁa
peri
Ġharcam
ĠÅŁarkÄ±larÄ±
ĠMillÃ®
ĠverdiÄŁim
Ġtaksi
ĠbaÄŁÄ±msÄ±zlÄ±k
Ġtapu
ĠÃ¶bÃ¼r
ĠkonuÅŁulan
ĠArasÄ±
Ġmarkalar
ĠuzunluÄŁu
ĠDiler
ĠyaÅŁÄ±nÄ±
Ġmonte
Ġprojeyi
anlÄ±ÄŁÄ±n
ĠÅŁem
ĠBilecik
kes
Ġbaya
Ġsportif
ĠminibÃ¼s
Ġmuazzam
ĠÃĸzbek
Ġpuanla
ĠGeliÅŁim
ĠsaÄŁlanmaktadÄ±r
ĠAlper
Ġkavur
83
Ġoyununda
ĠsÄ±ralama
Ġentegr
Ġanlamaya
Ġizi
ĠgÃ¶rÃ¼ÅŁlerini
ĠTerim
gon
Ġhavaliman
ĠYi
ĠLirasÄ±
Ġtercihi
ĠeÄŁitimleri
Ġeklendi
hassa
ĠalanÄ±nÄ±n
Ġprojelerin
ĠoranÄ±nÄ±
Ġedilirken
ĠDilek
Ġgelirse
Ġverilecektir
ĠOtomatik
ĠhavasÄ±
Ġislami
ĠarkadaÅŁlarÄ±m
lanÄ±n
Amerika
ĠEÄŁlen
Ġyapmaz
ĠdÃ¼ÅŁÃ¼ncesi
ĠaÃ§Ä±lÄ±ÅŁÄ±
ĠErc
miÅŁlerdir
lamadan
Ġhuy
Ġuluslar
Ġunsuru
Ġaza
ĠKararÄ±
ĠbÃ¶lÃ¼
Ġrakibi
ĠkiÅŁilerde
ĠdaÄŁÄ±n
Ġtuttu
Ġmodelini
ĠBuluÅŁ
ĠbaÅŁkanlÄ±ÄŁÄ±
ĠsÃ¼rek
ĠGÃ¼Ã§lÃ¼
Ġtesisleri
ĠHÃ¼kÃ¼meti
ĠsÄ±raya
ĠÅŁaÅŁÄ±rt
Tan
ĠkulÃ¼bÃ¼
iÅŁkin
ĠNa
Med
Ġbelgelerin
ĠÃ¶rgÃ¼tleri
ĠsoÄŁu
Ġ1970
izme
ĠbaÅŁlarÄ±nda
ĠaÃ§mÄ±ÅŁ
ĠSap
ĠKemer
Ġgo
GerÃ§ek
ĠÃ¶ncesine
yonu
ÅŁan
ĠAF
ĠÅŁeylerden
Ġsunmaya
ĠsÃ¼resini
ĠkarÅŁÄ±laÅŁtÄ±ÄŁ
ustur
ĠyaÅŁlarda
ĠkuÅŁkusuz
ĠÅŁarkÄ±sÄ±
ĠMasa
ĠkullanÄ±mÄ±nÄ±n
UP
sÃ¼nÃ¼z
],
ĠaralÄ±klarla
varyum
ĠcihazÄ±n
Ġhom
ĠKamer
Ã§am
Ġkalarak
ĠÃĸner
ĠkaybettiÄŁi
Ġhamam
ĠtanÄ±nmÄ±ÅŁ
BirÃ§ok
ĠteÅŁebbÃ¼s
ĠBirlikte
ĠBosna
ĠSanki
Ä±klÄ±k
burt
eliyat
ĠiÅŁletmec
AltÄ±n
Ġrenkte
ĠKooperatif
ĠyÃ¼rÃ¼ttÃ¼ÄŁÃ¼
ĠFener
ĠvatandaÅŁlarÄ±
ĠHaÅŁ
Ġsenesinde
ĠbÃ¼yÃ¼klÃ¼ÄŁÃ¼
Ã¼nt
ĠeÄŁr
ĠÃ§alÄ±ÅŁmÄ±ÅŁ
ĠÃĸnÃ¼mÃ¼zdeki
ĠkullanmanÄ±z
Ahmet
Ġolurum
ĠGEL
osunun
Ġunutul
asyonlar
ny
ĠatÄ±ldÄ±
TaÅŁ
ĠÃ§Ä±ktÄ±k
Ġpeki
Ġtaktik
ĠipuÃ§
ĠgÃ¼ndelik
ĠeÄŁitimler
izler
BD
Ġobez
Ġaleyhine
Ġoynar
avgat
Ġsende
Ġkaya
ĠyakÄ±nlarÄ±nda
Ġbelirler
Ġkrit
ls
Ġhasret
Ġpilav
ĠzÄ±rh
ĠFransÄ±zca
ĠRÃ¼z
ĠÃ¼lkedeki
ĠgenÃ§lere
Ġzevkli
Kurum
ĠHakkari
Ã¼lin
ĠTurnuv
ĠzorunluluÄŁu
ĠÃĩalÄ±ÅŁan
namesi
ĠsadÄ±k
Ġuyruklu
Ġriskli
Ġtaklit
ĠparmaÄŁ
Ġailelerin
Ġfelsefe
itleri
Ġsultan
ĠtanÄ±tÄ±mÄ±
alizmin
estezi
ĠBugÃ¼ne
ĠkeÅŁke
ilmesiyle
Ġterim
SaÃ§
Ġgitmeye
Ġazalma
87
ĠkarÄ±
emeyiz
ĠtartÄ±ÅŁmalar
Ġsertifika
mekteyiz
ĠiÃ§ki
Ġreg
ott
ĠyarattÄ±
ĠsÃ¶zlÃ¼k
ĠkÄ±vam
ĠaÃ§acak
ĠgÃ¶zlÃ¼k
pektif
Ġkurutma
ĠGeleneksel
opa
Ġparlamen
ĠyakÄ±ÅŁÄ±klÄ±
Ġparalar
vri
Ġur
amm
lÃ¼ÄŁÃ¼nÃ¼n
Ġnoter
Ġcins
Ġalmaz
ĠdavranÄ±ÅŁlarÄ±
ĠMichael
Ġinanan
ĠeÅŁyalarÄ±
ĠOlu
emizden
ĠSony
Ġkl
ĠÃĸzer
ĠJack
Ġdestan
ĠbaÅŁlangÄ±c
ĠSevgi
ĠTEKN
ĠUs
ĠDay
Ġklip
ĠtaÅŁÄ±dÄ±ÄŁÄ±
ĠSuresi
lenmeye
Ġcek
Ġgiderleri
Ġgecede
ï¸ı
ĠkurmuÅŁ
Haberler
Ġumu
ĠNam
UY
ĠSaygÄ±
ĠOldukÃ§a
Ġtepkiler
ĠÃ¶ksÃ¼r
Ġlin
ĠDÃ¼ÅŁÃ¼n
ĠHenÃ¼z
Ġiktidara
ĠyoÄŁunluÄŁu
ĠolacaÄŁÄ±m
ĠhastalÄ±klarÄ±n
ĠGam
ĠLav
ning
Ġhiper
Ġkamuoyuna
Ġsekret
ĠfÄ±st
ĠgÃ¼cÃ¼nÃ¼n
ĠgeliÅŁtirdiÄŁi
Ġkaynat
ĠBuradaki
ĠacÄ±masÄ±z
ĠulaÅŁabilir
ĠuzaklÄ±kta
Ġï¿½ï¿½
Ġkuyruk
ĠAnlam
Kategor
ĠihtiyaÃ§larÄ±na
ĠCoÅŁkun
ĠMilletvekil
Ġtarzda
Ä±nt
imdeki
ĠKodu
GÃ¶k
ute
SI
ĠhaklarÄ±nÄ±n
ĠKoleji
ĠVolkan
ĠDizi
Ġmahrum
Ġtwitter
ĠÃ¼ÅŁ
Ġcis
ĠDeÄŁerlendir
Ġhazret
ĠsarÄ±msak
Neden
ĠpÃ¼sk
EMÄ°R
ĠNevÅŁehir
Malatya
ĠArdahan
Ġoluyordu
ĠkararÄ±yla
Ġpansiyon
Ġfoto
ĠhoÅŁuma
Ġyou
ĠhesabÄ±nÄ±
Ġheyecanla
ĠFrank
iyla
Ġgetirdik
ĠuzmanlarÄ±
ĠTipi
Ġhavlu
ĠgazÄ±
ĠUSD
TÃľRK
apon
ĠAllahÃ¼
Ġmusun
alÄ±yÄ±z
Ġrent
ĠyÄ±kÄ±m
ĠVur
ĠyetiÅŁen
dÃ¶
Ġgelmeden
Ġetkinlikte
ropol
.''
Ġgirdim
Ġkelimeleri
Ä±ldÄ±ktan
Ġetkilerini
ĠdeÄŁerlerini
mÄ±yoruz
Ùı
Ġdurdu
ĠkapanÄ±ÅŁ
ĠMaz
Ġevinin
ĠBisiklet
Ġdinlemek
ĠkullanÄ±lmak
Ġgaler
ĠCemil
ĠvatandaÅŁlarÄ±mÄ±zÄ±n
ĠduruÅŁu
ĠÃ§ekiliÅŁ
Ġibr
dilerde
ĠDursun
ĠHayal
ĠMuhasebe
Ġhediyeler
ĠEV
Ġfantez
Ġgizlilik
mark
ĠÃ§atlak
gay
ĠHaydar
ozisyon
beyli
ordu
Ġkutup
tidar
ĠSevgili
Ġdurumunun
Mersin
ĠDemokratik
Ġaleyhi
ĠiÅŁÃ§inin
Ġkavr
ĠAÄŁaÃ§
ĠÃ®
ĠyÃ¼kÃ¼
ĠtereddÃ¼t
Ġitibari
92
Met
ĠEp
ĠTehlik
weet
ĠÅŁaÅŁÄ±rtÄ±cÄ±
ĠIstanbul
Yet
Ġgidilir
riye
Ġnezdinde
ĠhoÅŁgÃ¶r
ĠRÃ¼yada
ĠÃ§ocuklarÄ±nÄ±
dÃ¶rt
ega
ĠListesi
ĠÃ§alÄ±ÅŁacaÄŁÄ±z
istim
Ġ360
ĠÃ§ekimi
à¤
Ġolaylara
larÄ±nÄ±zdan
Ġhabere
ĠalÄ±nacaktÄ±r
ĠyÄ±pran
Ġbulunabilir
ĠAkÅŁener
ĠEroÄŁlu
RA
Ø¯
Ã§eli
Ġserver
ĠkalmÄ±yor
ĠkuÅŁat
Ġetmektir
ĠBelli
Ġdurmak
ĠdÃ¶nmesi
Ġgrubunun
ĠdiÅŁi
Ġodada
ĠÅŁartlarÄ±na
Bank
ĠpazarÄ±
Ac
Ġaziz
Ġhesaplama
ĠvermiÅŁti
ĠTesti
ĠMaÄŁaz
kÄ±rÄ±m
ĠdÃ¼ÅŁkÃ¼n
Ġmezhep
ĠtasarlanmÄ±ÅŁtÄ±r
Ã½nÃ½n
Ġbunlarla
Ä±cÄ±nÄ±n
ĠEmine
ĠEriÅŁim
Ġhedefliyor
gem
Yan
ĠKatar
ĠyÄ±llardan
Ġgecikme
ĠMEB
ArkadaÅŁlar
ĠgÃ¼rÃ¼ltÃ¼
ĠFord
ĠTercih
ĠKollarÄ±
anam
CA
stat
sn
ĠseÃ§enekler
ĠtopluluÄŁ
Ġtorb
Ġine
Ġ130
Ġincelemek
ĠoluÅŁturdu
evr
Ġ\
icinin
ilar
Ġtozu
ĠÃ¶teki
ĠSonunda
ĠyapacaÄŁ
ĠpekiÅŁtir
Ġzeki
ĠÃ§ocuklarÄ±na
ĠdikiÅŁ
DiyarbakÄ±r
Ĥ¬
ĠED
ĠVah
ĠBiri
Ġseverler
ÃŃ
astÄ±r
ĠÃ¶rn
Ġelement
ĠCinsel
Ġortaokul
ĠyapÄ±labilecek
ĠgÃ¶mlek
ĠarkadaÅŁlarÄ±mÄ±z
Ġbirbirlerini
Ðµn
ĠHerkesin
Ġporn
ĠSom
ĠYayÄ±nevi
ĠkoÅŁu
ĠmutluluÄŁu
Ġhareketler
ĠMeral
Ġtersi
Ġsitesini
ĠYedek
Ġtasarrufu
Ġpot
Ġsevgilisi
Ġtehlikeye
allahu
Ġfidan
istlerin
ĠgÃ¼zeldi
YukarÄ±da
Peygamber
ĠkapaÄŁÄ±
ĠayÄ±p
Ġdalgalan
Ġtutup
Ġyapabilmek
Ä±kÃ§Ä±
ĠHadi
Ġoteller
Din
Ġvef
Ġvermedi
ĠSib
siyesi
ĠÅŀÄ±rnak
Ġgiydir
ĠiÅŁlerde
Ġnisp
ĠBÃ¶lgesinde
Ġtahrik
Ġdiyordu
ĠAtÄ±k
Ġ{
ĠBO
ĠBÃ¼ro
ĠbayraÄŁÄ±
dÄ±rÄ±cÄ±
ĠYem
ĠkarÅŁÄ±nÄ±zda
abiliyoruz
ĠmÃ¼naseb
ĠGroup
Ġzaf
ĠÃ¼zÃ¼ntÃ¼
Ġgiderilmesi
ĠgÃ¶ndermek
tatÃ¶r
ĠsÄ±kÄ±ntÄ±lÄ±
ĠinanÄ±yoruz
Ġbitim
ĠTanr
etiÄŁi
ĠOHAL
ĠolduÄŁunca
Ġgetirmeye
ĠbÃ¶lgeyi
Ġkripto
ĠmÃ¼cadelenin
ĠpaylaÅŁtÄ±ÄŁÄ±
ĠbaÅŁaran
ï½±
ĠdÄ±ÅŁarÄ±ya
ĠiniÅŁ
Ġellerine
Ġnakil
ĠBilimsel
Ġsatmak
Ġisimlerin
Ġeklenen
Ġyedik
Ġiyisini
ĠTHY
ĠÅŁirketlerinin
Ġkatled
ĠAylÄ±k
olasyon
ĠTÄ±bbi
viÅŁ
Ġfol
ĠAslÄ±
ikar
ĠzorundayÄ±z
ĠGelecek
Ġannesinin
ĠbulunduÄŁumuz
ĠheyecanÄ±
Ġnehir
ĠÅŁarttÄ±r
Ġhukuku
Ġpolisin
ĠiktidarÄ±
ĠSendikasÄ±
ĠOran
ĠCeb
ĠCoÄŁraf
Ġfikirleri
ĠSAN
ĠPendik
lediÄŁimiz
arlarÄ±
ĠBoÄŁaziÃ§i
Ġotor
ble
Ġcidd
Ġyorgunluk
ĠLefkoÅŁa
Ġkongre
ĠGenelde
avat
ĠkullandÄ±m
Bor
ĠkonularÄ±n
Ġsorununu
ĠelemanlarÄ±
ulus
Ġyerlerine
Ġincelendi
ĠtakÄ±mÄ±nÄ±n
kam
ĠSayfada
ĠetkileÅŁim
Ġceket
ĠalanÄ±nÄ±
Ã¼nÃ¼zde
Ġ73
ĠiÅŁlemlerinde
TB
aryakÄ±t
ĠsaÄŁlayÄ±cÄ±
Ġirtibata
ĠMaden
FE
Ġtutmaya
ĠmÃ¼zakere
hoÅŁ
Soru
luyorum
Ġseverim
ĠÅŁikÃ¢yet
ĠGerekli
ĠyarÄ±da
ERKEZ
wa
enni
ĠkameralÄ±
ĠLit
ĠbaÅŁlatÄ±ldÄ±
ĠyayÄ±lan
ĠCeylan
Ġ160
ĠGÃ¶rÃ¼ntÃ¼
ea
roÅŁÃ¼r
ĠYayla
Ġ74
ĠsÃ¶zleÅŁmeli
Ġsper
ĠyansÄ±tan
&#
anÄ±za
ĠkiÅŁilerden
ĠJames
ĠÃ§alÄ±ÅŁanlarÄ±nÄ±n
ĠbeÅŁinci
Millet
ebelik
ĠdalÄ±nda
ĠoluÅŁmasÄ±
ĠgÃ¶receÄŁiz
eleÅŁtir
ĠiÅŁver
ĠHazÄ±rlÄ±k
ĠkaybetmiÅŁ
Ġaff
avantaj
ĠaralÄ±ÄŁÄ±nda
benim
indedir
ĠÅŁeydir
ĠkÃ¶yde
Ġtestleri
ĠTiyatrosu
Ã¢f
ĠgerÃ§ekleÅŁmesi
ĠDeÄŁiÅŁim
ĠMarÅŁÄ±
Ð°r
diz
bis
ĠÃ§ekmeye
ĠkalkÄ±p
ĠkÃ¼s
ĠPrens
Ġkapasiteli
Is
ĠbaÅŁlangÄ±cÄ±
ĠkarÅŁÄ±lÄ±ÄŁÄ±nÄ±
Ġseyred
ĠsÃ¼rdÃ¼ÄŁÃ¼
illiam
Ġtuttur
ĠulaÅŁmÄ±ÅŁ
Ġmodellerini
Ġtamamlanan
tÄ±ÄŁÄ±nÄ±zda
ĠZirvesi
ĠAlacak
Ġkimler
Ġkorumaya
ĠOrganizasyon
ĠMert
Ġtrak
ĠÃ§Ä±karÄ±yor
NET
Ġekonomisine
ĠGÃĸR
Ġtutulur
ĠÃ§alÄ±ÅŁÄ±yorlar
ĠsatÄ±m
ĠborÃ§lu
Ġbini
opol
able
Ġalandaki
ĠyÃ¶nÃ¼yle
ilmemiÅŁ
Ġperiyodik
Ġtekrardan
ĠyazÄ±lÄ±r
ĠSizi
ÃľnlÃ¼
Ġolunan
ĠolasÄ±lÄ±ÄŁÄ±
ĠÃ§in
Ġtoplayan
Ġfirmalara
abildiÄŁi
Ġsunuldu
ĠdÃ¼ÅŁÃ¼ncelerini
Ä±ncaya
Ġistisna
ĠHizmeti
Ġtalih
ĠÃ¼rÃ¼nlere
ĠtÃ¼c
Ġcahil
ĠdolarÄ±
Size
GÃ¼ney
ĠPS
ĠyaÅŁÄ±ndayÄ±m
ĠkullandÄ±ÄŁÄ±nÄ±z
Ġeylemi
ĠyayÄ±nladÄ±ÄŁÄ±
ĠSER
sol
Ġkemi
elerdeki
ĠDV
kaz
ĠEndÃ¼stri
SÄ±r
Ġellerinde
ĠtÃ¼nel
ardo
ĠÃ¼yelerin
ĠYapÄ±mÄ±
cem
ĠÅŁeylere
ĠayaÄŁ
ASIN
ĠpaylaÅŁÄ±mÄ±
Ġbenzeyen
ĠtasarÄ±mlar
Ġkanunun
ekin
ĠseÃ§eneÄŁini
Ġoradaki
ĠÃĩiÄŁ
ĠOnay
ikasyon
ĠSON
ĠgeÃ§im
gÄ±z
adil
ĠMeksika
Ġvil
anlÄ±ÄŁa
Ġkoordinasyon
Ġbolca
rarÄ±
Ġvuran
Ġmotorlu
ĠkararÄ±na
Ġsunuyorum
Ġtedbirler
ĠSelahattin
Ġedine
Ġkonuma
traf
qq
oksidan
ĠiPad
ĠmiktarÄ±nÄ±
ĠeklenmiÅŁtir
ĠEreÄŁli
ĠMÃ¼r
ayip
Ġgirmeye
ĠÃ¶ÄŁretmenlerin
ĠdÃ¼zenlenmiÅŁ
eff
Ġtelefonun
Ġfotok
ĠbahÃ§esinde
Ġkudret
ĠyaÅŁÄ±yorum
ĠKombi
ĠbaskÄ±sÄ±
Ġtahr
dom
ĠTec
ĠgÃ¼zeli
Ġseferinde
sy
ideo
tÃ¼el
Ġrekab
KÃ¼r
ĠAltay
ĠfarklÄ±lÄ±klar
oksit
Ġdilde
Ġpartilerin
Cen
Ġcay
Ġtehdi
ĠyaklaÅŁÄ±mÄ±
ĠgetirmiÅŁtir
Ġaman
ĠgerÃ§eklik
ĠSoylu
ĠhayvancÄ±lÄ±k
ĠmÃ¼tev
Yunan
ĠartÄ±rÄ±lmasÄ±
ĠÃ§Ä±tÄ±r
Ġportakal
ĠÅŁarkÄ±lar
ĠÄ°thal
edirgin
ĠVic
ĠgÃ¼neÅŁin
Ġbinalar
Ġdiliyoruz
ĠkonuÅŁmasÄ±
ĠPor
Ġdinlenme
Turk
ĠbÃ¶lgeleri
enekon
Ġbitirdi
ĠSTK
ĠLider
ĠdÃ¼ÅŁÃ¼ndÃ¼r
ual
ĠKAL
Ġduygular
ĠKimlik
mayacaÄŁÄ±
Gaziantep
lamÄ±yorum
ĠtanÄ±mlanan
ĠpaylaÅŁan
Ġmilletimizin
cen
ĠkalÃ§
Ġannenin
Ġtems
ĠGlobal
Ġgeldiniz
fin
ĠbeklediÄŁi
ĠiÅŁleminin
ĠDenizcilik
Ġambar
araya
ĠkapÄ±yÄ±
Ġortama
antel
ĠmÃ¼lakat
Ġmam
iÅŁehir
ĠcezasÄ±na
Siyas
Ġoyununu
ĠyÃ¶neticiler
melerinin
adaÄŁ
ozan
Ġniyetli
Ġverilere
Ġ240
Ġproblemler
ĠGeÃ§ici
nce
Ġsoyut
ĠBektaÅŁ
onda
ĠeylÃ¼l
ĠEtkinlik
ĠkÄ±salt
MAZ
KonuÅŁ
ĠSerkan
lenmesini
liyesi
digi
ozu
ĠtÃ¼mÃ¶r
ĠazaltÄ±r
Ġinkar
RÃ¼yada
ĠKaynaklarÄ±
ĠMelek
Ġredde
ĠbÄ±k
Bakan
ĠkartlarÄ±
ĠgeliÅŁimini
Dik
Ġbasarak
laÅŁÄ±r
ĠgÃ¶sterebilir
ĠKonferansÄ±
ound
lemesine
Ġgelenler
Ġgibiydi
ĠÃ¼yeliÄŁi
ĠiliÅŁkilerini
Ġnoktadan
anÄ±t
ĠAdli
Ġkorkusu
ĠÅŁunlardÄ±r
ĠamaÃ§layan
ihan
ĠdÃ¶nÃ¼ÅŁtÃ¼
ĠYasasÄ±
ĠayrÄ±lÄ±k
ĠDanÄ±ÅŁman
ĠtamamlanmasÄ±
ĠfaktÃ¶rler
Can
Ġedebiliyor
iyana
==
Ġekiplerinin
ĠÅŁefkat
ĠHÄ±ristiyan
Ġdown
93
cilere
Ġyollarla
LIÄŀI
ĠNiÄŁde
ĠyÃ¶netimine
eklik
ater
Ġmanken
ĠMaked
ĠkanallarÄ±
Ġduydum
ĠulaÅŁmasÄ±
ĠÃ¼niversitesi
ĠÃ¶zelleÅŁtir
ĠyasaÄŁÄ±
Ġilerleme
Ã¼sÃ¼nden
ĠusulÃ¼
Ġ140
ĠaÄŁzÄ±na
ĠkÃ¶ÅŁesinde
ĠazgÄ±n
KÃ¼ltÃ¼r
rahman
Ġdikkatle
Ġbulmaya
ĠÅŁut
ĠEndeksi
Ġhallerde
ayÄ±ndÄ±r
ĠuÄŁrayan
ĠanÄ±t
ĠyÃ¶netmeli
ĠkullanÄ±cÄ±larÄ±na
ĠyazdÄ±k
ĠFiyatÄ±
Ġinstagram
Ã®r
ĠhÄ±zlÄ±ca
Ġotele
ĠsÃ¼pÃ¼r
Ä°LÄ°ÄŀÄ°
ĠÃ§alÄ±ÅŁanÄ±
ĠAdayÄ±
ĠFlor
ĠdÃ¼s
Kocaeli
ĠoluÅŁacak
PR
Ġdekoratif
dalar
ĠhastasÄ±
Ã¼leb
ï½±ï½±
omo
ĠsaldÄ±rÄ±ya
abÄ±ta
ĠOndan
ĠKÃ¼b
iddeti
ĠOtomotiv
ĠÅŁirketinin
Yok
ĠtelefonlarÄ±
ĠmesleÄŁi
tÄ±ÄŁÄ±na
Ġkapasite
97
ĠKalesi
Ġsevdim
Ġetmelisiniz
ĠBaraj
ĠalanlarÄ±na
Ġdavada
ĠsÃ¼reÃ§leri
ĠDenizi
Ġbiliyorsunuz
ĠAbdur
ĠbÃ¶lgelere
ĠSi
azÄ±t
uval
ĠdeÄŁerinin
ĠkoymuÅŁ
ĠGÃ¶rsel
Ġbirinden
ĠÃĸZEL
Ġiddaa
ASA
ĠAnÄ±t
Ġanma
iyetin
Ġtaleplerini
ĠÃ§Ä±karÄ±ldÄ±
ĠdalÄ±
Ġfonksiyonu
Ġsekilde
ĠAnahtar
boy
abilmeleri
Ä±tÄ±
ĠvÃ¼cutta
Ġizlerken
ĠtadÄ±na
Ãª
Ġyetim
ebildi
nat
kÃ¼ler
ĠTarafÄ±ndan
KA
ehan
Ġorg
Ä±yÄ±l
Ġmahallesi
Ġpanik
Anasayfa
ĠalmalarÄ±
Ġhususlar
ĠsabÄ±rsÄ±z
ĠaramÄ±zda
ĠkulaÄŁ
ĠMarmaris
Ġbekley
ĠKimse
ĠSorularÄ±
ĠkullandÄ±klarÄ±
ĠanlaÅŁmasÄ±
Ġunu
Ġduman
ĠayarlarÄ±
uÅŁak
pon
kadir
Rad
ĠNar
ĠÃ§ekirde
OBB
Ġsahibine
Ġdolab
Ġkaynaklardan
Ġvideolar
klareli
liliÄŁin
Toplum
ĠBakanlÄ±ÄŁÄ±nÄ±n
ĠtaÃ§
Ġyakalamak
Ġatanan
ĠPYD
ĠdurumdadÄ±r
Ġsafh
ĠÃ§Ä±karÄ±r
ĠAkar
ĠDeÄŁiÅŁ
ĠhaklarÄ±na
ĠhayatlarÄ±nÄ±
Ġiltihap
":
Ġgetirme
Ġmerkezde
gÃ¢h
Ġbilgilerine
ĠziyaretÃ§iler
ĠizlenmiÅŁtir
ĠKing
Ġaktivite
Ġorda
ĠtÄ±kanÄ±klÄ±ÄŁÄ±
ĠtarafsÄ±z
ĠsarÄ±ÅŁÄ±n
Ġokuyun
Ġindirme
Ġ98
ĠaydÄ±nlÄ±k
rep
ĠolabildiÄŁince
afÃ¶r
ĠkaÃ§aÄŁÄ±
raft
ĠsaÄŁlÄ±ÄŁÄ±na
Ġmetrekarelik
ĠÃ¼retimini
gÃ¼zel
Ġseferber
Dil
ĠmÃ¼ÅŁterilerin
Ġizliyorsunuz
Ġhissediyorum
Ġkalsiyum
ĠÃĩim
Ġgideb
Ġincelenmesi
lamasÄ±na
ĠAhÅŁap
ĠyapÄ±larÄ±n
Van
oba
enÃ§
Ġbonusu
ĠCe
ĠÄ°ÅŁin
ĠBurdur
ĠmarkalarÄ±n
Ã¢de
ĠOSB
GÃ¼neÅŁ
Ġsonucuna
Ġtasdik
bÃ¶l
ĠDah
ĠTÃľBÄ°TAK
Ġultr
ĠLam
ĠGÃľ
ĠNus
veti
ĠsÃ¼rÃ¼cÃ¼sÃ¼
ĠgÃ¶rÃ¼ntÃ¼leme
Ġkonsantr
Ä±mla
ĠAmeliyat
adok
miÅŁler
Ġyorul
ĠanlamÄ±nÄ±
Ġresimli
ĠayÄ±ran
ĠUygulan
ĠRomanya
NasÄ±l
ĠyÃ¼zÃ¼k
ĠSiirt
Ġesnada
ĠVef
ĠhayvanlarÄ±
ĠMÃ¼dÃ¼rlÃ¼k
ĠÅŁifa
ĠSiv
ĠZam
Ã¢let
Ġformunu
ĠalanlarÄ±nÄ±n
ĠaklÄ±nÄ±za
Ġderse
ĠfiyatlarÄ±nÄ±n
prÃ¼
ĠsÄ±ÄŁÄ±nma
ĠRobert
ĠcÃ¼zdan
ĠinkÃ¢r
ĠÃ¼stlendiÄŁi
ĠgÃ¼ndemde
masÃ½
ĠNis
ĠgerÃ§ekleri
ĠbÃ¶lgesinin
ĠÐ¾
ĠÃ§ilingir
Ġnasil
Ġdiyenler
Ġbulduk
lock
ĠduygularÄ±nÄ±
vivor
Ġrutin
tÄ±lacak
Ġatmaya
ĠFederasyon
ENÄ°
ĠseÃ§ime
ath
å¤©
94
Ġvermiyor
ĠÃ§ekil
ĠuygulamalarÄ±n
Ġedenlerin
Ġetmesine
ĠsonuÃ§lara
Ġseyirci
ĠbankalarÄ±n
ĠistiÅŁ
cript
izde
ĠkonuÅŁmaya
Ġmanzara
Ġ71
ĠSÃ¼m
ĠyapmasÄ±nÄ±
ĠGÃ¼rcistan
Ġgerekenler
Ġeskort
ĠhÃ¢linde
ĠFrag
ĠbaÅŁvurular
ĠFit
pol
emiyoruz
eliyim
ĠcÄ±k
ĠAbdÃ¼lham
Ġedersiniz
ĠDepo
ecilerin
ĠsaÄŁlamÄ±ÅŁ
rab
Ġisteyenlere
ĠHid
ĠYemen
ÅŁta
ĠgerÃ§ekte
ĠES
Ã§ocuk
YakÄ±n
Ġuygulamada
saÄŁlÄ±ÄŁÄ±
ĠÅŁerif
ĠtanÄ±yan
ĠFethiye
bahis
ĠiÅŁlemci
ĠOldu
Ä±lmasÄ±yla
ukatÄ±
ĠSet
ibil
ĠYoutube
Ġlanet
ĠClub
Fransa
lamÄ±ÅŁtÄ±r
ĠokuduÄŁum
Ġpers
Ġyaral
Ġ96
SÄ°AD
ĠÅŁekillerde
Ġrehberlik
Ġhavale
ĠtercÃ¼m
mektedirler
ĠLink
ĠsaÄŁanak
ĠaslÄ±
kapÄ±
ĠdeÄŁerinde
ĠkÄ±zlarÄ±
ĠkiÅŁilerle
Ġhusu
Ġlevh
ĠÃ§arÅŁ
ĠTespit
ĠBaÅŁkanlÄ±ÄŁÄ±na
Ġasil
ĠArÅŁiv
ezon
bilim
ĠYÃ¼zde
Cevap
ĠBina
ĠMalzeme
ĠbayanlarÄ±n
Ġ82
Ġgitmesi
Ġverilerek
Ġanten
naz
ĠTuna
ĠyapÄ±lacaÄŁÄ±nÄ±
ĠÃĩÄ±nar
ĠgÃ¶rebilmek
Ġuzakta
anÄ±zÄ±n
adis
ĠAktif
ĠgÃ¶rkem
ĠÅŀenol
Ġolamaya
redat
sinler
ĠKesinlikle
ometrik
Ġgeliyordu
ĠbaÅŁkasÄ±
lÃ¢k
ĠyayÄ±mlandÄ±
Ġderecesi
ĠkÄ±smÄ±ndan
ĠhavanÄ±n
ĠMakyaj
ĠÃ¶demesi
ĠiÅŁletmelerin
esan
Ġkutlu
ĠkaydÄ±r
Ġ1991
ĠgÃ¼venc
Ġgerekebilir
edisi
Ä±mÄ±nÄ±
ĠEnver
ĠgÃ¶rÃ¼nÃ¼ÅŁ
Ġdetaylara
ĠBut
ĠBig
ĠseÃ§me
ĠÃ¶ÄŁrenin
Ġfaaliyetlerinin
ĠAÅŁaÄŁÄ±da
ĠUst
Ġmalzemelerin
ĠbaÅŁlayÄ±n
ĠSanÄ±rÄ±m
ĠaralÄ±ksÄ±z
Ġsorgulan
Ġkomedi
ĠÃ¶ÄŁrendik
pati
cher
ĠYÃ¼rÃ¼t
age
tÃ½r
ĠÃ§Ä±karacak
ĠÃ§orap
yetler
Ġbiter
Ġtedirgin
2003
Ġetmekle
ibr
ĠetmiÅŁlerdir
Yen
Ġbire
ĠKale
ĠTir
Ä°lÃ§
ansta
Hakk
edecek
ĠdÄ±ÅŁa
Ġsebepten
tÃ¼m
Ġmuhatap
Ġbirincisi
Hat
ĠgeÃ§miÅŁe
Ġsuyla
ĠGi
ody
Ã»n
Ġgezegen
ĠbileÅŁen
ORU
ĠyarÄ±sÄ±nÄ±
cÄ±lara
ĠtoplamÄ±
ĠalgÄ±la
Ġmart
uvarÄ±
Ġlah
ĠEsad
ĠTef
Ġdakikalar
rolik
Ġaletleri
Ġ88
ĠMana
Ġtanr
uli
ĠMuz
ĠkaptÄ±r
ĠdÃ¼ÅŁÃ¼nme
Ä±yo
ĠyerleÅŁtirme
ĠantrenÃ¶r
ataÅŁ
Te
ĠKÃ¶pek
ĠyazÄ±mda
Ġhibe
ÑģÑĤ
cinin
ĠÃ¶zeti
Ġ1950
anne
Ġturlar
Ġbunda
DS
get
ĠgÃ¶nderme
Ger
Ġdolgu
Ġaraca
eyelim
ĠØ§ÙĦ
Hava
Ġazami
Ġfut
Ġmerkezinin
meyle
ĠLÃ¼bnan
ĠmÃ¼jde
otal
Ãĸnce
ĠkÄ±ÅŁÄ±n
ĠbÄ±rakÄ±ldÄ±
ĠkazandÄ±ran
ĠgolÃ¼
ĠSemin
Ġfare
Facebook
Ġtemmuz
eyeceÄŁim
ĠMontaj
Ġbeceri
Ġsanatsal
ĠÃ¶nlenmesi
Åŀehir
Ġbeklentileri
Ìĩ
ĠDiv
emezsiniz
ĠateÅŁte
ĠyansÄ±m
Ġdeki
amazsÄ±nÄ±z
Ġsindirim
ĠYukarÄ±da
Ġmiydi
ĠgerÃ§ekleÅŁir
ĠPeygamberimiz
Ð°n
ĠAmaÃ§lÄ±
ĠKazakistan
Ġ>>
Ġsilindir
ĠgÃ¶revlerini
ĠanlamsÄ±z
Am
ĠBaÅŁta
Ġziyarete
ĠOyunlar
ĠYouTube
ĠÃ¶rtÃ¼
ĠgerÃ§ekleÅŁtirebilirsiniz
Ġkabiliyet
ĠseÃ§iminde
ĠÃ¶ÄŁrenciye
ĠiktidarÄ±n
Ġfikirler
ĠBÃ¶lgesel
atal
ĠoÄŁul
ĠTeÃ¢lÃ¢
ĠÃ§ikolat
dÃ¼ÅŁ
larÄ±ma
ĠortalamasÄ±
Fil
Ġ170
Ã¶mer
Ġinternete
ĠÃ¶nerisi
ĠEndÃ¼striyel
ĠÄ°K
ĠBirimi
ĠBuraya
eyeceÄŁi
egas
ĠSahil
ĠyazÄ±sÄ±nda
ĠPTT
ĠyoÄŁur
Ġmav
ĠiÃ§eriyor
ĠsorunlarÄ±na
ĠkarÅŁÄ±layacak
Ġumur
elekt
Ġseviyesini
Ġbirbiriyle
Ġhayret
irsiniz
ĠdosyasÄ±nÄ±
ladÄ±lar
ĠSarÄ±yer
inek
Ġkonus
ĠsevdiÄŁiniz
Ġtahakk
Anne
asu
ĠbakÄ±ma
osh
ĠKAP
ĠLeyla
ĠaÃ§Ä±lÄ±yor
ĠRic
lenirken
ĠgÃ¼Ã§ler
Ġgazi
Sakarya
Ġhedefler
Ġkilogram
ĠhazÄ±rlanÄ±r
ĠeÅŁitlik
ĠmensuplarÄ±
?,
madÄ±k
ĠuÃ§aÄŁÄ±
Ġgelinlik
ĠgÃ¶rmezden
ĠkÄ±lÄ±f
Kab
ĠmÃ¼ttefik
Ġodaya
Ġliderlik
ĠYanlÄ±ÅŁ
ĠeÅŁim
ĠgeÃ§miÅŁtir
Ġcildin
Ġhocalar
lenip
ĠÃľmraniye
Ġisimlerinden
ĠyerleÅŁik
Ä±zda
ĠTrav
ĠfÄ±krasÄ±nÄ±n
ĠaÃ§Ä±klamasÄ±nÄ±
ĠLG
ĠyÃ¶resel
Ġsulan
Bilgisayar
ĠtaÅŁeron
ptom
ĠKÄ±yasla
Ġverilmesini
Selam
Ġrengini
BÃ¶lg
rusu
Ã§Ä±larÄ±n
Ġtonu
Ġindi
ĠRahat
Ġboyama
ĠiÅŁÃ§ilik
Ġmakalemizde
ĠYÃĸK
Ġmacera
ĠhakkÄ±nÄ±n
ĠelemanÄ±
ĠsaldÄ±rÄ±da
Ġza
Ġrahim
ĠkarÅŁÄ±sÄ±ndaki
Ex
Ġgrupta
ĠkapsamÄ±
Apple
III
amayacaÄŁÄ±
amÄ±yoruz
ĠNehri
Ġolabilirler
Ġyolunun
ĠiÃ§mek
ĠHaft
liÄŁimiz
TerÃ¶r
ĠStu
HÃ¼kÃ¼m
neti
Ġcildi
Ġdinlendir
ĠFelsef
Ġilgilenen
cy
Ġkost
Ġtabel
Ġaktarmak
Ġvilla
ĠgeÃ§tikten
Ġmiyiz
ĠÃĸcalan
ĠMU
ulum
arkadaÅŁ
Windows
ĠApp
ĠMeÅŁ
ĠmÃ¼cadeleyi
Ġkurmaya
ĠFormu
ĠsayÄ±sal
besi
Ġayakkab
dÄ±ÄŁÄ±nÄ±zÄ±
Ġdesteklemek
ĠGÃ¼
ĠuygulamalÄ±
Ġ1500
edilen
ĠÅŀÃ¼krÃ¼
Ġdergisi
Ġdinleme
TER
ĠBaÅŁlangÄ±Ã§
lerinizle
ĠtesettÃ¼r
ĠÃ¶lÃ¼mÃ¼ne
ĠdÃ¶ng
sor
ĠelveriÅŁli
ĠbahÃ§esi
Ġeng
html
ĠMealleri
ĠÄ°zzet
Ġkategoride
ĠkÄ±sÄ±r
ĠDetaylÄ±
ĠdeÄŁerlendirmesi
ĠkÄ±rÄ±l
Ġdizisinin
Ġbelgelen
ĠEvrensel
Den
ĠkontrollÃ¼
ado
Ġkarbonhidrat
ĠBarcelona
ĠÃ¶dÃ¼lÃ¼nÃ¼
Ġduymak
ace
Ġdondurma
eyzaj
Ġsiteyi
ĠÃ§erÃ§eve
ĠyÃ¶nettiÄŁi
ĠMevlana
icrosoft
nal
Ġcumartesi
ĠbelirtilmiÅŁtir
ĠdÃ¶nÃ¼ÅŁÃ¼
Ġolabilece
ĠAlÄ±nan
Ġirtibat
ĠInternational
ĠÄ°zlediÄŁiniz
Ġgeldiler
Ġmemlek
Ġakar
iyes
ĠEngelliler
ĠvarmÄ±
ĠkullanÄ±lmaya
ĠHavaalanÄ±
ĠyaklaÅŁan
ĠÄ°nc
Ġifadeler
ALAR
ĠvahÅŁi
Ġ2023
urucu
ĠbuluÅŁma
Ãĩanakkale
ĠgeleceÄŁin
Ġincelemelerde
Ġfedakar
Ġkatalog
Ġelimden
aton
kele
Tah
Dar
Ã¢z
hil
Ġotorit
ĠsÃ¼rÃ¼l
ĠarmaÄŁan
Ġ86
Ġsabun
lamayan
iste
alari
ĠPaz
KÃ¶y
Art
Ġsahnede
Ġsandalye
ĠÄ°STANBUL
Ġistekli
ĠdoÄŁanÄ±n
ĠKÄ±lav
dad
Ġsular
ĠdÃ¼ÅŁÃ¼nÃ¼yorsanÄ±z
Ġokuyor
cÄ±ÄŁ
ĠeÅŁinin
ĠseÃ§ip
ĠsÃ¶yle
ĠMS
siyer
Ġoynayacak
ĠTopluluÄŁu
Ġellerinden
Ġduyuyor
Kuzey
Ġintikal
ĠRady
Ġkesimi
ĠgeliÅŁtiren
ĠsatÄ±ÅŁlarÄ±
ĠbÃ¶ylesine
stein
beÅŁ
Ġdille
ĠTÃ¼ketici
Ġgidermek
ĠTart
pres
Ġdenemek
Ġkazanarak
ĠNÃ¼fus
ĠsÃ¼rat
ĠVER
Ġandroid
Ġetmemiz
aÄŁaÃ§
Ġseviyesinin
Ġkentte
ĠKilisesi
dÃ¼ler
Ġtoplamak
ĠsÄ±ralar
ĠDeÄŁil
ĠCemiyeti
ĠÃĸÄŁretmenliÄŁi
ĠaygÄ±t
Ġmul
ĠdÄ±r
ĠMuÅŁ
Ġkanama
ĠKorun
ĠmÃ¼saade
Ġabdest
UV
Ġdez
ĠDivan
Ġsabaha
Ġkahverengi
ĠVel
indek
lemi
ĠhatlarÄ±
ĠkolaylÄ±ÄŁÄ±
ĠÅŀiddet
ĠÄ°li
ĠBirim
ĠyÃ¼kÃ¼mlÃ¼l
lekli
Ġrus
ĠgiriÅŁimci
Ġzorunluluk
ĠDip
ĠsÃ¶yleniyor
ĠpeÅŁinden
Ġotomobilin
Ġarar
ĠKendisine
ĠihracatÄ±
Ġsiber
ĠmÃ¼zisyen
ĠHur
ĠAfyonkarahisar
ĠAÃ§Ä±klamasÄ±
ĠkalÄ±b
DeÄŁiÅŁik
ĠoluÅŁmuÅŁ
Ġsust
Ġoynamaya
gue
gimiz
ĠarttÄ±ÄŁÄ±
ĠGrafik
ĠBaÅŁarÄ±lÄ±
ĠFonu
ĠtÃ¼z
ĠaltÄ±ndadÄ±r
Ġdom
ĠBaÅŁsavcÄ±lÄ±ÄŁÄ±
ransÄ±z
Ġdersin
zade
ĠbaÅŁlayabilirsiniz
ĠAtilla
ĠRos
Ġyapt
ĠanlaÅŁmaya
ĠÃ¶denen
ĠÃ§Ä±karmaya
Ġnazaran
yr
Ġbutik
Irak
mama
Ġtelefonlar
ĠYÃĸNET
ĠYiÄŁit
ĠvereceÄŁim
Ġneyin
ĠErmenistan
Edinilen
ĠÃ¶neme
][
ĠgÃ¶revler
ĠgereÃ§
ĠgerekÃ§e
ĠbaktÄ±
ĠSw
ĠYPG
Ġdere
ĠDÃ¶k
ĠÃ¼Ã§te
ĠokullarÄ±n
Ġyolsuzluk
ĠstandartlarÄ±
Ġhaklar
Ġnev
Ġimzalanan
Ġrok
Ġekibinin
OÄŁ
Ġkuyu
Ġsuik
isyenler
ĠÃ¼lkesinde
ĠbasÄ±na
ĠÅŁimdiki
onal
lasÄ±n
mÄ±zÄ±lÄ±
Ġfizy
Ġgidiyoruz
elerce
ĠAmbalaj
varÄ±
ĠSik
Ġtabl
ĠEskiden
ĠpaylaÅŁtÄ±ÄŁ
ĠsonuÃ§larÄ±nÄ±n
Ġruhunu
Ġmetot
lemeler
ĠyayÄ±nÄ±
Ġedinmek
ĠÃ§oÄŁunluk
ĠyaÅŁadÄ±klarÄ±nÄ±
ĠTM
Ġkuram
ĠLu
ĠsÃ¼tÃ¼n
ĠhatalarÄ±
ĠaÃ§Ä±kÃ§asÄ±
ĠkoÅŁt
Ġasist
ĠkÄ±dem
ĠÃ¼stesinden
asÄ±ya
ĠanlatÄ±lan
Ef
Ã½ndan
ersem
ĠÃ¶ÄŁretmenleri
ĠOluÅŁtur
Ġbursa
ĠÃĩeÅŁme
Ġskan
ĠtanÄ±dÄ±k
Ġayna
Ġbilinci
atya
Ġsadakat
ĠtutarlÄ±
estel
Ġkutlama
Ġprestij
ĠcanÄ±
ĠSovyet
ĠbeÄŁendim
Ġbahsetmek
ĠyÃ¶ntemle
ĠparasÄ±nÄ±
Ġsn
ĠTuzla
Ġarkadan
ĠAlÄ±n
ĠHaritasÄ±
ĠMAK
mamaktadÄ±r
ĠkurulduÄŁu
ĠhazÄ±rlama
Ġhikayeleri
ĠOzan
ĠÅŁiiri
imarka
ĠDEAÅŀ
Ġtedbirleri
Sey
ĠBedava
ĠstÃ¼dyo
ĠyapÄ±mÄ±nda
yacaksÄ±nÄ±z
ĠsanatÃ§Ä±sÄ±
å½
Ġidrak
leksi
Ġsesle
gÃ¼cÃ¼
ĠDublaj
odyum
ĠON
cis
Ġparaya
Ġkafe
Ġgirmeden
Ġideolojik
ĠbildiÄŁim
Ġevlerine
Ġkazanacak
ĠErdal
acÄ±nÄ±n
Ġmetni
ĠarkadaÅŁÄ±mÄ±z
Ġhedefe
umdan
ĠtaÅŁÄ±nmasÄ±
Ġokyan
mazon
ĠLojistik
ĠÅŀÃ¶yle
ĠÄ°kin
ĠÃ¶nÃ¼nden
dex
ĠbiÃ§iminde
ĠÃĩukurova
Ġerkeklere
Ġ2020
ĠPower
ĠYaÅŁlÄ±
ĠeÄŁitimine
Ġyed
ĠolmamÄ±ÅŁ
ĠyapmÄ±yor
ĠnÃ¼fusun
.ÂĶ
Ä±cÄ±lar
Ġahlaki
Ġdizel
ĠÐ¿
ĠyapÄ±mcÄ±
ĠÅŁampiyonu
kiralik
ĠbÃ¶ylesi
Ġturk
ĠkampanyalarÄ±
ĠÃ§Ä±kmasÄ±na
erry
Ġdikkatleri
ĠÃ¼lkelerinin
Ġistifade
ĠÃ¶rgÃ¼tÃ¼nÃ¼n
Ġdengel
ĠbÄ±rakÄ±lan
ilmeleri
Ġpolisi
ĠOfisi
Ġbahan
ĠplanlÄ±
ĠzÄ±t
ĠTransfer
ĠkullanÄ±ldÄ±
ĠvinÃ§
Ġuncu
Ġpe
ĠGÃ¼z
ĠdokÃ¼man
dÃ½r
Ġrest
ilince
hop
Ġkrom
Ġmodu
ĠArjant
Ġsevgisi
IMI
Ġtehlikesi
ĠKurumlarÄ±
ĠEgemen
ĠBartÄ±n
sche
ĠdÃ¼zeltme
ĠkapÄ±sÄ±nÄ±
ĠbulacaksÄ±nÄ±z
ĠcihazlarÄ±n
ĠiÅŁlevi
Ġerkeklerde
Ã¼lya
ĠBeh
ĠAksu
ĠaÃ§Ä±klÄ±k
Ġkolesterol
ĠkÄ±lÄ±Ã§
ĠÃĸÄŀ
ĠBaÄŁlÄ±
ĠokullarÄ±
ĠbÃ¶lÃ¼mler
ĠGÃ¼nleri
Ġmutab
ĠDÃ¶nÃ¼ÅŁÃ¼m
ĠAvrupalÄ±
Ġhavayolu
Ġsantim
ĠcevaplarÄ±
Gerek
Ġoturdu
DI
ĠiÃ¾
abinde
ĠtÃ¢
ĠyÃ¼rÃ¼rlÃ¼k
ĠzamanlarÄ±n
GeÃ§miÅŁ
ĠamacÄ±na
ĠCadde
Ġapar
ĠsÄ±nÄ±rlandÄ±r
ĠkarÅŁÄ±lÄ±yor
Ġerdir
ĠCihan
ĠuyguladÄ±ÄŁÄ±
Com
ĠMERKEZ
ĠÃ¼lkelerine
ĠOdalarÄ±
ĠsipariÅŁi
meyeceÄŁini
Ġendeks
ĠfÄ±rtÄ±n
ĠiÅŁleyiÅŁ
ĠtamamÄ±nÄ±n
oku
ĠGR
ĠFilmin
mamÄ±
manlar
ĠHÃ¼km
ĠkÄ±yafetleri
Ã§ik
ĠDevletin
Ġfeda
Ġtaks
Ġtemelini
:))
ĠSabancÄ±
ToplantÄ±
hel
ĠÃ§aplÄ±
ĠkazanÄ±yor
ĠyaratÄ±yor
ladÄ±ÄŁÄ±nÄ±z
Ġpud
ĠdÃ¼ÅŁÃ¼nÃ¼len
Aile
osit
ĠgirmiÅŁtir
ĠTeÅŁkilat
Ġrejimi
ĠCerrahi
ĠYerli
BS
mayarak
Ġbilirsiniz
ĠdonanÄ±mlÄ±
ĠTeknolojisi
ĠSub
mayÄ±z
ĠGÃ¶ÄŁÃ¼s
Ġkadrosuna
emeyeceÄŁi
orex
ĠDanÄ±ÅŁtay
ĠgeÃ§irmiÅŁ
ĠbÃ¶lÃ¼mden
ĠMevlÃ¼t
Ġalabilmek
GC
ĠPi
ĠalÄ±nÄ±yor
ĠseÃ§imde
Ġteyit
ĠAndre
ĠKÃ¶tÃ¼
ĠÃ§alan
ĠYarÄ±n
ĠSarÄ±k
ĠKÄ±rÅŁehir
oÄŁullarÄ±
ĠÃ¶zelliklerinden
ALIK
Ġtelefonda
ĠgÃ¶sterisi
ĠDÃ¼ÅŁÃ¼k
ĠHayatÄ±
Ġistinaden
Ġzenginlik
ĠmayÄ±s
Ã¼ydÃ¼
ĠÃľyeleri
ĠAkÄ±ncÄ±
ĠalÄ±ntÄ±
Ġihtimalle
ĠÃ¶d
Ġortal
ĠiÅŁlere
ĠgeÃ§ersiz
Ġtekni
ĠAkhisar
Ġmuamel
Ġgecelik
ĠDaÄŁÄ±tÄ±m
ĠyastÄ±k
ĠpaydaÅŁ
asyonlarÄ±
ĠStore
uta
ilmesinden
Ġkaptan
ĠSing
ĠÃ§Ä±kmasÄ±nÄ±
ĠÄ°ÅŁlemleri
Ġgrubuna
Ġgetirilir
asan
ĠdemiÅŁtir
lywood
ĠAcaba
Ġkeyifle
ĠÃ¼retime
Ġeklent
ĠbatÄ±r
Ġbilgilerinin
Ã¼d
ĠAnlaÅŁ
ĠyatÄ±rÄ±mÄ±
Ġellerini
riz
Ġjener
Ġbittikten
Ġfesh
hum
ĠsaygÄ±lÄ±
Ġevlerinde
ĠyaparÄ±m
ĠOv
91
ĠolalÄ±m
ĠkÃ¼ltÃ¼rÃ¼nÃ¼
ĠÃ¼Ã§lÃ¼
ĠaldÄ±klarÄ±nÄ±
ĠarÄ±yorsanÄ±z
Ġnedense
ĠDerne
æľ
Ġizlemeye
Ġmillete
ĠÃ§Ä±kmÄ±ÅŁtÄ±
Ä±mÄ±zdaki
ĠgeliÅŁmekte
duat
Ġhaberimizde
ÃĸÄŁretmen
ĠadÄ±mlarla
hard
enault
ardÄ±
ĠasÄ±
Ġdevasa
iyeleri
Ġnormalde
ĠgerÃ§eÄŁe
Ġetapta
ĠsaÄŁlamasÄ±
ĠKullanÄ±mÄ±
Proj
ĠÃĩub
ĠÅŀener
Ġelektro
ĠAnaliz
Ġfasul
ĠgÃ¼Ã§lerinin
ĠGibi
Ã½s
Beni
ĠyayÄ±na
ĠÃ¼stlen
tah
Ġseslen
Ġdilini
Ġsebebiyet
ĠdokunuÅŁ
Ġbeklentisi
talyaspor
Ġkub
ĠkoÅŁullarÄ±na
Ġpolise
Ġdamga
ags
Ġtemenni
ĠsÄ±nÄ±rlarÄ±nÄ±
Ġeklenir
ĠburayÄ±
Ġprojesinde
Ġindirebilirsiniz
ĠTamamen
ĠbulunduÄŁunuz
ĠCenter
ĠBahÃ§elievler
Ġserisinin
ĠAksoy
Ġgizemli
dÄ±ma
ĠEmekli
Ġsoruyor
Ġkrediler
ĠSaadet
ĠÃĩap
AMA
ĠayarÄ±
ĠHamdi
Ġdoyur
epsiyon
äº
ĠyazÄ±m
fettiÅŁ
Ġcel
elikli
ĠhÃ¼creleri
ĠmÃ¼cadeleye
ĠDirektÃ¶r
ĠWal
ĠÅŁab
ĠalÄ±ndÄ±ÄŁÄ±nÄ±
latmak
ĠgÃ¶zetim
Ġsitemize
ws
ĠYasa
ĠZengin
ĠyaÅŁadÄ±ÄŁÄ±nÄ±
Sig
ĠyazÄ±yorum
Ġgizle
ĠyapÄ±lmak
GEB
uni
Ġoluyorum
Ġpartisinin
ĠGÃ¼ndÃ¼z
ĠKadar
Alt
ĠBeyin
Ġetmeli
ĠdÃ¼nyadan
Ġazar
Ã¢v
ĠbÃ¶ylelikle
ĠMehmed
ĠyakÄ±nÄ±nda
senin
ĠiÅŁlemin
ĠayÄ±ndan
ĠbÃ¼yÃ¼mesi
Kent
ĠIN
ĠNorveÃ§
Ġhol
Ä°m
Ġverimlilik
ĠbildiÄŁiniz
ĠCafe
Ġamer
ĠFre
DÄ°
tap
ĠdÃ¼zenlemek
ĠMeryem
leyi
ĠOscar
Ġpasif
Le
Saray
akil
ĠyatÄ±rma
Ġsorul
Ġetkiliyor
enen
ĠAÃĩ
ĠPlanlama
SEL
ĠmÃ¼hÃ¼r
ĠyÃ¼c
ĠfirmalarÄ±nÄ±n
Ġyeteri
Ġevinizde
ĠBizde
ĠsaÄŁlamaktÄ±r
aslan
izle
Ġsitelerinin
Ġistekleri
ĠkatÄ±na
ĠAyÄ±
ĠiyileÅŁme
iteratÃ¼r
ĠiÃ§eride
Ġadmin
ĠkapÄ±larÄ±
rÄ±n
Kara
Ġhizmetlerinden
Ġhafiflet
ĠterÃ¶rle
ĠuzunluÄŁunda
ĠBenzer
Ġbilemiyorum
Ġfiili
elenmiÅŁ
Ã¼yordu
Ġpolitikalar
ĠAbbas
ĠKoordinatÃ¶rÃ¼
ĠUludaÄŁ
Hocam
ansÄ±n
ĠgeliÅŁimine
rade
ĠyÃ¶netimindeki
ekir
Ġdezavantaj
ozof
Ġfiyatlara
ĠgÃ¶revinden
ĠdoÄŁmuÅŁ
Ġiptali
Ġkarayolu
ĠyÃ¼rÃ¼me
Ġbildi
mac
Ġdenetimi
ĠÃĩankÄ±rÄ±
DoÄŁu
liÄŁindeki
Ġ84
Ġfiltre
yÃ¼r
Ġoyunculuk
ĠilacÄ±
ĠKalk
ĠTÄ±kanÄ±k
lular
Lig
unk
ĠgittiÄŁini
ĠiÅŁlerinde
ote
Ġdist
DAN
iÃ§e
ĠGur
ĠBitlis
ĠkÄ±sÄ±mda
ĠdeÄŁerlendirdi
Ġesmer
ake
Ġkirlet
Ġbaska
ĠsÃ¶ylenebilir
ĠiddiasÄ±
ĠoluÅŁturulmuÅŁ
Ġbelirleyici
ĠÄ°cra
TÃ¼rkÃ§e
ĠromanÄ±
ĠekipmanlarÄ±
ĠedilmiÅŁti
ĠsaldÄ±rÄ±sÄ±
ude
Ġ125
ĠfÄ±rsatlar
Ġkoridor
ĠhazÄ±rlayan
ĠSonraki
ĠLan
ĠTOKÄ°
Ġfaaliyeti
ĠgÃ¼zellikleri
ĠilaÃ§larÄ±
Ġkonv
Ġney
ĠhÃ¼rriyet
ÄŁdÄ±r
plant
Ġkiz
Ġtrilyon
ĠMerkezinde
ĠBireysel
ĠsularÄ±
IFA
ĠZih
Ãľcret
ebiliyoruz
ĠsÄ±rasÄ±
Ġsac
Ġcilde
ramv
Ġeskisi
ĠpenaltÄ±
HD
tÃ¼n
ĠÃ§atÄ±sÄ±
ĠgÃ¶rdÃ¼ÄŁÃ¼nÃ¼
ĠMÄ°T
ĠÅŀiÅŁ
ardan
Ġtedaviye
ispor
ĠGÃ¶ztepe
Ġduyuyoruz
ĠpuanlarÄ±
ĠmedyanÄ±n
Ġkuzeyinde
ĠBurasÄ±
ĠKÃ¼ltÃ¼rÃ¼
Ġoral
olojinin
ebiliyorsunuz
ins
nÃ¢
Ġbesinler
ĠÅŁÃ¼kran
ĠÃ§Ä±kacaktÄ±r
bÃ¼l
ĠhafÄ±za
ĠBorsa
ĠÃĸzlem
ĠgÃ¶rÃ¼nÃ¼me
Ġfavor
OV
ĠDÃ¼zenleme
ĠhesaplarÄ±
indir
Ġ720
ĠYapÄ±lacak
Ner
ĠGetir
Ġbilgisine
obe
ĠbulaÅŁÄ±k
duÄŁundan
ĠMacaristan
ĠmolekÃ¼l
ĠÃĸÄŁretmenleri
izza
ĠLÃ¼t
Ġverebilecek
ĠdaÄŁÄ±lÄ±mÄ±
ĠhÃ¼kÃ¼metinin
Ġplat
Ġdedikodu
ĠHalep
Mem
Ä±yordum
Ġefekt
ĠMedi
ĠÃ¶le
ĠolanaklarÄ±
ĠWilliam
ĠgÃ¶rÃ¼ÅŁtÃ¼
ĠkÃ¼ltÃ¼rÃ¼nÃ¼n
ĠKaÃ§ak
ĠyaratÄ±r
Ġfilmini
Ġ94
ĠpazarÄ±nda
DU
Ġzer
ĠIsÄ±
TAN
Ġbagaj
ĠAnma
ĠkÃ¶tÃ¼ye
Ġverirler
Ġcer
ĠÄ°zin
Ġtahamm
ĠyÃ¼ksekÃ¶ÄŁretim
ĠaÃ§Ä±ÄŁÄ±
ĠbaÅŁlayÄ±nca
ĠÅŁiddeti
Ġsunarak
Ġmaksad
ĠyetiÅŁtirmek
ĠHaberleÅŁme
ĠgÄ±dalar
ĠbÃ¼yÃ¼ktÃ¼r
Ã¢ye
Bilin
ĠÃ§arptÄ±r
ĠgÃ¶rÃ¼ÅŁmeleri
Ġbenzin
Ġ87
Ġfinale
ĠÃ¼rk
ĠperformansÄ±nÄ±
opik
ĠAntren
eÄŁinden
Ġkomutan
ĠbaÅŁlanan
Dur
laÅŁa
Ġilgilidir
ÃľY
Ġkuruma
icili
ayabilirsiniz
ĠkapÄ±da
ies
Ġmikrop
affer
ayiÅŁ
ĠNazÄ±m
ĠÃ¶zerk
ifor
ĠKuv
amazlar
Ġsendika
\'
ĠtrafiÄŁe
Ä±klarÄ±
ĠyÃ¶ne
ĠdoÄŁrudur
ĠtecrÃ¼besi
PKK
ĠkÃ¼tl
Ġtopraklarda
dikÃ§e
ĠoluÅŁabilecek
Ġziyarette
ĠÄ°nsanÄ±n
ĠSÃ¼nnet
ĠyayÄ±nda
ĠtaÅŁÄ±macÄ±lÄ±ÄŁÄ±
ĠdÃ¶vÃ¼ÅŁ
FirmamÄ±z
yÄ±ldÄ±z
Ġyanda
Ġatlet
isas
ĠSosy
ream
Ã¢tÄ±
Ġonda
ebap
ĠpiyasasÄ±
Ġettiren
ilmemesi
Ġderseniz
ĠsanatÃ§Ä±nÄ±n
ĠDeÄŁiÅŁtir
ĠMercedes
ĠsalÄ±n
mayacaÄŁÄ±nÄ±
Ġemret
HazÄ±r
Ġaramaya
ĠÄ±slah
Ġdergiler
Ġnoktalara
ĠALLAH
ĠoluÅŁumu
Ġsesler
leÅŁti
astr
Ġosman
Ġismin
ĠÃ¶neririm
beli
ĠsÄ±navÄ±na
DÄ°R
Mobil
Ġligin
ĠInter
ĠFuat
Ġedilmeli
ĠDekorasyon
ĠKaynaklar
ĠbelirlediÄŁi
DO
ĠkÄ±lmak
ginin
ĠyarÄ±ÅŁmasÄ±
ĠRefer
eceklerini
ĠÃ§en
Ġalabilecek
ĠolmayacaÄŁÄ±nÄ±
Ġmola
ĠOkan
ĠbitmiÅŁ
Ġkonulardan
Ġalmayan
ĠoranÄ±n
Ġfal
ĠyapmÄ±ÅŁtÄ±
EskiÅŁehir
ĠkÄ±vr
Ġsokaklarda
ĠamacÄ±mÄ±z
ĠmontajÄ±
Demir
ĠÃ§arptÄ±
ĠiddialarÄ±
MI
ĠbalÄ±ÄŁÄ±
gerÃ§
Ġsimgesi
gec
oÄŁol
ĠartmaktadÄ±r
Pazar
nur
Ġyerlerinden
Ġaskerler
ĠYarÄ±m
Ã³
Ġ83
Ä°nÅŁ
Ġotelin
ĠMÃ¼ziÄŁi
Ġbekleme
bie
ĠalÄ±rlar
ĠuygulamasÄ±na
edan
Ġenter
Ġduyuyorum
ĠulaÅŁÄ±r
Ġolsam
Ġsonucunu
ĠhafifÃ§e
ĠtraktÃ¶r
ĠKÄ±sacasÄ±
ĠHatice
lid
ĠaraÃ§larÄ±nÄ±n
Proje
kÄ±z
ĠBus
Ġediyorsunuz
Bunlar
Ġyakalama
ĠKalem
etini
ĠÅŁiirler
Ã¾tir
ĠÃ§oklu
abilirsin
dÄ±rlar
ĠRod
ĠrÃ¼t
ĠiÃ§erdiÄŁi
ĠhastalÄ±ÄŁa
muÅŁtum
ĠlÃ¼t
AÅŁk
ĠYor
DevamÄ±nÄ±
Ġbilgilerinizi
ĠKoltuk
ĠolmaktÄ±r
ĠKonuk
ENT
Ġbasar
ĠplanlÄ±yor
ĠalacaktÄ±r
ĠSk
Ġsellem
Ġhastaya
keli
lÃ¶r
Ġdevri
LAMA
dÄ±ÄŁÄ±mÄ±zda
Ġmant
Ġkalmayacak
ĠÃ¼retiminin
FarklÄ±
ĠsaÄŁlanmÄ±ÅŁ
Ġhikayesini
ĠnÃ¼s
nit
Ġkontenjan
ĠulaÅŁtÄ±ÄŁÄ±
Ġband
ĠÃ§Ã¶zÃ¼nÃ¼rlÃ¼k
Ġ--
ĠNote
ĠkazasÄ±nda
fun
ÅŁtan
Ġgelene
ĠbÃ¼lten
Ġenstr
ĠbaÅŁvuran
ĠÃ§arpan
Ġnemli
Ġhuz
ĠGazeteciler
obel
deÄŁ
ĠGeÃ§iÅŁ
avul
ĠyÃ¶netmeni
lamaktadÄ±r
ĠtamamlanmÄ±ÅŁ
ĠkullanÄ±cÄ±larÄ±nÄ±n
ĠOyn
Ã¼ste
ĠSonrasÄ±
Ġask
Ġilerliyor
Sa
itabanÄ±
YaÄŁ
ĠUygulamalarÄ±
Ġnazik
Ġtitizlikle
ĠKendini
Ġhedefimiz
ĠMaster
Ġ1989
GÃ¼nde
?âĢĻ
Ã½lÃ½
ulh
Ġkorsan
GM
malarÄ±ndan
iciliÄŁi
ĠkontÃ¶r
ĠkazanmÄ±ÅŁtÄ±r
ĠtopraklarÄ±
ĠÃ§abasÄ±
ĠHareketi
ĠÃ¶zgÃ¼ven
ĠprofesÃ¶r
Ġsaate
ĠHuzur
ĠdavranÄ±ÅŁlar
ĠRAM
formasyon
idat
duy
ĠHamil
ĠBurslu
ĠGeneral
ĠTakv
ĠArasÄ±nda
yok
Ġseferde
mezler
ĠbÃ¶lÃ¼me
Ġtenis
ĠsunulmasÄ±
aÃ§lÄ±
ĠdÃ¼zensiz
Ġdikey
cÄ±oÄŁlu
Ġdilinde
ĠalalÄ±m
Sizin
ĠkarÅŁÄ±layan
Ã¶zÃ¼
ĠkullanÄ±cÄ±ya
ĠToy
ĠhÄ±rs
ĠRabbim
efendi
ĠHotels
ĠhÃ¼cum
Ġsorusunu
ĠulaÅŁÄ±labilir
Ġmezuniyet
tadir
Ġtamamlamak
Ġhediyesi
ĠbinasÄ±nda
icilik
ĠÃ§alÄ±ÅŁmalarÄ±mÄ±z
Ġ93
ĠWest
ĠziyaretÃ§
ĠÃ¶zÃ¼
ĠEnerj
ĠtakÄ±mlar
Ġalfab
KÄ±sa
ĠgeliÅŁtirerek
ĠyaygÄ±nlaÅŁtÄ±r
ĠtaÅŁÄ±yÄ±cÄ±
ĠÃĩaÄŁdaÅŁ
Ġraporda
aks
ĠtÃ¼mÃ¼yle
Vat
ildiÄŁiniz
ceÄŁiniz
ĠPortalÄ±
ĠalÄ±nmasÄ±nÄ±
Ġparagraf
ĠkamerasÄ±
ĠÄ±sÄ±nma
ikayet
ĠBorsasÄ±
Ġefendim
ĠÄ°Ã§i
iyorsun
ture
Ġaslan
ĠsorunlarÄ±nÄ±n
ĠÃ¶lÃ§Ã¼t
ĠTeÅŁekkÃ¼rler
Ġkapatma
iyeye
ĠalÄ±nmalÄ±dÄ±r
ĠkaldÄ±rma
ĠsembolÃ¼
ĠSempozyumu
til
tions
SÃ¼per
Ġzalim
yali
ĠÃ¶zdeÅŁ
ĠprogramlarÄ±na
Ġ97
AYA
Ġhaftalarda
lut
Ġtahrip
Ġcenazesi
Ġolmakta
lÃ¼ler
Ġ750
ĠgeÃ§irilmesi
Ġuzunluk
Ġyerinin
ĠgÃ¶rebilir
ĠkaynaklarÄ±nÄ±n
ĠgÃ¶rmedim
Ġyollardan
Ġsakinleri
Kor
OSGEB
ĠDeprem
nca
ĠilÃ§esindeki
Bin
ĠtamamlamÄ±ÅŁ
ĠedebileceÄŁiniz
ĠsayfalarÄ±
ĠeriÅŁimi
Ġharici
ĠgÃ¶zaltÄ±
ĠProtokol
ĠEki
ĠOkuma
ĠhaykÄ±r
ĠJon
ĠÃ¼niversiteler
Ġehl
ĠHÃ¼c
ĠbaÅŁbakan
Ġyelken
dÃ½
evit
ĠÄ±srarla
DeÄŁerli
ĠkurslarÄ±
iyeri
Ġyiyecekler
ĠyanÄ±mda
ĠzeytinyaÄŁ
Ġarta
ĠocaÄŁ
Ġamp
ĠDOÄŀ
ĠmÃ¼lteci
Ġsaatinde
esign
ĠbaÄŁÄ±
Ġgitme
Ä°d
Ġzirve
ĠOrdusu
Ġabart
Ġipek
Ġburn
laÅŁÄ±yor
ical
ĠSanal
ĠyeÅŁ
ĠolmasÄ±yla
ĠMekan
Ġatabilirsiniz
ĠkÄ±p
Ġdiger
liliÄŁe
Ġdusun
alardaki
Ġbiriydi
ĠHavacÄ±lÄ±k
latÄ±r
ĠkullanmasÄ±
ĠanlaÅŁÄ±l
ĠsÃ¶ylemiÅŁti
ĠBelirt
.:
inat
ĠBeslenme
ĠbaÅŁlarÄ±na
ĠOrtalama
ĠAlkol
Ġhort
ĠSus
Ġikisinin
1000
ĠkÄ±na
ĠGrand
Ġmiy
Ä±rdÄ±
ĠyakÄ±nlarÄ±na
NE
ĠgÃ¼Ã§lerin
ĠilkÃ¶ÄŁretim
Ġdogru
ĠTo
ĠÃ§alÄ±ÅŁÄ±p
ĠÃ§iÃ§eÄŁi
ĠÅŁeklini
ĠkoÅŁullarÄ±nda
ĠTalep
Kol
ings
liÄŁimizi
Sp
luyuz
.....
Ġilkesi
ĠdÃ¼ÅŁÃ¼nmeye
Ġsonrada
ĠcivarÄ±
ance
abe
ĠKop
DÃ¼nyada
ĠaraÅŁtÄ±rmacÄ±
ĠtarayÄ±
Ġoynarken
Ġgerekmez
deleri
Alan
Ġmaddede
tali
ĠhastalÄ±klara
ĠbaÅŁarÄ±yÄ±
Ġkumar
ĠEUR
KS
ĠÃ¼lkemizi
esses
Ġkimya
ĠLibya
ĠÅŀÃ¼phesiz
ORUM
Ã¼zyon
Ġtarla
Ġkapsar
seydi
Ġkurtu
madÄ±lar
ĠkardeÅŁlik
ĠbaÅŁkalarÄ±na
ĠYAR
ĠsÃ¶zleÅŁmenin
Ġkuv
ĠgeÃ§it
laÄŁ
Ġevlerde
Ġdolduran
ĠgeliÅŁtirmeye
May
yid
Ġom
2002
Con
Ġ~
atÄ±nÄ±
ĠAnalizi
Ġfirmaya
hol
ĠDini
ĠÃ¶neririz
Ġnesne
ĠAltÄ±nda
Ġkonteyn
mahal
ĠDEV
ĠeÄŁitimde
Ġfizi
La
Ġhaftaya
ĠÃ§ubuk
Ġkaybetmeden
Ġsamsun
larlar
Ġzed
ektÃ¼el
ĠsayfasÄ±na
isiniz
Toplam
ĠBU
ĠVeysel
ĠatÄ±l
Ġinat
ĠEbru
Ġlokal
ĠfÄ±rsatta
ĠÄ°kili
gusal
ple
ĠayaklarÄ±
ĠokÅŁ
ĠArke
ĠinsanlÄ±ÄŁa
ooth
ĠWil
ĠdeÄŁiÅŁtirilmesi
ÃĩaÄŁ
mana
ĠÃĩocuklarÄ±n
adÄ±lar
ĠYETÄ°ÅŀTÄ°R
ĠMÃ¼m
ĠyÄ±r
tada
aga
Ä±mÄ±na
ĠÃ§izgiler
ĠsoruÅŁturmasÄ±
ĠBunlara
Ã¼ÅŁvet
ucuk
Ġfavori
PDY
ĠKazÄ±m
Ġaylar
ision
ĠÄł
Ġkalkar
Ġetmenizi
ĠtaraflarÄ±n
ĠÃ¶mÃ¼rlÃ¼
tÄ±rma
Ã¶ÄŁ
ĠyayÄ±nlanacak
Ġacele
viz
KÃ¼rt
ĠÃ¶ÄŁrencilerimiz
ĠAtÃ¶ly
uÅŁturma
ĠhoÅŁlan
QL
ĠHakem
mediÄŁim
ĠavukatÄ±
Ġekleme
mamÄ±za
irdi
Ġverdiklerini
unucu
eyl
Ġgeceler
ĠMalat
ĠHÃ¼kmÃ¼nde
Ä±yorsun
Tun
Ġpazartesi
Ãĸnceki
ĠÃĸzal
ĠYÃ¶netmen
ĠÃ§oÄŁalt
ĠÅŁaÅŁ
Ġseyirler
ĠyapacaklarÄ±
Ã¶m
Ġ89
Ġperspektif
ĠkalmÄ±ÅŁtÄ±
Ã¶p
ĠÃ§Ã¶l
ĠjÃ¼ri
Ber
ĠÄ°dlib
ĠkaybÄ±na
ĠekranlarÄ±nda
ĠgeliÅŁmelerin
ĠpÄ±rÄ±l
Ġlakin
HAN
ĠgerÃ§ekleÅŁtirdik
ĠkalmasÄ±nÄ±
Ġkapitalist
ĠOut
lÄ±c
oci
miye
ĠTunÃ§
ĠKalan
ĠmÃ¼teakip
ladim
ĠTO
ĠarkadaÅŁlarÄ±nÄ±n
Ġesen
ladÄ±ÄŁÄ±nÄ±
Ġyerlerin
ĠKUL
evleri
ĠÅŀti
ulaÅŁtÄ±r
Ġbelirtiler
igitÃ¼rk
Denizli
uÅŁtuÄŁunu
Ġfederasyon
Ġtermal
ĠRem
ĠmÃ¼dÃ¼rlÃ¼k
Ġadliy
Ġ92
ĠGPS
ĠdiktatÃ¶r
Ġsorununun
vo
ĠBayÄ±ndÄ±r
ĠsÃ¼rdÃ¼rmektedir
Ġata
Ġkurabiye
Ġtutanak
ĠmillÃ®
ramanÄ±
Ġekibin
ĠDuygu
ĠtakÄ±mda
sch
Ġoyu
lÄ±m
Ġizleyin
Ġzanned
Ġucuza
Ġahir
ĠReg
ĠÃ¶ncÃ¼lÃ¼ÄŁÃ¼nde
ĠYetiÅŁtir
lÄ±na
ĠYargÄ±
ĠiÃ§eriÄŁini
Ġsunuc
ass
Ġgirerken
Kayseri
ĠOsmaniye
ĠNem
Ġekonomisinin
ĠmahkÃ»m
Ġarkaya
Ġdevletler
yazar
asta
ĠtanÄ±tmak
ĠpÃ¼rÃ¼zsÃ¼z
ĠGiy
Ġtemyiz
ĠoluÅŁturarak
ilmiyor
Ġilkeleri
ĠyararÄ±na
ĠLatin
ĠgÃ¶sterge
ĠyÃ¶neticiliÄŁi
ĠkorumasÄ±
ĠÃ¶lÃ¼me
tab
ĠanlarÄ±
ĠEÄŀÄ°TÄ°M
Ġtutku
Ġabar
ĠAltun
gÃ¼ven
ĠYÄ±lÄ±nda
tasiye
ĠDans
ĠBec
ĠartÄ±rÄ±r
ekkÃ¼l
ĠYÄ±lÄ±n
Ġelinizde
Ġziyaretinde
Ġarat
ĠTÄ±pkÄ±
Mark
aÃ§a
luÄŁundan
dunun
ĠtelaÅŁ
Ġbeklenmedik
larÄ±mdan
ĠGeorge
Ġkili
ĠÅŁahane
ĠgÃ¶rÃ¼nÃ¼mlÃ¼
Ġduvara
hayÄ±r
alandÄ±
Ġnakli
ĠRot
ĠMF
ĠetkinliÄŁe
Ġkonsol
ĠÃ¶ykÃ¼sÃ¼
ĠÃ¼niversiteye
Ġkesici
ĠSep
ĠmaaÅŁÄ±
evher
ĠbelirtildiÄŁi
Ġmensubu
ĠdilekÃ§e
ĠÄ°ttifak
ĠVis
ĠzorlaÅŁtÄ±r
Ġilav
)-
Ġhacim
Saat
Ġboyutta
negÃ¶l
ĠyÃ¼rÃ¼yen
Fet
ï¿½ï¿½ï¿½ï¿½
ĠgÃ¶rkemli
Ġtabiki
ĠbaÅŁkasÄ±na
irlik
ĠÃĩalÄ±ÅŁmalarÄ±
ĠhazÄ±rlamÄ±ÅŁ
ĠUlaÅŁ
Ġgetirmektedir
Ġsemptom
ĠamaÃ§lar
ĠDeÄŁerli
Ä±cak
ĠmÃ¼ÅŁterileri
ÑģÐº
Br
Ġruj
Ses
ĠhÃ¼s
ĠAdil
Ġoturuyor
Ġolsalar
ĠÅŁahsiyet
ĠLos
ĠhavalimanÄ±
ĠilÃ§elerinde
ĠdÃ¼ÅŁÃ¼nÃ¼p
Ġfe
ĠÃ§iÄŁn
ĠkarikatÃ¼r
ĠbÃ¼f
ĠAÅŁÄ±rÄ±
Ġsalt
ĠÃ¼reticileri
meyecektir
ĠHÄ±rvat
Ġibaresi
masÄ±ndaki
ĠChat
Ġbelirledi
ĠFev
Ġotu
ĠHarun
ĠÃĸÄŁrencilerin
ĠVeya
ĠimzalÄ±
puz
Ġtraj
ĠbaÅŁÄ±ma
Ġhedefliyoruz
ĠyaratÄ±
ĠKahvaltÄ±
Ġderinden
ĠkullanmÄ±ÅŁ
ĠBaz
hret
Ġcalis
ĠbÃ¼yÃ¼klÃ¼k
ĠKitaplarÄ±
ĠdeÄŁiÅŁmektedir
ĠBaykal
ĠYapÄ±lmasÄ±na
ĠkÄ±zgÄ±n
ĠÅŁikayetÃ§i
ĠolanÄ±n
ĠSesli
Ġcet
bolan
Ä±cÄ±k
ĠKeskin
ĠzayÄ±flama
ĠSabit
ĠBatÄ±lÄ±
ĠBy
ĠCeh
ĠRec
Ġgelirler
ĠbuluÅŁan
ĠHAK
ĠtanÄ±klÄ±k
ĠkazandÄ±rmak
ĠyaÅŁanmÄ±ÅŁ
Ġbulunabilirsiniz
Ġtatile
ĠDoktora
ĠPomp
ĠseÃ§ilir
Ġdevletinin
ĠdÃ¼ÅŁÃ¼nceleri
Ġsperm
Ġedit
Ġtahvil
ĠbinalarÄ±n
Ã¼ÅŁtÃ¼m
ĠgÃ¶rerek
Ġbronz
rr
ĠSir
ĠhaberleÅŁme
ĠkaynaklarÄ±n
ĠSef
ĠÅŁerit
ĠyÃ¶neten
ĠKoordinasyon
Ġkurye
Ġzinciri
larini
Ġolayla
ĠPerformans
ĠilaÃ§larÄ±n
bÃ¼yÃ¼k
ĠDor
ĠBrit
Ġentel
Link
ĠulaÅŁma
ĠgÃ¼ndemine
ĠyÄ±ÄŁÄ±n
ĠHatÄ±r
ĠDinÃ§
Pat
ĠKaza
chester
Ġyeterlilik
ĠTES
Ġ450
Ġindirimi
Ġsergisi
ĠaÄŁzÄ±
ĠyanaÅŁ
ĠbayramÄ±
elenen
Ġmizah
IST
ĠbasÄ±ncÄ±
ĠWhatsApp
emon
ĠKaram
ĠmarkalarÄ±
Ġbulamaz
lanÄ±rken
Sivas
Ġoptik
ĠmutluluÄŁunu
Ġbeklerken
Ġcisim
Ġelektron
kanlÄ±
GÃ¶nder
Ġtom
ĠÃ¼rÃ¼nlerde
ĠgetirilmiÅŁtir
Ġ1920
ĠÃ¼rÃ¼ne
ĠTaÅŁÄ±n
sÄ±k
ĠyÄ±
uri
amdan
ĠbaÅŁsaÄŁlÄ±ÄŁÄ±
ĠhÃ¼kÃ¼mler
link
ĠÃ§okÃ§a
Ġpozisyonda
ĠTÃ¼rkleri
dÃ¼kleri
Ġsavundu
antÄ±sÄ±
Ġtaviz
ĠÃ¶lÃ¼r
ĠdiyorsanÄ±z
Hol
Ġmeb
ĠMaliyet
ĠeÄŁlenceler
ĠbasÄ±lÄ±
ĠamaÃ§larÄ±
Ġpsikiyat
orunlu
Ġverelim
Ġled
ĠHala
Ġrakamlar
Ġteknolojiyi
git
ĠÃ§ocuklarÄ±mÄ±zÄ±n
Ġhaziran
Ġibad
ĠkiÅŁiyle
ĠHABER
ĠBaÄŁlantÄ±
ĠBAY
ĠhazÄ±rladÄ±ÄŁÄ±mÄ±z
ĠgruplarÄ±n
Ġped
ĠtribÃ¼n
lendirmek
Ġnisan
Ġedince
ĠNokia
Ġdokusu
ÅŀanlÄ±urfa
Ġbecerileri
Ġkiloda
Ġ;)
Ġtencereye
INDA
Ramazan
ÃĿ
ĠgeÃ§mektedir
Ġgirin
Ġbebekler
Ġdevi
ĠÃľzerinde
lamay
TIR
ĠayrÄ±lma
ĠcoÄŁrafya
ĠOY
Bebek
ettepe
ĠDC
Ġkomple
Ġbakteri
Â¶
ĠAlÄ±nÄ±r
Ġinceleyen
ĠEfes
film
Ġerim
ĠÃ§izdi
ĠdÃ¼ÅŁÃ¼ndÃ¼ÄŁÃ¼m
ĠgetirilmiÅŁ
ĠKAD
ĠsaÄŁlamÄ±ÅŁtÄ±r
online
Ġler
ĠHediye
ĠSÃ¼rÃ¼cÃ¼
ĠSerisi
Ġicat
ĠhazÄ±rlÄ±klarÄ±nÄ±
Ġkac
ĠGizli
tekin
ĠyapacaÄŁÄ±mÄ±z
ĠTru
ĠalanlarÄ±nÄ±
Ä°CÄ°LÄ°ÄŀÄ°
asyonel
ĠbebeÄŁi
ĠbÃ¶rek
Press
ANKARA
ĠsÃ¶yleyeyim
ĠTunceli
ĠhemÅŁir
Ġyapabiliriz
Ġtarikat
ĠViyana
Ġiadesi
Ġsistemiyle
Ġantioksidan
ĠNiÅŁ
ĠYakup
ĠsatÄ±lÄ±yor
ĠDisiplin
ĠPolitikalar
ĠÅŁansÄ±nÄ±
ĠkodlarÄ±
Ġbildiren
ĠkonuÅŁmacÄ±
Ġgirdik
ĠHafif
Ġrestorasyon
Amerikan
Ġnedenlerden
ĠatÄ±f
TeÅŁ
Ġiktisadi
ĠÅŁartlarÄ±nÄ±
emedik
Ġyakalanan
Ġyetkin
ĠuygulamasÄ±nÄ±n
Ġnde
Ġbeye
Ġhamuru
lerime
Ġsempoz
Ġistey
Ġvurgulayarak
Ġklim
ustik
ĠmaÃ§Ä±nÄ±n
ĠalakasÄ±
ĠiÅŁitme
Ġhamle
risti
Ġhaberlerin
Ġkristal
ĠMum
ĠgÃ¶sterin
Ġkremi
ĠzÄ±p
ĠolmamasÄ±na
Ġvites
ĠKutlu
Ġ**
ĠcÃ¼mleler
Ġmatr
iÅŁÃ¶rt
birlik
Ġumudu
ĠiÃ§erikleri
Ã¼ncÃ¼sÃ¼
Ġelime
ĠPaylaÅŁ
ĠyolculuÄŁu
Ã¶rneÄŁin
ĠbÃ¶lÃ¼mÃ¼n
Kamp
ĠyapÄ±sÄ±nÄ±n
ĠBeylikdÃ¼zÃ¼
Ġsegment
adig
ĠCes
eyeceÄŁini
tl
ĠANKARA
ĠEvlilik
ĠZel
ĠÃ§iÃ§ekler
ÅŁah
Ġbelirlenecek
AdÄ±
ĠStaj
ĠaralÄ±ÄŁÄ±
ĠÃ¶ÄŁrenmeye
Ġekonominin
ĠsertifikasÄ±
ĠkÃ¶fte
ĠarttÄ±ÄŁÄ±nÄ±
Mac
anÄ±ma
ĠyÄ±ldÃ¶nÃ¼mÃ¼
ĠÄ°ktisadi
VC
Ġhabersiz
ĠKamil
ĠMid
ĠdeÄŁerlerin
Ã¼leri
Ġenstit
ĠbakÄ±yorum
Ġevcil
ĠverimliliÄŁi
Ġyazarken
mud
leyeceÄŁi
ĠtÃ¼fek
ĠyaparsanÄ±z
Ġramazan
ĠSigortasÄ±
uluÄŁunu
larÄ±nca
abat
ilenin
ĠsavaÅŁta
ĠdaÄŁÄ±tÄ±mÄ±
jet
kum
ĠinanÄ±n
Ġtablos
Ġpiknik
Ġaffet
Ä±yorsa
Ġotomasyon
rome
ĠyÄ±rt
ĠGerÃ§i
erkek
konusu
SU
Ġbos
ĠaradÄ±ÄŁ
ĠSancak
ĠkÄ±yafetler
ĠStratejik
ĠYakasÄ±
ĠTedarik
attan
Ġelimizde
Ġyollara
ĠiÅŁlenen
ĠsÄ±nÄ±
ĠoranÄ±na
Kad
Ġesrar
Ġtuzu
Ġyapabiliyor
Ġbedensel
ĠÃ§erez
Ġdamak
ĠHarp
Ġbors
pg
ĠÃ§Ä±kÄ±nca
ĠParÃ§
âĦ
ĠtÃ¼rÃ¼dÃ¼r
ĠfotoÄŁraflarÄ±nÄ±
lisans
Ġabla
ĠBro
ĠbileÅŁik
ĠBuda
pil
ĠBaÅŁkanvekili
ĠMÃ¼ÅŁter
ĠNilÃ¼fer
tam
Ġisimlerini
ĠgiriÅŁinde
ĠmasasÄ±
Ã½na
Ġkarayol
ĠyazdÄ±ÄŁÄ±m
Ġtezah
Ġelli
blog
Ġpv
Ġolmal
ĠiÃ§sel
ĠÃ¶tek
lerimle
Ġistisn
ĠmÃ¼min
ĠbaÅŁlarken
ego
Ġsorulan
ĠKurtar
ĠalabileceÄŁiniz
eski
ĠÃ¶demeleri
ĠortaklaÅŁa
Mec
ivi
Ã¶mert
ĠPiÅŁ
Ġdenedim
ĠÃ¶nerilir
ĠyaÅŁamaktadÄ±r
Bet
ĠGirne
ĠOdalar
alin
miz
Ġmekanda
ĠolmayÄ±p
ĠTren
Ġkazanmaya
ĠKullanÄ±lan
Ġetkilenen
ĠkatÄ±lmÄ±ÅŁ
Ġfutbolcular
ĠkÃ¶peÄŁi
mÄ±s
ĠBran
liliÄŁinin
Ġ....
ĠpeÅŁine
Ġyardim
ĠYÃ¶nelik
ĠafiÅŁ
eyting
Ġehli
ĠÃ¶nÃ¼
acaklarÄ±nÄ±
ĠUysal
ĠbabanÄ±n
ĠTaner
ĠÅŁehirlerde
ĠgenÃ§leri
leÅŁik
Ġsenet
ĠkÃ¢ÄŁÄ±t
ĠÃ¶tesi
ĠfÄ±krasÄ±
ĠRÃ¼zgar
ĠÃ¶ncÃ¼lÃ¼k
ĠsaldÄ±rÄ±larÄ±
ĠyanÄ±tladÄ±
veriÅŁi
ĠsaÄŁlanacak
Ġfonksiyonel
Ġmaliyetleri
ĠbroÅŁÃ¼r
ĠChan
adokya
ĠoluÅŁturabilirsiniz
mese
ĠUlaÅŁÄ±m
Ġadresleri
Ġdizin
ĠYasin
ĠgerektirdiÄŁi
ĠkaynaÄŁÄ±ndan
Ġ3000
lanmamÄ±ÅŁ
ĠÃ§alÄ±ÅŁmasÄ±na
Ġmektubu
ĠnÃ¶r
ĠsayfasÄ±ndan
ĠvasÄ±f
ĠAÅŁÄ±k
ĠgÃ¶rÃ¼lecek
?..
ĠBaÅŁvur
ĠyanlarÄ±nda
ĠiÃ§eriÄŁinde
Ġinfaz
Ġdizisinde
Ġnic
ĠardÄ±nda
ĠteÅŁh
ĠSilivri
ĠarÄ±tma
Ġolabilmesi
lÃ¼yor
ĠdoÄŁaya
Ġciddiye
Ġmanyetik
Ġdizide
ecekleri
Ġgelirleri
Telefon
Ġevlerin
Ġemperyalist
landÄ±ÄŁÄ±nda
Ġbedeni
ĠdeÄŁiÅŁtirildi
Ġcinsi
Ġkesilen
ĠiÅŁbu
Ġvizyona
DD
ĠÃĩÄ±kar
ĠZer
ĠnumarasÄ±nÄ±
Ø¨
BatÄ±
ĠBayburt
ucuz
ĠOkullarÄ±
doÄŁdu
Ġgelse
ĠbÃ¶lgeden
å½©
ĠunsurlarÄ±
ulmuÅŁtur
ĠGÃ¼ndem
zar
Ġillerde
ĠÄ°ler
ĠHaluk
Ġtipik
Ġtablosu
stÃ¼r
osistem
Ġmerkezlerinde
memiÅŁti
Ġut
ĠAyrÄ±
ĠEce
ĠÃ¼Ã§gen
Ġkavray
ĠBonus
ĠazalÄ±r
saat
ĠÃ¶ldÃ¼rÃ¼len
ĠsunulmuÅŁtur
ĠMakedonya
ĠdalÄ±ÅŁ
AraÃ§
Ġbilincinde
Ġunsurlar
Ġilac
Ġkazada
Ġsaatlerce
lÄ±larÄ±n
ĠkasÄ±m
Ġemisyon
yeÅŁil
Ġdomuz
ĠyÃ¼zleÅŁ
ĠsÃ¼l
ĠÃ¶ngÃ¶rÃ¼l
ĠbulabileceÄŁiniz
ĠÄ°hal
Ġyitirdi
ĠBankacÄ±lÄ±k
AYIN
Ġsosyalist
ĠOyuncak
ĠKariyer
Ġkurumlara
Onun
anoz
ĠMehdi
Ġfragman
Ġbiriyle
Ġistikbal
ĠpiyasasÄ±nda
mamÄ±ÅŁtÄ±r
ĠÃ§abal
ĠaraÅŁtÄ±rmasÄ±
ĠiÅŁlenmiÅŁ
Ġfirmalardan
ĠÃ¼niversitede
Ġbulunduran
ĠToptan
ĠkullanÄ±labilecek
ĠisteÄŁe
ĠanlaÅŁÄ±lan
Ġqu
Ġtuzlu
Ġsiteniz
ĠTolga
ĠkontrolÃ¼nÃ¼
ĠVeteriner
ĠbaÅŁarÄ±sÄ±nÄ±
Tabi
Ġkilise
ĠBileti
É¾
Ġanlayan
ĠdavalÄ±
ĠiÅŁlerine
Ã§Ä±lÄ±ÄŁÄ±
eÄŁimiz
adÄ±ktan
Herkes
ĠsonuÃ§landÄ±r
ĠMerhaba
Ġsulu
Demok
ĠolmalarÄ±nÄ±
Ä°h
ĠRom
ĠcanÄ±nÄ±
ĠÃ¼f
yaya
ĠAraÅŁtÄ±rmalarÄ±
Teknik
rÄ±nÄ±
uba
ĠyalÄ±n
Ġokuyarak
Ġyararlanarak
alma
Ã¼se
ĠanÄ±sÄ±na
ĠkullandÄ±ÄŁÄ±m
ĠÃ¶ylesine
ular
ĠMul
Ġhareketin
ĠÃ¶nerilen
ĠoÄŁlunun
pet
Ġsalata
Ġnerden
linde
ĠAktaÅŁ
Ġtetkik
ĠfÄ±krasÄ±nda
ĠÄ°htiyaÃ§
kiÅŁi
Ġizlenen
Ä°NÄ°N
ĠUydu
ĠkÃ¶yÃ¼n
eyeceÄŁiz
ĠÃĩatal
ĠfÄ±kra
ÅŁer
alist
danoz
ĠKlinik
ĠyaÅŁadÄ±m
ĠVerilen
ekonomik
ĠSaraÃ§
Ġpetek
andan
Ġizolasyon
ekilde
ĠkÃ¼tÃ¼phane
ĠBasit
Ġarap
Ġbedelini
ĠdÃ¼zeye
ãģĤãģĤãģĤãģĤãģĤãģĤãģĤãģĤãģĤãģĤãģĤãģĤãģĤãģĤãģĤãģĤãģĤãģĤãģĤãģĤãģĤãģĤãģĤãģĤãģĤãģĤãģĤãģĤãģĤãģĤãģĤãģĤ
ĠKÃ¼rtler
ĠalmÄ±yor
ehli
Ġmutluyum
Ġuygulayan
ĠatÃ¶lye
ĠToplumsal
ĠYETÄ°ÅŀTÄ°RÄ°CÄ°LÄ°ÄŀÄ°
Ġvurg
Ġdindar
ĠFilmi
ĠÅŁiÅŁe
Ġgeciktir
ĠaraÅŁtÄ±rmada
Ã¼ÄŁe
ĠmÃ¼ÅŁteriye
ĠAksesuar
ĠProgramlarÄ±
ĠRam
emeyeceÄŁini
LET
Ġkullanmadan
Ġtaraflar
ĠtopladÄ±
Ġfazl
ĠFabrikasÄ±
Ġcehennem
ĠKaplan
Â¬
ĠErgÃ¼n
ĠÅŁal
DoÄŁru
Ġuyumu
ĠhazÄ±rladÄ±k
eleyen
Ġsaniyede
ĠBinasÄ±
Ġdekorasyonu
ito
ĠgerÃ§ekleÅŁtirilmesi
xx
ĠÃĩerkez
Ġmenaj
Ġbiletleri
Ġistasyonu
ĠeÄŁitimli
Ä°LERÄ°
Belki
ĠiliÅŁkilendir
fl
ĠkoÅŁtur
Ġdinleyen
ĠOlur
ASYON
Ġni
ĠSayfasÄ±
Ġetmelidir
ĠdÃ¶nemini
ĠÅŀek
Ġstabil
Ġrehberi
ĠhastalarÄ±
Ġyazarlar
Ġrez
ces
Ġedeceksiniz
Ä°nsanlar
ĠRenkli
ecekt
Ġhizmetlerine
Ġinsanlarda
ĠalÄ±k
lamasÄ±nÄ±
ĠyÃ¶ntemiyle
ĠinÅŁaatÄ±
ĠyansÄ±yan
Ġbelirley
ĠbaÅŁladÄ±ÄŁÄ±nda
ĠStok
Ġkayda
ĠmaÄŁlub
Ä±lmasÄ±ndan
ĠVilla
iness
ĠkatÄ±lÄ±yor
Ġetkilidir
ĠWh
ĠzarfÄ±nda
Ä°STEM
Ġyaya
ÄŁimizin
Ġdram
ĠBirden
ĠkÃ¶pÃ¼k
ĠRol
Ġkomplik
tiÄŁinde
Ġkatarak
ĠkarÅŁÄ±lama
ĠkatÄ±lÄ±mcÄ±lara
ĠmÃ¼teahh
ĠDVD
ĠgÃ¶rdÃ¼kleri
Ġmetrelik
Ġkapit
ĠTahir
ĠdavacÄ±
ĠsalÄ±
ĠverildiÄŁini
ayir
Ġonce
ĠbaÅŁlÄ±yoruz
ĠFlash
Ġmazlum
ĠkÃ¶ye
Ä±fÄ±r
BahÃ§e
ĠdÃ¶nmÃ¼ÅŁ
ĠÃ§alÄ±ÅŁmalarla
Ġgetirin
ĠAilesi
Ġmazer
ĠyazÄ±ÅŁ
ESCO
ĠrÃ¼zgÃ¢r
rasya
malarla
kinden
Ġsitesindeki
Ġprogramlama
Ġaskerleri
Ġetmen
luklar
stro
Ġgerekiyorsa
ĠmekanÄ±
ĠBulvarÄ±
ĠnamazÄ±nÄ±
ĠHarekatÄ±
ĠAtlet
ĠKayser
ĠPiyan
ĠdamgasÄ±nÄ±
ĠÃ§Ä±ktÄ±ÄŁÄ±nda
Ä±zlÄ±
ĠgÃ¶ÄŁs
mÃ¼n
lemektedir
Ġmaksat
ĠÃ¼retilmektedir
ĠYaralÄ±
Fatih
indi
ĠtaÅŁlarÄ±
tici
Ġkendilerinden
DoÄŁal
Ġmuhaseb
stÄ±r
lÄ±can
ISI
ĠAfet
ĠiletiÅŁimi
ĠÃ¶fke
Ġbabalar
Ġkli
ĠbÄ±rakÄ±yor
ĠdÃ¼zenlemesi
ĠAraÅŁtÄ±rmalar
ĠDedi
ĠfotoÄŁrafÄ±nÄ±
ĠSIN
Ġkapatmak
Ġdoya
ĠKampanya
Sat
ĠOS
ĠKahve
Ġsuikast
ikil
flasyon
ĠTÃ¼n
ĠyakÄ±nÄ±n
ĠÃľstÃ¼n
laÅŁtÄ±m
ĠDanÄ±ÅŁma
kisel
laÅŁtÄ±rÄ±lmÄ±ÅŁ
CC
ĠDenk
Ġyiyen
ĠaskÄ±ya
Ġdualar
ĠartmasÄ±na
Ġeserin
Ġfert
Ġesaslar
dÃ¼ÄŁÃ¼m
ĠbozukluklarÄ±
Ġstadyum
ĠmakinalarÄ±
åı
ruh
ometri
Ġare
ĠÅŁahsi
ĠmaÄŁduriyet
TarÄ±m
Ġdede
CU
iss
ĠÃ¼rÃ¼nlerden
Ġbilan
amamÄ±
ĠSizde
yonun
ĠkarÄ±sÄ±
adamÄ±
ĠBT
ĠdeÄŁerlere
ĠtezahÃ¼r
Hizmet
tÄ±ÄŁÄ±n
Ġcinsinden
Ġtemizlen
Ġhavadan
ĠSÃ¶n
ĠavantajlarÄ±
amÄ±ÅŁtÄ±r
DIR
ĠKaÅŁÄ±kÃ§Ä±
tansiyon
ehra
tihan
Ġedilebilecek
ĠkonuÅŁur
ĠulaÅŁtÄ±k
kesi
ĠDEN
ĠmasaÃ¼stÃ¼
ĠmantÄ±ÄŁÄ±
rok
ĠNakliye
Ġcasus
ĠBask
ĠRep
ĠIÃ§in
ĠKÄ±rgÄ±z
icle
Samsung
ister
ĠÃ¶ldÃ¼ÄŁÃ¼
ĠdosyayÄ±
Ġeserlerin
ĠalacaÄŁ
Î±
Ġdeniyor
try
ĠHamza
Ġbirikimi
ĠÃ¼zgÃ¼n
ĠulaÅŁÄ±n
ÃĩocuÄŁ
Ġberabere
Ġmedres
ÃľÅŀ
Ġanh
dÃ¼nÃ¼z
ĠUf
Fin
elem
ĠÅŀeref
ĠgeÃ§irerek
ĠYes
ĠkÄ±yamet
ĠNumaralÄ±
Ġprojelere
ĠateÅŁi
eÅŁehir
ĠÃĸzgÃ¼rlÃ¼k
ĠistikrarlÄ±
ĠgÃ¼le
ĠnumarasÄ±nÄ±n
150
ÅŁk
Ġbertaraf
Ġdeposu
ĠhÄ±zÄ±nÄ±
ĠmiktarÄ±nÄ±n
Ġcocuk
turk
Ġelimde
ĠKÄ±rÄ±kkale
lÄ±ÄŁÄ±mÄ±z
Ġgetirmesi
cev
ĠMasaj
ĠBÃ¼yÃ¼kelÃ§isi
Ġyoutube
ĠCÃ¼n
ĠateÅŁe
ĠÃ¶ncesinden
ĠGÃ¶kÃ§e
inasyon
ĠFed
ĠKalÄ±n
ĠÃ¶ÄŁrencilerimizin
ĠgÃ¼veni
ĠyapÄ±cÄ±
ĠsÃ¶zleriyle
Ġbuda
amamÄ±ÅŁ
ĠmimarlÄ±k
ĠtartÄ±ÅŁmaya
ĠiÃ§ecekler
erkÃ¼k
ĠmaÄŁar
furt
pertiz
Ġoluyorlar
ĠgerÃ§ekleÅŁmiÅŁtir
erkes
Ġcanavar
Ġpazarda
Ġbeslenen
ĠiÄŁn
ĠaktarÄ±
ĠmÃ¼hendisliÄŁi
ledikÃ§e
ĠSaid
ĠarkasÄ±ndaki
ican
ĠakÄ±cÄ±
Ġsitelerine
Ġaptal
ĠsÃ¼tun
Futbol
ĠRock
ĠÄ°ÅŁi
Ġprojesini
FA
Ä°lÃ§e
ĠmÃ¼ÅŁterilerinin
Ġistiyordu
ĠArena
melerinde
ĠakaryakÄ±t
ĠyardÄ±ma
ĠResmÃ®
ĠdoÄŁran
ĠAcar
Otel
Ġlu
ĠSlov
ĠAÃ§Ä±lÄ±ÅŁ
lediÄŁim
ĠMuay
ĠCad
ÃĸY
ĠBUR
ĠPL
ĠBre
ĠTro
ĠgÃ¶sterilmiÅŁtir
ĠSemih
ikip
Ġelbet
Ġismiyle
Ziyaret
ĠyaÅŁlarÄ±nda
Ġkaka
ammed
ĠHic
Ordu
Ġmanuel
ĠparkÄ±
ĠTatar
malardan
ĠGÃ¼zellik
ekteyim
ĠbankasÄ±
ĠtaÅŁÄ±yacak
play
ĠAmazon
Ã¼mcek
ĠtarzÄ±nda
miyoruz
ĠkazanmasÄ±
Ġikiz
ĠdeÄŁiÅŁtiren
BP
ĠKapÄ±sÄ±
ĠolmasaydÄ±
ĠÃ¼retir
Ġokuldan
ĠiÅŁÃ§ileri
ign
ĠyaÄŁlar
ĠDilerseniz
ĠkullanÄ±lamaz
ĠoyunlarÄ±nÄ±
Ä°CÄ°
Ġhisseder
ĠbankanÄ±n
ĠsaldÄ±rÄ±lar
MAK
Ġsudan
ĠODTÃľ
Ä±lmakta
Ġsenedi
sayÄ±
Ġveteriner
ĠEmeklilik
Kil
ĠhayatÄ±mÄ±za
lali
aynÄ±
batÄ±
Ġsilme
Ġplanlar
Ġoz
Ġturizmi
Ġsistemlerinde
ĠtaÅŁÄ±dÄ±
ĠBilal
Bence
Ġpazara
ĠkulÃ¼bÃ¼n
ille
ĠTÃ¼rkistan
Ġkrizin
Ġisteyecek
board
Ġdolgun
ĠtabanÄ±
ĠyayÄ±nlar
nova
Ġmodelinin
esela
ĠdileÄŁiyle
ĠAlet
ragon
Kart
ĠTIR
Ġibraz
ĠbaÅŁkalarÄ±
mayanlar
ĠkurumlarÄ±nÄ±n
ition
Bazen
Ġanki
Adalet
ĠÃ§alÄ±ÅŁtÄ±klarÄ±nÄ±
Ġmahsus
ĠComp
Ġsaatten
ostal
ĠkalktÄ±
wei
ĠulaÅŁarak
ĠanlaÅŁÄ±lÄ±yor
ĠTamir
garenk
eyken
Ġbakacak
ĠokumayÄ±
Ġdurup
index
ĠKerem
ĠÃ§ocuklarla
ĠmarkasÄ±nÄ±n
ĠBabasÄ±
ĠyargÄ±lama
Str
ĠraporlarÄ±
Ġinfo
eze
Ġlavabo
ĠÃĩerÃ§ev
ĠtazminatÄ±
ĠBayraktar
Polis
Ġdum
ĠBerg
Ġiflas
Åŀim
Ġreel
ĠPDF
Ġedilmesinin
ĠFaiz
ĠNetwork
ANT
REN
ĠbÃ¼rokrat
ĠMisafir
adayÄ±
ĠHastane
ĠyaÅŁadÄ±ÄŁÄ±m
cÄ±lÄ±ÄŁÄ±n
Ġtadilat
ĠÃ§Ä±kmadan
ĠKoy
Ġtim
Ġisimlerden
km
ĠiÃ§ers
ĠkarÅŁÄ±laÅŁtÄ±ÄŁÄ±
ĠbuluÅŁacak
park
Ġpaslanmaz
ĠkonuÅŁurken
ĠÃ§alÄ±ÅŁanlarÄ±na
ĠÃ§ekmiÅŁ
ĠMerve
old
ĠiÅŁlemlerinizi
ĠAracÄ±
ĠaylarÄ±
ĠKurucu
ĠDanimarka
ĠRestaurant
ĠesaslarÄ±
Ġedebiliriz
ĠÅŁiddete
hanesi
Ann
ĠTFF
ĠsÃ¼renin
ĠGÃ¼mÃ¼ÅŁhane
Ġservise
ĠalacaÄŁÄ±z
Ġdengesiz
ĠZorlu
ĠyurtiÃ§i
Ġpaneli
ĠSigara
tiklerini
ĠBaf
VÃ¼c
ĠaÄŁabey
ebook
ĠElde
ĠHalen
Tabii
ĠMahallesinde
ĠÅŁe
siklop
Ġ:(
ĠkatÄ±lÄ±mcÄ±lar
ĠmensuplarÄ±nÄ±n
ĠFo
ĠKutsal
ĠaraÃ§la
ĠiÅŁletmenin
ĠDom
alli
ĠOffice
ĠtemalÄ±
ĠWin
eÃ§hiz
ĠÃĸÄŁretmenler
ĠkatÄ±lÄ±mcÄ±larÄ±n
Ġpsikolog
ĠAvcÄ±lar
Ġtik
Ġgerekecek
ĠDÄ±ÅŁarÄ±
ĠsunmayÄ±
Ġsorunlu
ĠnÃ¼fusunun
ĠGÃ¼nÃ¼n
Ã§Ä±lÄ±ÄŁ
ĠBrÃ¼ksel
iser
ĠBang
ĠBeton
Ã¼vey
Ä°ZMET
ĠFur
ĠkontrolÃ¼nde
ĠyaÅŁatmak
ĠGENEL
ĠKuÅŁadasÄ±
ĠÃ¼retilmiÅŁtir
Ġzannet
ĠTÃľRKÄ°YE
ĠCO
Ġgolle
bert
ĠbaÄŁÄ±mlÄ±lÄ±k
Ġapart
Ġyurd
ĠtrafiÄŁi
Ġkiralik
ĠuzlaÅŁ
ĠResimleri
ĠkireÃ§
landalÄ±
ĠyÃ¼kÃ¼mlÃ¼dÃ¼r
Ãĸyle
ĠYÄ±kama
Ġsunulur
ĠÃ¶ldÃ¼rÃ¼ldÃ¼
ĠaÄŁzÄ±ndan
ĠbaÅŁbak
ekkur
strÃ¼k
oÄŁaz
ĠÃ¼retimin
Bayram
ĠgeÃ§irdik
laÄŁÄ±
ENDÄ°R
ĠHip
ĠAbdurrahman
ĠÃ§Ä±ktÄ±m
zani
Ġdahili
Ġgirme
Ġucunda
ĠÃ¼retimine
ĠhatÄ±rlattÄ±
Ġyaratma
ĠseÃ§eneklerini
liyim
Ġmd
ĠÃ§evresine
ĠArÄ±
YabancÄ±
ĠhavuÃ§
Ġdinler
Ġtuzak
Ġyuf
php
ĠMoÄŁol
ĠdeÄŁiÅŁmesi
ĠHakim
alanmasÄ±
Ġettirmek
ĠBenz
ÈĻ
ĠyaÅŁarken
Ġveriyorlar
ĠBaÅŁkent
Ġetkileyecek
ĠMartin
ĠtoplantÄ±sÄ±na
Ġfiilen
Ġmateryaller
ĠinancÄ±
ĠMuhteÅŁem
ĠedileceÄŁi
ĠKÄ±saca
anlara
ĠLimanÄ±
Ġdurmadan
ĠyÃ¼kseklik
Ġmetn
Ġkokulu
ÅŁin
Ġgitmeden
ĠdÃ¼zenlemeleri
Ġintikam
ĠatandÄ±
Ulusal
ĠtahammÃ¼l
ĠAsan
ĠÅŁahsen
Ġekonomiye
Ġniz
Ġefsun
Ġetiketi
Ġkadromuz
ĠgÃ¼nlerin
Ġbereket
etooth
Ġderne
hep
ĠÄ°rlanda
Gelen
ĠbakÄ±nca
Ġri
ĠdÃ¼ÅŁme
ĠGÃ¶kÃ§
ĠsÃ¼nger
ÃĩalÄ±ÅŁma
ĠboyutlarÄ±
oterap
Ġkadrosunda
ĠSex
ĠgeliÅŁmelere
Var
ĠgÃ¶tÃ¼rdÃ¼
sÃ¼zlÃ¼k
ĠKosova
ĠsunmuÅŁ
ĠyatkÄ±n
TBMM
Ä°Ãĩ
Ġdefned
Ġmy
sÄ±r
ĠbÃ¼yÃ¼meye
Ġyaramaz
ĠÃ¼cretin
ĠÅŁirkete
Ġtahlil
ĠAit
ĠanlayÄ±ÅŁÄ±nÄ±
ĠCezaevi
ĠBaÅŁkons
ĠgÃ¶zÃ¼nÃ¼
ĠYÄ±llar
Ġtorun
Ġuykusuz
ĠgeÃ§iÅŁi
ĠManavgat
ĠAnnem
osna
maÄŁÄ±
Men
Erzurum
ĠtutmuÅŁ
Ġkaram
ĠanlaÅŁÄ±lmasÄ±
ĠdoÄŁduÄŁu
ĠsaÄŁlÄ±yoruz
ĠÃ§eyreÄŁinde
Val
ĠyakÄ±ÅŁÄ±r
dio
ulup
uyun
icek
ĠdÃ¼zenlenmiÅŁtir
Ġaksak
panya
ĠmÃ¼ÅŁterinin
ĠihtiyacÄ±m
ĠTu
lÄ±yordu
Ġdomain
ĠKanser
ĠgeÃ§meye
ĠkatkÄ±larÄ±
ĠPers
ĠÃ¶ÄŁleden
Ġkupa
ĠhavalandÄ±rma
ĠdayanÄ±ÅŁ
Ġinen
Ġbelle
ĠAÄŁÄ±z
iliÄŁine
ĠBirincisi
Ġkelimesinin
Sor
ĠkadÄ±nla
ĠGÃ¼reÅŁ
Ġetkiledi
ĠSÄ°STEM
gÃ¶
Ġjel
Ġmekanlar
ĠÑ
ĠkalmayÄ±
Ġbizlerin
ĠÃ¼niversitenin
Ġkatta
forma
ĠbirÅŁeyler
riyat
arki
Ġdisip
ĠyÃ¶netimin
Ġgeriledi
ĠsakÄ±nc
alata
umhurbaÅŁkan
ĠgÃ¼ce
lemeyi
ĠsÃ¶zcÃ¼ÄŁ
Ð¾Ð²
FÄ±r
Ġsusuz
kom
ĠkÃ¶le
ĠgerÃ§ektir
Ġmilyona
mamalÄ±dÄ±r
ĠÃ§ekilmesi
ĠRaf
GerÃ§ekten
ĠyÃ¶netimini
ĠTimes
ĠkayÄ±n
Ġbunca
jder
ĠAykut
ĠgÃ¶ndererek
ĠSSK
Ġindirip
mÄ±ÅŁtÄ±k
Onlar
ĠDemet
Ġgayri
ĠALT
Ġkorunma
Ġbinden
Ġrock
ĠÃ¶ÄŁretmenlik
ĠPlat
Ġizledim
Ġikisini
ĠazalmasÄ±
Ġpes
Ġpusu
Ġgiderler
ĠortasÄ±na
?'
ĠhazÄ±rlÄ±klarÄ±
ĠSayÄ±sal
Ġdeleg
ĠkaynaklanÄ±yor
ĠsÄ±kÄ±ntÄ±larÄ±
Ġgrip
ĠKocaman
ĠuÄŁramÄ±ÅŁ
abileceksiniz
ĠRehabilitasyon
ĠBostan
Ã»d
ĠKurulunun
ĠDersi
diyse
Ã¼rÃ¼n
Ġ91
ĠbaÅŁkasÄ±nÄ±n
Ġbilinmez
mega
ĠkonumlandÄ±r
ĠÄ°ÅŁletmec
ĠÃĩiftÃ§i
ors
ĠkÄ±zlarÄ±n
Ġsaz
Ġmeg
ĠaynÄ±dÄ±r
Ġstandard
Ġbilhassa
Cam
ĠadaylarÄ±nÄ±n
ĠForumu
ĠdÃ¼nyasÄ±nÄ±
ĠBakalÄ±m
ĠdÃ¼zene
ĠbaÅŁlanmÄ±ÅŁtÄ±r
ĠyÄ±lan
Ġokunan
Ġbezi
ĠArzu
ĠtasarÄ±mcÄ±
ĠkapatÄ±p
Ġmetaboliz
arÄ±n
ĠiÅŁyerinde
ĠdayanÄ±r
Ġkaybeder
Ġmotive
ĠyaÅŁanacak
ekkep
ĠCumhurbaÅŁkanÄ±mÄ±z
ĠkoltuÄŁu
ĠsunmaktayÄ±z
Ġsenede
ĠNÃ¶
ĠeÅŁdeÄŁer
Ġgidiyorum
Ä°ngiliz
Ġgencin
ĠÃĩoban
ĠÅŁahsÄ±n
Ġmevz
Ġsonsuza
arp
ĠHen
600
Ġkente
ĠgÃ¶tÃ¼rÃ¼r
ĠdÃ¼ÅŁÃ¼nmÃ¼yorum
Ġforvet
Ø³
lamadÄ±
ĠmÃ¼cadelesini
ĠanlattÄ±ÄŁÄ±
ĠattÄ±m
2001
ĠÃ¶rgÃ¼tÃ¼ne
Ġteras
Ġmemleketi
Ġmur
ĠsÄ±nÄ±fa
Ġsamimiyet
ĠartmÄ±ÅŁ
ĠBÃ¼rosu
ĠKonyaspor
ĠkaÃ§Ä±ÅŁ
Ġarayanlar
ĠoluÅŁturacak
ations
ĠhazÄ±rladÄ±
ĠyÄ±lki
ĠÅŀair
Ġbahane
YukarÄ±daki
ĠKorkmaz
Ġamc
ĠanlaÅŁmalÄ±
ginÃ§
ĠVoleybol
EHÄ°R
ĠSedat
Ġkriterler
ĠoluÅŁmasÄ±na
iyade
olun
Ġsunumu
Manisa
Ġsebepleri
Ġiplik
Ġdoktorlar
ĠÃ¶denecek
Ġdengesini
YalnÄ±z
Ġbazda
Ġgam
ĠArjantin
ekÃ¶y
BR
ĠÄ°LE
ĠYahya
ĠyÃ¼zÃ¼nde
Ġinovasyon
Ġetkisinin
ĠgittiÄŁimiz
Ġ1987
Ġbenimsen
ĠRay
ĠdÃ¶neminden
Ä±mdaki
oÄŁa
Ã®s
ĠbaÄŁlamÄ±nda
ĠÃ¼zerini
ĠkÄ±sÄ±mlarÄ±
ememesi
Ġdilin
ĠÅŁubesi
ĠMuhammet
ĠgÃ¶sterilir
ĠMutf
ĠErgenekon
ĠSeks
Ġdaki
ĠgeliÅŁmesine
ĠsoykÄ±rÄ±m
ĠNokt
ĠkarÅŁÄ±lay
ĠHome
Ġtasfiye
Ġisraf
ĠtanÄ±r
iliyordu
ĠhaftasÄ±
ĠSorumluluk
ĠiÅŁinizi
ĠArÃ§elik
ĠokunmasÄ±
ĠÃ§alar
ulacaktÄ±r
ĠÃĸlÃ¼
ĠArkadaÅŁlar
ĠHÃ¢
ĠVÃ¼cud
Ġyin
gÄ±m
aÄŁÄ±mÄ±z
Ġfaydalanmak
ĠHilmi
rev
latÄ±n
ĠHattÄ±
Ġkanunu
GA
ĠhesaplanÄ±r
Hemen
ĠHalkla
ĠflaÅŁ
ĠÃ§oÄŁunun
Ġmukav
Ġerkekleri
ĠyapÄ±lÄ±p
Sistem
ĠÃ¶lmÃ¼ÅŁ
ĠgerÃ§ekleÅŁtiÄŁi
ĠYAZ
Ġyumruk
ĠÃ§Ä±t
Ġilmi
tihat
Ġsaklama
Ġolaydan
Ġevinize
ĠkarÅŁÄ±laÅŁtÄ±rma
Del
Ġlast
Ġhissettim
lemeleri
ĠyapÄ±lmalÄ±
Ġkarakterini
ĠDavet
Ġfaizi
Ġsalonda
ĠAkÄ±l
ĠKorkut
Ġaileye
ĠÃĩaÄŁlayan
ĠFars
ĠÃ§Ä±kararak
ĠtÃ¼keticiler
ĠRenault
ĠdÃ¼zenlenir
back
ĠincelendiÄŁinde
Ġzat
ĠÅŁuur
ĠaÃ§Ä±kladÄ±ÄŁÄ±
ĠhayatÄ±nÄ±zda
ĠarkasÄ±
Ġedilmeye
nut
ĠAll
ĠfÄ±rtÄ±na
akta
Ġteps
ĠdeÄŁiÅŁime
ĠMaalesef
isiyat
ĠsaÃ§lar
itaban
ĠYedi
Ġanestezi
Ġbelirleme
ĠResulullah
ĠtanÄ±ÅŁtÄ±r
ĠarttÄ±kÃ§a
Ġkopyal
ĠuygulayÄ±n
ĠÃ¶ÄŁrenen
Vali
Ġservisleri
Ġpaketleme
ĠyÃ¼rÃ¼yerek
ĠtÃ¼rÃ¼ne
ĠÃ§evrili
ĠhalkÄ±mÄ±zÄ±n
Ġkutluyorum
ĠeÅŁyalarÄ±n
Ã¼mr
ĠPoÅŁ
ĠÃ§arÅŁÄ±
ĠhayatÄ±mda
aker
iliyorsunuz
ĠmanzarasÄ±
Ġkanalizasyon
ĠDanÄ±ÅŁmanÄ±
cess
Ġkonsolos
Ġonca
ĠdeÄŁerlendirmeye
Ġaskerlerin
ĠSAÄŀ
ĠÃ¼stÃ¼nlÃ¼k
ĠkostÃ¼m
ĠLo
ĠÃ¼nitesi
ĠkarÅŁÄ±laÅŁÄ±lan
Ġvergiler
ĠGold
Ġtemenn
ĠÃ¶denek
ĠgeÃ§tim
Ġyanma
ĠmaÃ§lar
ĠPolitikasÄ±
Ġfiber
ĠdediÄŁini
ves
ĠÄ°Ã§erik
Ġgelme
ĠHristiyan
ĠnoktayÄ±
mahalle
ĠokumuÅŁ
ĠeÅŁcinsel
ĠiliÅŁkiyi
ĠHÄ°ZMET
ĠaÃ§maya
Ġ220
ĠmÄ±ydÄ±
ĠÃ¶lÃ¼mÃ¼nden
Ġsoyun
idim
Ã¼nÃ¼zÃ¼n
Ġbakla
ĠsabahÄ±
rosk
ĠbulamadÄ±m
Sultan
ĠOlmak
Ġdemiryolu
Ġhekt
sub
Ã¼vekk
ĠTemizliÄŁi
ĠuygulanmaktadÄ±r
iklik
Ã¶lÃ§
Ġdevletlerin
dÃ¼rÃ¼lebilir
Ġburalarda
ĠEsra
Ticaret
Ġanormal
roz
Ġuygunluk
ĠDolarÄ±
ĠEÄŁit
ĠakÄ±mÄ±
kÄ±s
uÅŁta
Ġokundu
ology
ĠkahramanÄ±
ĠÃĸncesi
Ã¼yorlar
cus
bre
Ġizleyerek
Ġbiriyim
ĠtakÄ±n
ebildiÄŁi
Ġkilometrelik
CH
Ä±mlarÄ±
ĠbulmasÄ±
ĠilÃ§enin
Ġborsa
Ġterapi
***
ciye
ĠkullanÄ±cÄ±sÄ±
letme
Ġbecerilerini
ĠtopraÄŁÄ±
Ġseferleri
Ġkadroya
Zeytin
ĠALI
cÃ¼m
olf
Ġdemeden
loud
Ġdownload
ĠKÄ±rklareli
ĠVAR
ĠEngelli
Ġrend
Ġengelleyen
Bilgi
ĠKub
Ġodun
Ġtepe
otok
ĠtaÅŁÄ±nÄ±r
Ãĩift
ç¥
ĠyÃ¶netmenliÄŁini
ĠarttÄ±rÄ±r
mp
uyo
ĠÃ¶dÃ¼llÃ¼
ĠNO
ĠOral
ĠyaptÄ±ÄŁÄ±nÄ±zda
Ġdiri
ĠmÃ¼dÃ¼rleri
ges
ĠÃ¼reme
ĠSahaf
ven
liliÄŁine
ĠaltyapÄ±sÄ±
lie
ĠYalnÄ±zca
alÄ±ÄŁa
ĠtuttuÄŁu
ĠkÄ±zart
iymiÅŁ
ĠTarsus
ĠayrÄ±lmak
Ġparke
ĠParlament
Ä±ndak
badem
BÃ¼yÃ¼kÅŁehir
ĠayrÄ±ÅŁtÄ±r
ĠiÅŁlemine
Ġgazetecilerin
YT
ĠuÄŁraÅŁan
sizliÄŁi
ohum
ĠneÅŁeli
Ġbatarya
Ġsilikon
ĠÃ¼retken
Ġiyiydi
Ġyenerek
ĠMesih
Ġzav
New
HDP
ĠsÃ¼reler
Ġsempat
Ġmalzemenin
ĠbaÄŁlantÄ±larÄ±
Ġordusunun
ĠhatÄ±ra
Ã¢nÃ®
ĠajansÄ±
Ġbeklentilerini
ĠendÃ¼stri
ĠsÄ±yr
isidir
ĠOlsun
âĦ¢
ĠgÃ¶nderir
ÐµÐ½
ĠsÃ¼rerken
Ä±Ä±
ĠHAY
Ġizleyici
ĠDosya
ĠiÅŁinde
Ġuygar
kadÄ±n
Ġstop
ĠolmalÄ±sÄ±nÄ±z
Ġilmek
Ġradyasyon
Ġpozisyonu
ĠkarÅŁÄ±laÅŁacak
ikiloc
uawei
ĠUniversit
YP
ĠbÄ±rakmÄ±ÅŁ
Ġisterler
remit
ĠÃ§ekecek
ĠTil
ĠrahatlÄ±ÄŁÄ±
bÄ±
ĠhÃ¼kÃ¼mdar
ĠkÄ±ÅŁkÄ±r
agen
ĠkavramlarÄ±
ulmamalÄ±dÄ±r
https
Dep
ĠÄ°malat
Ġmuhtelif
SavaÅŁ
Ġkaliteyi
Ġgaf
Ġklavye
ĠgÃ¶zÃ¼yle
Ġbirisinin
KÄ±ÅŁ
Ġyapabilirim
ĠvarlÄ±klar
Ġput
Ġkatan
ĠgerÃ§ekleÅŁtirilir
Ġekiplerince
uu
ĠtuttuÄŁ
Ġliberal
FT
ĠSoma
Ġkombine
ĠpatlayÄ±cÄ±
ĠiÃ§erisinden
Tal
ĠiliÅŁkinin
ĠyoÄŁunlaÅŁ
ĠseÃ§imlere
alÄ±cÄ±
ĠÃ§iftlik
Ġteknolojiye
ĠSadÄ±k
ĠÃ§alÄ±ÅŁÄ±lan
Ä°NCÄ°
lerimin
Ġkararla
Ġisteklerini
Ġgran
Ġboyan
ĠyaÅŁamayÄ±
Ġsorusunun
ĠKilo
Ġsonda
Ġbulunmaz
Ġistir
ĠkÄ±skanÃ§
ĠuygulamalarÄ±nÄ±
Ã¼leyici
ĠÅŀehirler
ĠortaklÄ±ÄŁÄ±
Ġavrupa
GUL
Ġnetice
ĠHÃ¼lya
ĠkÄ±za
ĠyapmaktayÄ±z
ORT
ĠyaparÄ±z
Ġhizmetinizde
ĠÃ¶mrÃ¼nÃ¼
ĠAyar
ĠvatandaÅŁlarÄ±mÄ±z
Ġkesen
uÃ§uk
Ġmahallesinde
Ġdirenc
ĠdeÄŁerlendirilir
MuÄŁla
ĠLinux
Ġyollarda
emezler
Ġvaziyette
ĠHavuz
ady
Ġmisali
Ã¢ni
list
ĠLuc
BÃ¶ylece
ĠliteratÃ¼r
ĠKulak
ĠMÃ¼lk
Ġakabinde
Ġsistematik
Ġamaca
Ġhizmetlerinde
ĠalÄ±nmaktadÄ±r
basyon
ĠÃĸk
ĠÅŁÃ¶len
ĠFazÄ±l
Ġog
ĠyÄ±lÄ±ndaki
ĠNefes
Ġgerginlik
Ġolacaklar
ĠmÃ¼cadelesinde
Rek
Ġsebeplerden
ĠbaÅŁlangÄ±Ã§ta
ĠdeÄŁiÅŁmez
Arap
ĠÃ¼stÃ¼nlÃ¼ÄŁÃ¼
Ġyalvar
KiÅŁisel
ĠtalimatÄ±
Ġolim
ĠrahatsÄ±zlÄ±ÄŁÄ±
Ġfilme
ĠDolandÄ±rÄ±cÄ±
run
Ġbira
ĠgeÃ§irme
ĠedildiÄŁinde
Ġkokt
ĠÅŀirketin
Ġdiplomatik
ĠUygulamasÄ±
Ġkategori
ĠÃĸÄŁrenme
ĠkesiÅŁ
ĠÃ¼zÃ¼nt
ĠsÄ±zdÄ±r
GÄ°
ĠyandaÅŁ
ĠhÃ¼creler
Ġonlarda
Ġoteli
Ġ1982
ĠtaÅŁlar
Ġablam
Ġelleri
ĠayÄ±rmak
Yas
ĠLakin
ĠdeÄŁiÅŁtirerek
olap
ranÄ±ÅŁ
ĠkÄ±sacasÄ±
Ġkamusal
Ġkurup
ĠSitemizde
ĠZen
Ġyudum
Sab
ĠaÃ§Ä±klar
ĠCenk
ĠNov
ĠboÅŁuna
ĠBrun
ĠayrÄ±mÄ±
ĠyanÄ±tÄ±nÄ±
ĠsaÃ§larÄ±
Ġmalesef
ents
Ġfilozof
Ġuygulay
ĠdaÄŁÄ±nÄ±k
muh
lÃ½k
ĠHisar
ĠbuzdolabÄ±
ĠTÃ¶ren
Ġmanev
ĠgÃ¼cÃ¼n
MP
ĠVenedik
tÄ±ysa
Ġvekili
Ġasistan
ĠsaygÄ±yla
ĠTAN
ĠgÃ¶nderen
Ġ1988
ĠÅŁartlara
Ġhukukun
Ġiphone
bor
.]
Ġilla
ĠparÃ§acÄ±k
ĠDÃ¼nyadaki
SeÃ§im
ĠilÃ¢h
iva
obet
Ġhalindeki
ross
ĠgÃ¼ndemi
Ã¼zzaman
Ġtahakkuk
ĠAlma
ĠhastalÄ±ÄŁÄ±nÄ±n
Se
ĠKartÄ±
Ġkabak
Ġlokasyon
ĠÄ°rfan
idem
ĠMeyve
ĠkurumlarÄ±nda
LÄ°ÄŀÄ°
ĠMB
ĠsanatÃ§Ä±lar
Ġaidat
ĠÅŁant
Ġbilmeden
ĠseÃ§tiÄŁiniz
ĠstatÃ¼
Ġbilimi
ĠFerhat
ĠkimliÄŁini
Of
BalÄ±kesir
ĠKe
Biraz
ĠÃ¶lÃ§ek
ĠdÃ¼ÅŁÃ¼nmeden
ĠalÄ±ÅŁveriÅŁi
abilecektir
ĠAlem
Ġboks
ALIÅŀ
ĠDosy
bl
ileceÄŁimiz
ĠdeÄŁerlendirmeler
ĠÃĩarp
Yerel
Ġyenilikler
ĠzekÃ¢
ĠhaftadÄ±r
ĠgerÃ§ekleÅŁtirecek
ĠSorumlusu
ĠÅŀafak
ezyum
ĠSabri
ĠIÄŁdÄ±r
ĠsektÃ¶rÃ¼ndeki
ĠhesabÄ±nÄ±za
ĠiÅŁkenc
mesidir
doÄŁru
ladÄ±klarÄ±
inan
Ġsporcular
TML
ĠaradÄ±m
ĠÃ¶ÄŁrenmiÅŁ
ĠuÃ§ur
uver
ĠtÃ¶rende
olarÄ±
ĠyakaladÄ±
ĠDoÄŁalgaz
Ġisterdim
Ġeylemleri
ĠÅŁubat
Ġsecde
ĠfÄ±s
oparlÃ¶r
ĠduyduÄŁum
Ġfantastik
Ġhazir
Ġimtihan
Ġayarlar
ĠJose
ĠbÃ¼yÃ¼kÅŁehir
Ġ101
Ġdestekliyor
ĠSnap
ĠtÃ¼ccar
este
ĠReis
ĠSezer
ĠÃ¶nleyici
opsi
ĠLCD
Ġtertip
ĠayrÄ±lmasÄ±
ĠKulÃ¼b
ĠSicil
ĠAlÃ¼minyum
ĠaraÃ§ta
edeb
Ġpsikoloj
Ġizleri
RC
otoshop
ĠmalÄ±n
reni
OLOJ
Ġflash
ĠduyduklarÄ±
ĠAngeles
ĠDeste
ĠÃ¶ÄŁlen
ĠardÄ±na
ĠsahipliÄŁinde
ĠFederal
ĠÅŁampuan
ĠyarÄ±ÅŁmaya
ĠyanÄ±tÄ±
ĠaÅŁaÄŁÄ±dakilerden
nia
selen
Ġgezilecek
Hast
ĠmasraflarÄ±
Ġbiraraya
Ġdavul
Ġkurar
Ġkuzu
ĠbuluÅŁuyor
ĠBazÄ±larÄ±
anlÄ±ÄŁÄ±na
Ãĩevre
ĠkiracÄ±
Emek
Ġjet
ĠUygur
Ġhapishan
ĠTech
ĠSalonunda
ĠsayÄ±labilir
muyorum
ĠgÃ¶sterildi
Bende
dv
ĠarkadaÅŁÄ±nÄ±n
ĠÃĩÄ±kÄ±ÅŁ
ĠmÃ¼slÃ¼m
Ġbakma
Ġsistemli
Ġmodelin
ĠFri
Ġtemelli
ĠkapÄ±lar
ĠGÃ¶revlisi
Ġantika
Ders
ĠÅŁekilleri
Ġtestler
Ġgu
Ð²
ĠgÃ¼neyinde
Ä±ÄŁÄ±n
Don
ĠayÄ±k
ĠAntalyaspor
Ġhastalara
ĠÃ§alÄ±
Ġkore
ĠyazlÄ±k
ĠyÃ¼rÃ¼tmek
???
duÄŁunuzda
selam
Ġarayabilirsiniz
ĠyaÅŁÄ±ndayken
Ġdesenli
ĠgÃ¶nderilmesi
ĠyazÄ±ya
Ġdublaj
ĠoluÅŁturulur
ĠgÃ¼zelce
ĠkitabÄ±nÄ±n
para
abÄ±n
efabrik
Ġklavy
Ġkendimiz
ĠtahÄ±l
mÃ½Ã¾
ĠgeniÅŁliÄŁi
ĠSuriyel
ĠMeb
ĠMÃ¼ÅŁavir
Adam
ĠbÃ¼yÃ¼kel
ĠayrÄ±larak
ĠoluÅŁturmaya
ĠbazÄ±larÄ±nÄ±n
ĠÃ¶dÃ¼lleri
ĠtereyaÄŁÄ±
ĠDÄ±ÅŁÄ±
umaÅŁ
ĠPsikolojik
Ġbayi
ĠdeÄŁiÅŁikliÄŁe
ĠKeÃ§i
ĠÃ§abalarÄ±
Ġadi
ĠFM
ĠyapÄ±lmakta
ĠMÃ¼ÅŁteriler
Ġmilletinin
Ġdesteklenen
ĠSaman
Ġbulunup
ĠKaptan
Ġveli
ĠarkadaÅŁlarÄ±yla
ĠsayfamÄ±zda
elendirme
ĠmÃ¼fredat
ĠolduÄŁun
ĠOkyan
ĠdÃ¶nerek
ĠilÃ§esinin
ĠkarÅŁÄ±laÅŁtÄ±
ĠyaÅŁtan
Ġtabloda
ĠÃ§Ä±rpÄ±n
ĠKablo
ĠrakamlarÄ±
ĠkaldÄ±rÄ±lan
Ġdenizin
PU
Ã¼ret
ĠorganlarÄ±
ĠbitiÅŁ
ĠgeÃ§mesine
Ġhedeflerine
sÃ¶rÃ¼
ĠÃ¼yelerinden
ĠJean
Ġdeneyimini
Ġhile
ĠSÄ±rbistan
ĠgÃ¼bre
Ġoff
ĠÃ¶ÄŁretmenin
GÃ¼nlÃ¼k
ĠyÄ±ldÃ¶nÃ¼m
aye
ĠyasaktÄ±r
ĠFIFA
Ġduru
________
Ġseo
Ġtakviye
ĠkirliliÄŁi
ĠkalmamÄ±ÅŁ
ĠFidan
ĠÃĩatÄ±
ĠvereceÄŁini
ÃľT
ĠsaÄŁlaya
ĠKOSGEB
ĠLiman
Ġhuzuru
vaz
ĠÃ¼lkelerinden
ĠÃľlkemizin
ĠhergÃ¼n
Ġtertemiz
ĠMÃ¼kemmel
ĠtiÅŁÃ¶rt
ĠgiriÅŁimcilik
ĠtopluluÄŁu
Ġdemokrasinin
Ġotellerde
ĠrÃ¼ÅŁvet
ĠChi
ĠdeÄŁerlerine
Ġistiyordum
Ġkiralamak
Ġbilgisayara
homas
Ġailesini
CK
ĠVil
ĠBakanlÄ±ÄŁÄ±na
.),
Ġfikrini
ĠMAL
Gar
ĠasÄ±llÄ±
Port
SarÄ±
ĠetmemiÅŁ
Ġerdem
Ġkesilir
Ġriskleri
ĠÃ§oÄŁunu
Ġishal
Ġ1974
Ġhususta
Ġbelirsizlik
Ġsitelerinden
ĠÄ°negÃ¶l
ĠSevgiler
Ġbedelinin
azin
Ġdantel
Ġgelmesiyle
Ġkoruyor
ĠÃ§Ä±karsa
ĠÄ°lanÄ±
Star
ĠTÄ±r
ĠfÄ±rÃ§a
etti
ĠakÄ±
Ġharekat
kend
Ġbent
Ġbekleyin
ĠaraÅŁtÄ±rmalarÄ±
Zaten
ĠbayaÄŁÄ±
ĠÃ§eÅŁitliliÄŁi
ĠÃ¶rtÃ¼sÃ¼
ikten
ĠsÄ±rrÄ±
Ġsitenizin
Ġezan
iyseniz
ĠyaÄŁÄ±ÅŁÄ±
ĠÃ¼zÃ¼cÃ¼
Ġdeterj
Ġenjeksiyon
ĠEtti
ĠFal
ĠiliÅŁkilerinin
osmanpaÅŁa
ĠaÅŁamasÄ±na
0000
Ġisimlendir
ĠbaÄŁlar
ĠahlÃ¢k
ĠtaraftarÄ±
ĠsaÃ§lÄ±
PA
eet
durma
ĠhazÄ±rda
ĠtamamÄ±na
Ġsevindim
Ġgereklilik
Ġ050
Ġparasal
ĠtanÄ±yor
Tat
ĠbaÅŁÄ±ndaki
ĠkabulÃ¼
Ã¶zellikle
Ġyenilenebilir
ĠkutladÄ±
Ġmevkiinde
ohut
×Ĺ×Ĺ×Ĺ×Ĺ
ĠyeryÃ¼zÃ¼nde
tina
Ġturistlerin
lamayacak
ĠÅŀeri
ĠgerÃ§ekle
ĠmÃ¼dÃ¼rlÃ¼ÄŁÃ¼
ĠyapÄ±lmaz
Ġmenkul
ĠkullanÄ±p
ĠdavranÄ±ÅŁÄ±
ramvay
Ġlob
Ġedeceklerini
Ġteyz
ĠkatkÄ±lar
ĠSovyetler
Senin
ĠgerekÃ§esi
Ġkarakterler
talay
pool
ĠserÃ¼ven
Ġkaybolan
ĠkarÄ±ÅŁtÄ±rarak
ĠduyduÄŁumuz
ĠkonuÄŁu
web
ĠÃ§ocuklarÄ±mÄ±z
Ġskandal
dece
ĠPaÅŁ
ĠsloganÄ±yla
Ġmevduat
Ġhizmetinde
ĠÃ¼niversitelerin
CÃľ
Ġevini
ĠLoto
ĠdanÄ±ÅŁmanlÄ±ÄŁÄ±
ĠkoÅŁullarÄ±nÄ±
Ġnaf
dk
ĠErgen
Ġbinada
ĀĀĀĀ
ihat
ĠbarÄ±ÅŁÄ±
Ġ`
ĠBayanlar
ĠzararlarÄ±
ĠSÃ¼resi
ĠÃ¼lkemizdeki
itme
Ġbendi
Ġtarihlerde
Ġtamamlayarak
ĠOtelleri
Ġ5000
ĠaÃ§Ä±lÄ±ÅŁÄ±nÄ±
ĠdeÄŁiller
Ġlezzeti
ĠGÃ¼cÃ¼
ĠaraÃ§larla
tica
ebileceÄŁimiz
ĠÃ¼retmeye
ĠmÃ¼ziÄŁin
Ġtekel
ĠkabÄ±z
ĠHeyeti
ĠsanÄ±ÄŁÄ±n
ĠolasÄ±lÄ±ÄŁ
ĠRiz
Elbette
ĠYaprak
ĠYÃ¶neticisi
ĠkafasÄ±nÄ±
ĠYalan
ĠErhan
ĠdeÄŁiÅŁtirdi
ĠMezun
Ġistemektedir
Ġpenis
ouch
ĠÄ°lÃ§esinde
ĠyapÄ±ldÄ±ktan
tanÄ±
aktadÄ±r
ĠMelik
ĠSÃ¶zler
ĠSaÄŁlam
ĠsalonlarÄ±
Ġfaaliyette
Ġbodrum
layt
ĠMES
Ġistersen
fiyat
ĠedinmiÅŁ
ĠÃ¶zgÃ¼rce
ĠÃ¶nler
MASI
ĠÃ§evrim
ĠyÃ¶nlendirme
Ġprat
ĠyapÄ±yorsunuz
ĠMÃ¼dÃ¼rlÃ¼ÄŁÃ¼nÃ¼n
ĠsÄ±nÄ±fÄ±nÄ±n
Ġerg
ĠmaÃ§Ä±na
Ġ105
MEN
Murat
ĠÅŀuan
ĠanlaÅŁÄ±lmaktadÄ±r
rica
Ġtasavvuf
anma
ĠiÃ§lerinde
ĠDN
misiniz
ĠKrallÄ±k
ediÃ¼zzaman
ĠKES
ĠBilge
Ġtembel
()
reat
ĠFÄ±rÄ±n
ĠÃ¶g
ĠSuyu
ĠEÄŀÄ°TÄ°MÄ°
astro
ĠdÃ¶nÃ¼ÅŁÃ¼r
Ġkesip
Ġevimde
ric
Ġgerisinde
ĠDokuz
Ġhit
Ġgezen
Ġrezil
ĠbÃ¶r
ĠKÃ¶se
ĠarkadaÅŁlarÄ±n
landiya
layabiliriz
Ġinek
ĠaraÃ§larÄ±nÄ±
ĠSibel
Ġrap
Ä°NÄ°
ĠparÃ§al
Ġdesem
Ġzil
Ġvermeniz
Ġaskerin
iew
ĠyapsÄ±n
ĠLat
Ġhuzurunda
ĠuyarÄ±sÄ±
ĠOrtaokul
Ġleke
Eb
Ġmagaz
Ġprotez
Ġ1080
ĠAltan
Ġplatformda
Ġkorunmak
ĠgereÄŁini
Ġkartal
onder
ĠMevzu
Ġmarif
ĠkÄ±yÄ±sÄ±nda
Ġflor
Ġgerekirken
ĠoluÅŁtuÄŁu
ĠBeb
ruÃ§
ĠYapan
Kahraman
Ġmama
ĠÅŀehrin
ĠMÃ¼c
Ġfaaliyetlerin
ĠyatÄ±rÄ±mcÄ±lar
ĠÄ°lkokul
ĠedeceÄŁiniz
ords
ĠbaÄŁlanan
Ä±rsanÄ±z
Ġdilimi
Ġgasp
ĠkaynaklarÄ±nÄ±
ĠerkeÄŁi
Ġlisteye
Modern
Ġkalitesinde
iskÃ¼v
Ġtemizlemek
ĠetmediÄŁi
Ġ1984
Ġmuvaf
ĠKentsel
ĠartÄ±ran
Ġbildiri
ĠatÄ±lmasÄ±
ĠtutuÅŁ
ĠkÄ±lar
ĠkapattÄ±
dayet
ĠpazarlÄ±k
ĠaksesuarlarÄ±
ĠKalb
ĠPanel
ĠSaha
ingle
Ä±yÄ±k
Ġemsal
Ġtalip
ĠbÃ¼nyesindeki
Ġvermekten
ĠreÃ§et
End
ĠYaratÄ±cÄ±
Ġyarayan
ĠSergi
ĠÃĩubuk
ĠmÃ¼hendisi
ĠdeÄŁerlendirmesinde
ĠHalkÄ±n
Ġelektri
ĠHÃ¼r
ĠAni
Ġraporunda
Ġtakiben
Ġkoyma
ĠtoplanmasÄ±
ĠdirektÃ¶rÃ¼
ĠÃĩekil
Ġdokunun
Ġadapte
Temel
tt
okal
ĠgeÃ§miÅŁten
dullah
Ġtaslak
Ġevlenme
egen
CAN
ĠyatÄ±rÄ±mlarÄ±n
ĠBaÄŁcÄ±lar
ĠÃ¼rÃ¼nlerinde
Kredi
Ġsekreter
dinin
ĠmÃ¼ÅŁterek
adiye
ĠHerkese
ĠÄ°TÃľ
Ġmektub
ĠsaÄŁlandÄ±
Ġnedenler
Ġvekalet
Ġorgaz
Ġerotik
ĠÃ§orbasÄ±
ĠBuh
Ġkonfer
ĠFÄ±ndÄ±k
ĠgeÃ§iriyor
Ġsiyaseti
Ġistemiyoruz
ullahÃ§Ä±
Kut
ĠyaÅŁamÄ±na
ĠyatÄ±rÄ±mcÄ±larÄ±n
ĠazaltÄ±lmasÄ±
ĠJava
itenin
ĠbrÃ¼t
ĠKeÅŁke
ĠBeklen
Ġtutacak
baa
Ġaktarma
Ġpeyniri
EA
ĠgÃ¶sterdiÄŁini
ĠzenginleÅŁtir
imizdir
Ġokullara
ĠbinasÄ±nÄ±n
ĠgÃ¶rÃ¼lmeye
latÄ±cÄ±
ĠAllÃ¢h
Ġbirbirimize
Ġisteyebilirsiniz
ĠyolculuÄŁa
Enerji
EX
Ġzirveye
ĠhÃ¼rmet
ĠEserleri
Ġyatakta
ĠSÄ±ra
ĠmÄ±sÄ±n
Siyah
Ġdiken
ĠimzasÄ±
Ġtokat
BAÅŀ
Ġetkiye
iÅŁsel
Ġetmemek
ĠYenilik
Ġhastal
ĠErbakan
oton
ĠbulunmamasÄ±
Ġmilyondan
inko
Ġdemokrat
tiyaz
ĠgÃ¼vende
ĠIntel
ĠMih
Ġcinsellik
ĠÃ¶nyar
Ġorkest
Ġverebilmek
Ġetmektedirler
ĠKaldÄ±
MaÃ§
Ġkarton
Vak
ĠÃ¼stÃ¼nden
Ġkarabiber
Ġpalet
Ġdinlet
ĠduvarÄ±
ĠkullanÄ±lmalÄ±dÄ±r
oe
Ä°NDE
ĠÐ²
ĠyapÄ±mÄ±na
Ġkitaba
Ġpsikoloji
Elektrik
kg
ĠÃ¶rgÃ¼tlerinin
ĠbaÅŁÃ¶rt
ĠhazÄ±rlayÄ±p
ĠGÃ¶rmek
ĠÃ§aÄŁÄ±n
Ġekosistem
Ġkonsep
dÃ¼ksiyon
ĠtoplayÄ±p
ĠÃ§eÅŁitlilik
ĠodalarÄ±nda
Ġnelere
ĠÅŀirin
Ġmutabakat
sizce
irme
Ã¼ms
Ġpatlat
ĠalacaklarÄ±
Ġisteniyor
Ġtoplar
yaÅŁÄ±
Ġout
Ġdenklem
ĠaÄŁaÃ§larÄ±
Gece
ĠÃ¶ÄŁrenir
ĠcansÄ±z
ĠRoy
ĠDÃ¼zenli
atch
eman
mÃ¼z
anlÄ±lar
ĠediyorsanÄ±z
ĠLap
ĠKiÅŁinin
Ġmamul
ortis
ĠÃĸden
ĠvarÄ±ÅŁ
unuzla
ĠYapÄ±lÄ±r
BaÅŁka
Ġinceler
tain
ĠEsenyurt
Ġdirenci
Ġnedenini
yur
alÄ±nÄ±n
Ã¾Ã½
Ġsepet
ĠpÃ¼f
ĠgÃ¶rmeden
ĠalÄ±nmak
Åŀah
orf
ĠgÃ¶tÃ¼ren
ĠadaylÄ±ÄŁÄ±
ĠdolaÅŁan
eceÄŁin
ĠBabam
ĠgiriÅŁiminin
ĠfÄ±rlat
ĠÃ§iftÃ§i
ĠgÃ¶revliler
ĠKadro
grad
ÃľLT
ĠkÃ¼Ã§Ã¼lt
Ġzehirli
ĠhayatÄ±mÄ±zda
ĠlisanslÄ±
ĠyÃ¼rÃ¼tme
ĠEden
ĠkaynaÅŁ
ĠkapatÄ±n
Ġyanan
ĠduyduÄŁunu
ĠanlatÄ±rken
Ġkatmak
Ġbankaya
Ġsosyo
ĠfiyatÄ±nÄ±n
Ġyenilg
ĠalkollÃ¼
ĠMuk
Bek
ĠgÃ¶rÃ¼ÅŁÃ¼nÃ¼
ĠSahibi
hav
ĠTunus
Ġgayreti
Ġmuhabirine
Ġdoldurarak
Ġzarara
ĠDat
ĠUnited
ĠEkmek
Normal
Ġanlatacak
Ġpartiye
Ġyerdir
Ġthat
Ä°SK
ĠGER
Ġsendromu
iyaz
Ġboylu
ĠPeter
ĠÃľlker
ĠuÄŁradÄ±
elerinizi
mann
ĠprogramlarÄ±nÄ±n
Ġeki
mayacaÄŁÄ±z
Ġsevenler
ĠNurettin
oke
ĠAH
ĠFevzi
ehlivan
edit
ĠMerak
saydÄ±
Ġyoksulluk
unus
ĠseÃ§ebilirsiniz
Ġbeyannam
ĠdinÃ®
MÄ°R
ĠMÃ¼hendisleri
ĠdeÄŁerine
ĠgÃ¼nÃ¼nden
Ġokuyu
ĠdolarÄ±n
ĠZinc
yorum
ĠlÃ¼z
ĠYavaÅŁ
Ġokuyorum
TD
eyiniz
ĠÑģ
MÄ±sÄ±r
ĠbarÄ±n
Ġbozan
001
ĠLideri
Ġnispeten
ĠkullanÄ±yoruz
ĠAsla
chan
ĠHarika
Ġkavramlar
Ġbulunuyordu
ĠOrgeneral
ĠkÄ±rÄ±klÄ±ÄŁÄ±
ĠÃ§Ã¶zme
ĠUp
ĠAlbÃ¼m
ĠsÃ¼
nar
ĠÃ§ekmektedir
Ġverilmelidir
ĠÄ°nceleme
iyy
Ġoysa
ĠyÃ¶netime
ĠÅŁÃ¶hret
ĠgÃ¶lge
feti
Ġsevinc
ĠForex
ĠtakÄ±mÄ±nÄ±
Ã¼nikasyon
ĠsÃ¼rerek
iyetine
Ġ1985
ĠplanlanÄ±yor
KuÅŁ
ĠYAÅŀ
ĠkalacaktÄ±r
Ġiddianam
Ġtefsir
ĠIMF
Ġrefakat
ĠolmayacaÄŁÄ±
ĠacÄ±k
amayacaÄŁÄ±nÄ±
ĠgeÃ§me
ĠBÃ¶lgede
Ġmakro
ĠdÃ¶nÃ¼mÃ¼
ĠvaroluÅŁ
TAÅŀ
ĠhÄ±zÄ±yla
ĠmÃ¼ÅŁterilerimiz
ĠKÄ±l
ĠoturduÄŁu
ĠmekanizmasÄ±
ï¼Į
Ġtahs
Tav
Ġkatal
ĠgevÅŁ
ĠÅŁekline
ĠyapÄ±ldÄ±ÄŁÄ±nda
ĠMalta
uza
Ġdostum
Ġihlali
Ġfaci
iliÄŁinin
ĠTescil
Ġkursiyer
tÄ±ÄŁÄ±mda
YaÅŁam
Ġtahrib
ĠÃ¶lÃ¼msÃ¼z
eride
ĠKafkasya
sterdam
ACAK
oin
ĠÃ§Ä±karmÄ±ÅŁ
Ġmerdiv
Ġdokunmatik
ĠdanÄ±ÅŁmanÄ±
Ġlitr
Ġrut
ĠAlternatif
ĠyaÅŁandÄ±ÄŁÄ±nÄ±
ĠÃ§anak
Ġtohumu
ĠÙħ
ĠÄ°nci
Ġokuyabilirsiniz
ĠLas
ICI
Ġistediler
Ġkampanyalar
mah
Ġkadin
ĠKarac
Ġcezai
lerimden
ĠgÃ¶b
Ġmaske
ĠGizlilik
ĠStep
itle
ĠdoÄŁusunda
Ã¼lat
yÃ¶n
ĠKandil
Ġmenz
leyeceÄŁiz
ĠiÃ§imde
ĠUyar
ĠakÄ±ÅŁÄ±nÄ±
Ã§er
ĠdediÄŁin
ĠyanÄ±ma
ĠÅŁablon
adamlarÄ±
lalar
Ġpersonele
ĠalmÄ±ÅŁtÄ±m
ĠCasino
ĠHemÅŁir
asyum
ĠÄ°S
Ġsiteden
Ġkonusunun
outh
ĠKitaplar
ovic
ĠtanÄ±dÄ±ÄŁÄ±
Ġebat
ĠAyvalÄ±k
ydÄ±m
ĠrektÃ¶r
ĠtopraÄŁÄ±n
ĠKedi
ĠTÃ¼z
âĢ¦âĢ¦âĢ¦âĢ¦
ĠKun
ĠYalÄ±
ĠKimyasal
ĠgeÃ§irmeye
ĠTurkey
ĠdÃ¼ÄŁÃ¼m
Birinci
Ġdiyal
imdir
ĠyÃ¶nÃ¼nÃ¼
ĠDeli
ĠolunmasÄ±
ĠSeÃ§me
ĠmÃ¼ÅŁrik
ĠeÄŁilimi
ĠaradÄ±
ĠGemi
Ġ1986
ĠKonfeder
ĠfiyatlarÄ±na
ĠTeor
ĠÃ§alÄ±ÅŁmalarÄ±yla
Ġgidebilir
Ġvizesi
ĠyeÄŁ
ĠmÃ¼esses
ĠUygu
tiÄŁin
Ġterminal
Ġmaliyetli
Lis
ĠKÃ¼rtlerin
ĠkÃ¢fir
ĠgÃ¶rÃ¼ÅŁmede
ĠsonuÃ§larÄ±n
ĠhÃ¼kmet
adin
Ġhijyenik
Ġdedir
ÅŁif
ĠÃ§alÄ±ÅŁtÄ±ÄŁÄ±m
ĠgÃ¶tÃ¼rÃ¼ldÃ¼
ĠÃ¼rÃ¼nlerine
YÃ¼r
sosyal
Ġgazetecilere
ãĢģ
leÅŁir
ĠSonu
ĠhoÅŁuna
ĠAnlaÅŁmasÄ±
Ġhediyelik
ekkÃ¼rler
ĠHazreti
Ġrastgele
ĠiyileÅŁtirme
AÅŁaÄŁÄ±daki
ĠMecl
Ã§Ä±l
Ġistemem
ĠÃĩalÄ±ÅŁmalar
ctr
ĠOlum
ĠaÄŁrÄ±larÄ±
dÄ±ÄŁÄ±mÄ±zÄ±
ULU
Ġdepartman
Ġedilirse
ĠgÃ¶nÃ¼lden
Oysa
Ġsayfaya
ĠkaldÄ±rÄ±p
ĠKapak
ĠAtina
ĠinsÃ¼lin
ĠZe
Sav
urn
Ġartik
Ġbelediyesi
ĠTOBB
ĠmallarÄ±n
esifik
ĠgÃ¼nlere
iyetinde
ĠalgÄ±lama
ĠcÄ±v
ĠÅŁartlarÄ±nda
ĠÃ§abalar
ĠolmadÄ±ÄŁÄ±nÄ±n
Ġenerjiyi
Ġrengin
ĠyalÄ±tÄ±mÄ±
casÄ±na
KÃ¼t
ĠNap
eyler
ĠEcevit
ĠtÃ¼keticilerin
ĠTy
Ġkesildi
Ġmerkezlerinden
ĠEsk
ĠMutlaka
ĠKiÅŁilik
ĠatÄ±lmÄ±ÅŁ
Ġdernekler
ĠyapÄ±labilmektedir
Ġatacak
Rabb
ĠGEÃĩ
ĠalmanÄ±n
ĠÃ¼reticiler
izasyonu
ĠKorunmasÄ±
ĠkavramÄ±nÄ±
Pay
Ġdengesi
ĠbaÅŁarmÄ±ÅŁ
ĠMerkel
ĠOluÅŁ
sanÄ±
Ġgeli
ĠhoÅŁgel
duc
ĠNecip
Ġfotokop
ĠBarosu
itlerin
ĠÃ§alÄ±ÅŁtÄ±klarÄ±
ĠYardÄ±mlaÅŁma
ĠhazÄ±rlar
lanta
ĠÃ¼lkesine
Ġprojelerini
ĠbilgisayarÄ±nÄ±za
ĠanlamÄ±ÅŁ
ĠÃĩorlu
ĠÃ¶ldÃ¼rmek
iren
ladi
ĠProblem
ĠsÃ¶ylenir
VatandaÅŁ
ĠipuÃ§larÄ±
Ġhavalarda
ĠSD
Ġakvaryum
ĠiÃ§eriye
ĠdiÄŁerine
sup
Ã¶ÅŁ
ĠyapabileceÄŁi
Ġsitelerin
lamasÄ±yla
ĠesasÄ±na
Ġteknolojiler
Ġtabiat
ĠPsikiyat
ĠÃ§evirdi
ĠÃ¼stÃ¼ndeki
ĠhiÃ§biri
ĠyararÄ±
Ã¢met
ĠGÃ¼nay
Ġoluyorsunuz
orth
Ġdevret
ĠÃ¶zelliklerinin
ĠkaldÄ±rdÄ±
Pet
ĠaÃ§Ä±lÄ±m
Ãĩay
ĠYÃ¶netici
ĠÃ¶lÃ§e
ĠkitaplarÄ±n
ĠyargÄ±la
ĠIz
ĠdÃ¶nemler
Ġyararlanabilirsiniz
ĠbaÅŁvurusunda
Ġkuyru
ĠMÃ¼hendisi
Ġmudur
ĠÄ°ktisat
Ġsitemizi
Ġadliyeye
ĠCum
ĠtamamladÄ±ktan
ĠbÃ¶lgesinden
Ġunuttur
Ġlenf
ĠyansÄ±dÄ±
ĠHouse
ĠkolaylaÅŁtÄ±rmak
ĠFilmler
ĠDÃ¼k
Pen
HS
Ġyetenekleri
ĠÃ¶nceleri
Ä±ntÄ±lar
ĠBerat
Ġveliler
ĠkiÅŁidir
Ġmanada
Ġibarettir
Ġyapmayan
ĠdavasÄ±nda
Min
ĠAÃ§Ä±klama
abiliyorlar
ĠHacettepe
Ġkesmek
rey
ĠyapÄ±sÄ±yla
Ġdevral
Ġyapabilm
ĠKralÄ±
ĠGreen
ranÄ±n
ĠiÃ§erikler
LEÅŀ
ĠBÃ¼yÃ¼kelÃ§iliÄŁi
iddi
ĠkÃ¶ft
lediler
imum
Ġfah
Ġmerteb
unuzdan
ĠÃ§Ä±kmadÄ±
Ã¢nÄ±n
Ġpankart
Ġedinen
Ġadresinize
ĠReÅŁ
Ġmax
ĠHadis
ĠyÃ¼zeyi
Ġhaberini
Ġiyim
ĠYerleÅŁ
ĠsanatÄ±n
ĠgÃ¶bek
ĠKamera
Ġdinam
ĠÃĩALIÅŀ
depres
ustin
temelen
Ġtarife
Ġsentez
ĠbaÅŁladÄ±ktan
ozom
Ġ1915
Bodrum
vey
ĠsÃ¶zlerle
elerimizin
ĠaÃ§tÄ±m
Ġsiyasetin
Ġtatbik
Ġback
Ã¼rkan
meyip
Ġtahminleri
Ġisterken
ĠHES
Ġtanesini
Ġolabilirdi
ĠBozkurt
ĠGÃ¼ngÃ¶r
Ġkaydedilir
ĠbÃ¶lÃ¼cÃ¼
olak
ĠKongr
ĠÃ§alÃ½Ã¾
Ġdiploma
Duy
Ä°HM
Ġufuk
ĠDoÄŁuÅŁ
ĠModeli
Ġailelerine
ĠYenik
ĠÃĩakmak
ðŁĳ
ĠkatÄ±lmasÄ±
ĠrolÃ¼nÃ¼
ĠÃ§eyr
atom
ĠSup
ercin
Ġdelalet
ĠVestel
Ġstratejisi
ĠÅŁanzÄ±m
ĠyÃ¶netmek
ĠsayfanÄ±n
ĠFl
Ġdedikleri
Ġsk
ĠkapÄ±dan
ĠhalkÄ±nÄ±
Ġvoleybol
ĠKerkÃ¼k
ĠyapacaktÄ±r
ĠFÄ±k
ĠMÃ¼nih
ĠÃ¶zver
ĠSertifik
Ã°u
ĠTahmin
Ġincelemeye
far
800
ĠsonlarÄ±nda
ĠsÄ±ralamasÄ±nda
Ä±lmayan
ĠVarlÄ±k
Ġsempozyum
!.
Ġender
oyol
Ġhesaplanan
ĠaÄŁustos
SÄ±nav
ĠgÃ¼cÃ¼yle
ĠaraÃ§lara
Ġpartil
ĠHesab
cat
Ġolanlardan
ĠDÃ¼ndar
ĠyemeÄŁe
ĠdÃ¶l
ĠhayatÄ±mÄ±zÄ±n
Ġsitelere
Ġfelsefesi
Ġmeyveler
ĠdÃ¶nÃ¼ÅŁÃ¼mÃ¼
ĠPot
Ġhepsine
ĠanlayÄ±ÅŁÄ±yla
field
Ġbatary
ĠstandartlarÄ±na
ĠÃľlkenin
Ġtabiri
å½©ç¥
ĠgÃ¶zÃ¼nde
ĠtÃ¼rÃ¼nde
HT
Ġfrom
ĠyaÅŁÄ±n
Ġkalitesinin
Ġbuyuk
Ġarda
ĠDerya
avig
Ġdarp
Ġelbiseler
Ùĳ
ĠiÅŁinin
ĠGÃ¼venli
Ġfran
Avust
ĠgeleceÄŁine
ĠdehÅŁet
ĠDP
ĠNiz
ĠyÃ¼zy
ĠyazÄ±ldÄ±
ĠmÃ¼ÅŁterilere
ĠyapÄ±sÄ±nda
Ġilimizde
eyici
ĠNeÅŁ
Ġtakma
ĠuzlaÅŁma
ĠfabrikasÄ±
Ġhareketinin
lerinizden
ĠyapmalÄ±
ĠeÄŁim
shop
HiÃ§bir
ĠÃ§alÄ±ÅŁmÄ±yor
ĠdÃ¼ÅŁÃ¼rÃ¼l
ĠTÃ¼p
ĠtanÄ±ÅŁmak
iralama
ĠihtiyacÄ±nÄ±n
iyal
Ġifadelerine
ĠÅŁirketlere
Ġbiriken
ĠkatÄ±lÄ±r
ĠyerleÅŁtirilen
Ġbitiyor
ĠGÃ¶rÃ¼nt
Ġvermesini
ĠiÅŁbirlik
Ġmagn
esiydi
ĠÃ§ekerken
deli
anÄ±larak
Ġgelmesine
Ġhesaplar
ĠprotokolÃ¼
ĠMilliyetÃ§i
Ġbirbiri
Ġanadolu
ĠgÃ¶sterileri
ĠtoplandÄ±
ANA
ĠkÄ±lÄ±yor
uhan
ĠalÄ±nmasÄ±na
ĠOyunun
ĠTaÅŁÄ±macÄ±lÄ±k
ĠÃĸrgÃ¼
ĠbalÄ±kÃ§Ä±
ĠyapÄ±lmamÄ±ÅŁ
ĠfÄ±rsatÄ±nÄ±
Ġoperasyonlar
Doktor
ĠyarÄ±yÄ±l
ĠyapÄ±yordu
ĠKULLAN
ĠveritabanÄ±
ĠyaÅŁanabilir
âĸ
ĠBosch
ĠOsmangazi
Ġmecr
ĠÅŁahs
ĠÃ¼rÃ¼ndÃ¼r
ĠgeÃ§irir
ĠÃ¶lÃ¼mcÃ¼l
Ġideoloj
ĠgÃ¶sterilmesi
ĠkarÅŁÄ±lanmasÄ±
Ġtemelde
ĠFiliz
ĠTac
ĠpaylaÅŁÄ±yor
ĠÅŀans
ĠkuralÄ±
ĠortalÄ±k
Ġiyiye
ĠtamamÄ±yla
ĠsÃ¶ylerken
ĠtasarÄ±ma
ĠyokmuÅŁ
ĠHollywood
Ġihtilaf
ĠAnkar
Ġpaf
ĠÃĩÄ±l
Bizler
Ġedilmekte
ĠgÃ¶rÃ¼ÅŁmesi
Ġhikayeler
ĠbeÄŁenilen
Ġparkur
Ġkola
ĠiliÅŁkilerde
Ġkaymakam
Ġ102
Do
ĠbulunmadÄ±ÄŁÄ±nÄ±
Ġkanuni
Mon
Ġkonur
ĠÅŁÃ¶yl
ĠÃ§alÄ±ÅŁanlara
Ġreyting
ĠdetaylarÄ±nÄ±
dÃ¼ÄŁÃ¼nÃ¼z
Ã¢li
Ġgazeteciler
ĠaÅŁamasÄ±
rov
ĠBarzani
ĠhastalÄ±ÄŁÄ±na
Ġcezaevine
ĠSÃľR
KO
idge
oÄŁlunun
ĠNeb
ĠbeÄŁenisine
ĠÃ§ember
ĠCav
Bize
ATA
ĠizlediÄŁi
ĠgÃ¶zlÃ¼
Ġresm
eÄŁer
ĠEdin
ente
ĠyarÄ±ya
Ġivme
Ġhizmetimiz
Android
Ġbitmez
ĠNumarasÄ±
Ġistemek
ĠKÄ±ymet
ĠManchester
ĠaÃ§Ä±lmÄ±ÅŁtÄ±r
Ġsantr
Ġedebilirler
ĠinanÄ±yor
yardÄ±m
Organ
Ġbinin
Ġengin
Ġsistemlerin
Ġdokunulmaz
ihazÄ±rda
ĠZayÄ±f
ĠartÄ±rarak
Ġtelafi
ĠÃ¶denir
ĠPin
dÄ±ra
ĠÙĪ
sefi
Ġkutlamalar
dili
Ġhallet
Ġbilirim
GÄ±da
ĠteÃ§hiz
ĠhasÄ±
ligat
manlarÄ±
ĠFant
ĠÃ¶ÄŁrencilerle
ĠparalarÄ±
bus
ĠHost
ĠOP
ĠAvrasya
Kurt
...)
ĠKÃ¼rtÃ§e
Ġaktiviteler
ĠgeÃ§mesini
ebilirsin
ĠadÄ±mda
hatsapp
DÃľR
ĠsÃ¼rÃ¼ldÃ¼
Ġfincan
ĠfelÃ§
ĠdeÄŁerlendirmelerde
ĠÃ¶ÄŁrencilerimize
dok
Ġirad
ĠÃ§ekmeyi
ĠDec
ĠdÃ¼ÅŁecek
ĠkitaplarÄ±nÄ±
ĠkullandÄ±r
ĠDersim
ĠYasemin
ĠhatÄ±rlÄ±yorum
ĠCa
Ãľniversite
ĠEnter
Ġtabur
Ä°KA
tayÄ±
ĠgeÃ§irmez
Ġpolisler
Ġtasvir
Ġbik
ĠbasÄ±nda
ĠÃ§Ä±ktÄ±ktan
Ġcezaevinde
ĠUR
ĠkoÅŁulu
Ġkuvvetleri
faz
ĠgÃ¶stergesidir
Ġmuamele
Ġdoruk
ĠyayÄ±mladÄ±
ĠLeon
ĠdÃ¶ÅŁeme
ĠaÄŁab
ĠkaÃ§tÄ±
Ġadaya
ĠadlarÄ±
ĠyapanlarÄ±n
Ġbakabilirsiniz
ĠuÃ§an
ĠMusul
ĠSait
Fiyat
ĠkazanÄ±n
Ġtemini
Ġrenklerin
ĠkapÄ±nÄ±n
Ġhayattan
Ġsenelik
ĠbÄ±rakÄ±lmasÄ±
ĠKavram
ĠTaz
esif
ðŁĴ
Ġsistemle
Ġbaharat
Ġkompozisyon
iÅŁte
ĠiÃ§im
ĠaÃ§Ä±lma
verdi
Ġkonsantrasyon
ĠsayÄ±m
ĠaÃ§Ä±klamak
Elektronik
Yum
ribÃ¼t
miÅŁtik
ĠÃ¶ldÃ¼ren
ayÄ±z
dÃ¶rtgen
ĠsÃ¶ylendi
ĠtutarÄ±nda
uku
ĠDemirci
ĠhÃ¢lde
ĠBilm
ĠcezalarÄ±
ĠGebelik
Ġimkanlar
åħ
Ġbilek
ĠSandal
Ġyetkilisi
ĠHAS
ĠatÄ±lÄ±r
ĠsektÃ¶rdeki
ĠkarÅŁÄ±ladÄ±
Ġkonumunu
ĠKonservat
lastik
Ġali
ading
Ġbilinmesi
ĠgeleneÄŁi
Ġepilasyon
pery
ĠAdan
Ġyokken
ĠyataÄŁa
ĠhazÄ±rlandÄ±
Ġhib
ĠTarÄ±k
ĠMÃ¼slim
ĠÄ°de
ĠCoun
mekÃ¶y
ĠÃľrdÃ¼n
Ġyuz
gor
ĠDUR
Ġhammadde
ĠBlok
arsa
ĠÃ§ocuÄŁunun
Ġsonunu
ĠJet
Ġhalkla
Ġsporu
ĠKÃ¼tÃ¼phanesi
Ġ128
Ġpiksel
ladÄ±ÄŁÄ±m
ĠHun
Ġhosting
Ãĸl
Ġbelediyenin
ĠadlandÄ±rÄ±lÄ±r
Ġgazetesinde
Ġvaad
Ġyetmiyor
Ġmahkemece
ĠÅŁarkÄ±yÄ±
ĠTehlikeli
Sanat
ĠalacaÄŁÄ±nÄ±
ĠÄ°ktidar
Ġresimde
Ã¼sÃ¼yle
Ġdos
ĠKaradaÄŁ
yafet
Ġwindows
ĠtuÅŁu
ĠbaskÄ±lÄ±
ĠExcel
Ġtesir
Ġmakarna
Ġakred
ĠMuhaf
Ġtesislerinde
Ġsuyunun
ĠToplant
Ġbeklenti
ĠAltyapÄ±
ĠilÃ§eye
ĠMuzaffer
Ġra
ĠÃ¼stlenen
ĠÃ§Ä±karlarÄ±
Ġberaat
Ä±ran
ronun
abiliyorum
Ġuymayan
Ġnamus
sane
Yemek
uer
ĠyapÄ±yÄ±
ĠtÃ¼mÃ¼ne
ĠBakÄ±n
ĠMim
Ġpiyano
ĠÃ§aÄŁÄ±rdÄ±
Ġekibine
ĠCeph
ĠUNESCO
ĠseÃ§erken
ĠkonuÅŁul
Ġevlenmek
ĠuÃ§aÄŁÄ±n
Ġmesafesinde
ĠnÃ¼fuz
ĠpaylaÅŁÄ±yoruz
Ġizlerini
Ġduyu
Ġgazetesinin
Ġpaketleri
tent
ĠalmasÄ±na
ezik
Ġseviyeleri
Ġmerkezinden
ĠilÃ§emizde
Ġkapasitesine
ĠMÃ¼cadel
ĠSivasspor
addin
Ġekleyebilirsiniz
ĠimzaladÄ±
Ġzorluklar
ĠAram
ĠalÄ±ÅŁkanlÄ±ÄŁÄ±
Ġsc
ĠparÃ§asÄ±dÄ±r
ansu
ĠÃ§ekimleri
ague
Ġgeldikten
ĠyapraklarÄ±
ĠgÃ¼Ã§sÃ¼z
ĠkadÄ±nÄ±m
Ġmuhar
ĠCur
Ġyaka
ĠlÄ±
ĠalmanÄ±zÄ±
Ġmakina
Ã¼ller
ĠAvan
ĠadamlarÄ±nÄ±n
ĠokuduÄŁu
ĠKadÄ±nlarÄ±n
Ġwe
ĠkuruluÅŁunun
ĠdonatÄ±lmÄ±ÅŁ
Ġindirin
OLU
ĠÃĸyleyse
ode
ĠsÄ±h
ĠiliÅŁkisini
Ġkomisyonu
ĠSEV
ĠGecesi
ĠKarÅŁÄ±laÅŁtÄ±r
vÄ±
Ġazap
Ġhaiz
ĠDigitÃ¼rk
ĠyaÄŁÄ±ÅŁlÄ±
manÄ±zda
maca
ĠHiz
ĠkomÃ¼nist
ĠalÄ±yorlar
ĠpaylaÅŁtÄ±k
ĠortamÄ±n
Ġekiplerinden
AkÄ±llÄ±
ĠanlayÄ±ÅŁla
Ġetmeliyiz
ĠmaÃ§larda
ĠNuh
Ġveritaban
ĠFragmanÄ±
lanmÄ±ÅŁtÄ±
ĠbloÄŁ
SUN
ĠistediÄŁin
Ġhizmetten
ĠTopal
ĠdeÄŁiÅŁimler
hip
Ġturda
Ä°HA
yacaÄŁÄ±mÄ±z
Ġsorununa
Be
acaÄŁÄ±ndan
tage
ĠSuat
ĠELEM
ĠYaman
oÄŁlan
ĠCR
Ġkullananlar
ĠhemÅŁehr
ĠAtalay
ĠmÃ¢nÃ¢
ĠYÃľK
ĠsÃ¶yleyecek
ĠnotlarÄ±
Ġdra
ĠTAK
likli
Ġstar
mÃ¢n
Ġisy
Ġraporlar
ĠAss
ĠÃ§ocuÄŁunu
ĠBozdaÄŁ
Ġmaddeye
Ġdat
Ġyapabilirler
Ġsentetik
ĠTeslim
ĠBakanlÄ±ÄŁÄ±nca
ĠSÃ¼s
ĠmesajÄ±nÄ±
ĠdoÄŁruya
Ġdinsel
ĠToz
Ġeczan
Ġihaleye
star
idik
Ġkalemi
Ġenerjinin
ĠkazanÄ±lan
ĠkullanÄ±ldÄ±ÄŁÄ±nÄ±
ĠdÃ¼ÅŁÃ¼nÃ¼rken
ĠUzaktan
ĠOrkest
1999
Ġabonelik
ĠhakkÄ±n
ĠAtlas
lanmasÄ±nÄ±n
lÃĦ
ĠsunduÄŁumuz
Ġhaberlere
Ġedenlere
Ġklor
Ġsaniy
Ġdine
BilindiÄŁi
ĠZemin
ĠUfuk
ĠbÄ±raktÄ±m
Ġsevgisini
ĠHek
Video
demok
ĠgÃ¶sterme
ĠBaÅŁkanlarÄ±
Ãĩocuklar
Ġhissedecek
Ġalerjik
ĠzamanlarÄ±
ĠiÅŁaretleri
ĠtaÅŁÄ±nabilir
ĠRestoran
ĠZehra
ĠPoli
Ġiddialar
ĠFe
ĠÃ§an
ĠdeÃ°
ĠnazÄ±m
Ġyasalar
Â«
ĠTepe
Ġaskere
ĠTaban
ĠkanÄ±tÄ±
ĠMelih
ĠÃ§alÄ±ÅŁÄ±rlar
Ġfikirlerini
ĠKonsolos
ĠsaÄŁlanmÄ±ÅŁtÄ±r
ĠdÃ¶kÃ¼len
lÄ±ÄŁÄ±m
Ġkusma
Fer
ĠhatÄ±rlatarak
Ġdostlar
Ġdaireler
ptop
Ġdibine
Ġoptimiz
Ġ//
ĠAhlak
ĠMuhal
VEN
Ġizinsiz
ĠTeÅŁvik
Ġrahatlat
ĠUrfa
ĠgÃ¶sterip
ĠKÄ±rk
Microsoft
anse
ĠyapÄ±lÄ±ÅŁÄ±
amat
Ġaleti
ÃĹ
ĠkalsÄ±n
Ġgitmeyi
ĠÄ°kincisi
ĠNobel
ĠÃ§ilek
memelidir
ĠseÃ§imlerin
KeÅŁ
ĠMakina
ĠSÄ±rp
iP
ĠazÄ±nlÄ±k
ĠyerleÅŁtirin
ĠYurtdÄ±ÅŁÄ±
Ġgeneral
Ġdavetiye
ĠgÃ¼br
ĠkavuÅŁtu
ĠoturmuÅŁ
ÃĸÄŁretim
Ġbebeklerin
Ġnab
Ġspek
ĠgÃ¶rÃ¼nse
Ġstant
Ä±rsak
Ġentegrasyon
Ġolg
Ġaltta
ĠdÃ¼zeyine
vit
ĠdoÄŁasÄ±
ĠDEÄŀER
ĠbaÅŁlÄ±klar
ĠdÃ¶nemden
caÄŁÄ±ndan
ĠkoÅŁan
Ġgeldin
ĠkarÅŁÄ±laÅŁmanÄ±n
ĠSaati
ĠkÄ±smi
ĠÄ°M
ĠpiÅŁirme
Tags
rif
ĠÄ±rkÃ§Ä±
ĠyÃ¶ntemdir
ĠorantÄ±lÄ±
ĠResÃ»lullah
ĠBuy
Ġkurula
Ġengelley
ĠEndon
ĠanlÄ±yor
ĠDenetleme
DEM
endek
Ġedebil
ĠyavaÅŁÃ§a
ĠBakÄ±ÅŁ
ĠkÄ±rp
ĠmaksadÄ±yla
Ã¼lÃ¼p
Ġhissetmek
yl
Ġunutmamak
ĠoluÅŁumunu
kardeÅŁ
Ġailem
Ġsebepler
ĠyÃ¶neticilerinin
Ġsimdi
ĠpaylaÅŁÄ±lan
ĠalaÅŁ
Ġilkbahar
Ġkontrolleri
Ġolmayanlar
Ekonomi
ilmis
iro
Ġdenizde
ĠKoyu
ĠiÃ§inse
ns
ucak
Ġsevgiyle
ĠAlÄ±mÄ±
ĠciÄŁer
ĠbÄ±rakacak
ĠanlatÄ±mÄ±
ĠÃľlkÃ¼
Ġdokuma
ijer
Ġrestore
KarÅŁÄ±
Ġyad
Ġbecerisi
120
ĠarkadaÅŁlara
ĠResort
Ġperiyot
ufan
Ġderinlemesine
Ġmahallede
ĠfiyatlarÄ±nda
Ġetmeyecek
ĠuygulamasÄ±nda
Ġtalepler
ĠbÃ¶yledir
ĠyaÅŁadÄ±ÄŁÄ±nÄ±z
ĠShar
Ġmaf
KardeÅŁ
ĠBeach
ĠTÃ¼f
ĠYolcu
Ġsistemlerini
Ġeylesin
ĠDeÄŁeri
ĠGÄ°R
...âĢĿ
Ġtesbit
ĠÃ¶tesine
ĠNevzat
Ä°ÅŀÄ°M
Ġdoktoru
OGRAM
px
amamasÄ±
ĠtanÄ±ttÄ±
iÃ§eÄŁi
ĠMenkul
Ġturuncu
ĠraÄŁbet
Âĵ
Ġbulunanlar
Trabzonspor
Ġparayla
ĠProfil
ĠÏ
ĠÅŁeklindedir
Ġtopraklar
olla
Ã¶yley
odur
Ġpc
ĠÅŀÄ±k
Ġekolojik
Ġvanil
Ġlinki
Ġnakled
ĠbaÅŁlayacaktÄ±r
ĠiÃ§ersinde
Ã®d
ĠulaÅŁmÄ±ÅŁtÄ±r
Ġyasama
meyiz
gÃ¼nÃ¼
parslan
ĠsorumluluklarÄ±
Ġdiyeti
Ġtopa
Ġ1983
ĠayrÄ±ntÄ±larÄ±
AraÅŁtÄ±rma
ĠÃ¶ksÃ¼rÃ¼k
ĠBulunan
ĠGerÃ§ekleÅŁtir
ĠedebiyatÄ±
saniz
Ġtanesidir
ĠÃ¶nlen
ĠkÄ±smet
Ġyenilenen
cit
ĠHamam
Ġeziyet
ĠfaktÃ¶rÃ¼
ĠFikri
ĠkÄ±sÄ±k
Ġbattan
ĠBaÅŁsavcÄ±
Ġdefteri
ĠÃ§iÃ§ekleri
ĠLazer
ĠgÃ¶nderebilir
ĠhavacÄ±lÄ±k
Ġderb
ĠBenimle
Ã¢det
Ġmilyonu
ĠiÅŁlediÄŁi
Ġebed
DR
Ġdamat
leÅŁmenin
ĠbÃ¼yÃ¼leyici
ĠErk
Ġtekerlekli
ĠiÅŁinize
Ġevinizin
Ġoyundan
och
ĠMescid
takya
ĠSaint
Ġmaydanoz
ĠAdresi
ĠtavrÄ±
Ġacilen
Ä°LM
ĠestetiÄŁi
ĠyÃ¼kselmesi
ĠKuz
oÄŁuk
ĠiÅŁbirliÄŁiyle
ĠsÃ¶ylÃ¼yorlar
ĠRÃ¼y
Ġkolye
Engel
çļ
ĠkapatÄ±lmasÄ±
ĠdÃ¶nme
Ġgezisi
ĠÃľyelik
ĠdediÄŁiniz
ĠPadiÅŁah
ĠÃ§alÄ±ÅŁmalarÄ±mÄ±zÄ±
Ġmekanlarda
ĠÄ°klim
ĠUL
ĠÄ°sim
ĠarkadaÅŁlarÄ±na
ĠgÃ¶rmektedir
ĠduvarlarÄ±
ĠgÃ¼Ã§lendirmek
Ġshow
ĠPrim
Ġseyreden
ĠMav
Ġdesteklenmesi
Ġmetodu
ĠhikÃ¢ye
ĠDÃ¼zey
Ġizniyle
Ġesirg
ĠPeÅŁ
fo
ĠÃ§iftÃ§iler
ĠProjenin
ĠAlay
ĠNecati
Ege
Ġmalzemeden
ĠeleÅŁtiriler
Tasar
ilebilmesi
ĠÅŀir
ĠhemÅŁire
FransÄ±z
ĠaÅŁaÄŁ
ÄŁimize
Ġsup
ĠsÃ¶zkonusu
ĠOranÄ±
Ġeserlerini
Ġbildirilir
ĠkÃ¼ltÃ¼rÃ¼n
ĠsatranÃ§
ARK
ĠsÃ¼rdÃ¼rmek
ĠÄ°lahiyat
ĠhazÄ±rÄ±z
ĠkarÅŁÄ±landÄ±
Ġmevsiminde
ĠÃ§alÄ±ÅŁacaÄŁÄ±m
ĠolmamÄ±ÅŁtÄ±r
ĠÃ¼zerlerine
Ġteslimi
memi
ĠÄ±c
oglu
Ġsendrom
tigi
obik
ĠÄ°zleme
ĠÃ§eÅŁid
Ġbilmesi
ĠyapÄ±lamaz
ĠdeÄŁerlerinin
ĠyapÄ±labilmesi
ĠDubai
ĠÃ§ifti
ĠGa
Ġboncuk
tiva
ĠtakÄ±mÄ±na
ĠkayÄ±tsÄ±z
ĠyÃ¶ntemlerini
Ġspora
genel
ĠSA
ĠTosun
ĠÃĸTV
Ŀ¤
ĠYetkil
Ġyour
ĠVas
ĠeÅŁyalarÄ±nÄ±zÄ±
Ġtu
ĠDet
ĠHersek
ĠsansÃ¼r
ilmeyi
Ġespr
ĠanlaÅŁÄ±lacaÄŁÄ±
ĠNez
ĠyarÄ±ÅŁmasÄ±nda
YÃ¶netim
obili
vanya
lerindendir
ĠUyku
ĠmonitÃ¶r
Ġbilmeniz
ĠKulesi
ĠKurumlar
Kesin
ĠarabasÄ±
AÃ§Ä±klama
ĠsayÄ±lar
ĠBDP
ĠkiÅŁide
ĠaltyazÄ±lÄ±
ĠentelektÃ¼el
BeÅŁ
ĠfÃ¼ze
umuzdan
Ġbilmiyoruz
ĠOktar
ĠbozulmasÄ±
ĠHediy
Ġkriterleri
Ġbirlikleri
ĠUluslar
LÃľÄŀ
ingen
ĠEczacÄ±
ĠsanmÄ±yorum
Ġ1923
ugh
ulmalÄ±dÄ±r
ĠÅŀikayet
ĠyemiÅŁ
ĠYaÅŁanan
ÅŁimdi
ebilecektir
Ġcim
rian
ĠtoplantÄ±lar
ĠOrganik
Ġhitab
ĠgÃ¶rmedi
ĠHÄ±ristiy
Ġprofili
Ġpersonelinin
eke
ĠhayatÄ±m
ĠEtraf
ĠVi
GÃ¼r
ĠMuam
ĠDevrimi
Ġsorunlardan
ĠazaldÄ±
ĠMÃ¼ft
ĠEP
Ã»lÃ¼
Ġbenzerlik
ĠbirÃ§oÄŁ
ĠseÃ§ilmesi
ĠaradÄ±ÄŁÄ±
ĠdeÄŁiÅŁtirilmiÅŁtir
Ġtemizlenmesi
abileceÄŁim
Ġgezgin
ĠoranlarÄ±nÄ±n
ĠYukarÄ±daki
Ġhareketlilik
Ġduygusunu
ĠastÄ±m
Sil
Ġevdeki
Ġalim
ĠtÃ¼mÃ¼nÃ¼
ĠSmart
ozet
burgaz
Ġkompleks
Ġ103
ĠsÃ¼rÃ¼p
ĠSÃ¶zlÃ¼k
ĠBoru
Ġbeta
ĠnumaranÄ±n
Ġgraf
ĠSema
ĠÅŁÃ¶yledir
ĠimkÃ¢nsÄ±z
bÃ¼tÃ¼n
Â¸
ĠHalit
ĠinanÄ±yorsanÄ±z
ĠyasasÄ±
ĠyapayÄ±m
ukluk
ĠtanÄ±sÄ±
duÄŁun
anfil
Ġsorunlarla
ĠÃ§aÄŁÄ±nda
laÅŁtÄ±ÄŁÄ±nÄ±
dÃ¼kÃ§e
ĠHastanesine
Ġedilmem
sadece
ĠTevfik
Tok
ĠkullanmaktadÄ±r
ĠKaymakamlÄ±ÄŁÄ±
cÄ±yÄ±
omer
ĠÃĸzen
ĠgÃ¶rmekteyiz
ĠalacaÄŁÄ±m
ĠkayÄ±sÄ±
ĠgÃ¶rÃ¼nmÃ¼yor
Ġrant
Ġhasat
itin
ĠyapmayÄ±n
ĠÃ§Ä±kabilecek
Ġstandartlara
Ġhapse
iral
ĠÃ¼slup
ĠorganÄ±
pu
Ġbekletin
ĠanlatÄ±ldÄ±ÄŁÄ±
boz
Ä°nsanlarÄ±n
ĠistediÄŁinizi
Ġbeynin
ĠkarÅŁÄ±laÅŁmada
ĠTK
ĠSavcÄ±
meksizin
ĠyamaÃ§
Ġcetvel
Ġsoran
ĠHus
Ġservet
ĠKapadokya
ĠarÄ±n
ĠyÃ¼rÃ¼tÃ¼lmesi
Ã§iye
Ġyinede
icik
adastro
Ġecz
eling
ĠdeÄŁilsiniz
Ġavro
ĠhavaalanÄ±
ĠKaan
ĠRezerv
ĠbilgisayarÄ±
ĠKayÄ±p
ĠgÃ¶rÃ¼ÅŁler
ĠkocasÄ±
ĠyetersizliÄŁi
omobil
ĠnamazÄ±nÄ±n
ĠÃ¼cretler
ĠDerviÅŁ
idye
ĠTuncay
ĠyÄ±prat
KÄ±rmÄ±zÄ±
ĠadayÄ±n
Ġsilahlar
ĠBob
ĠyazmayÄ±
ĠLez
ĠbÃ¼tÃ¼nlÃ¼ÄŁÃ¼
Pan
Ġalamaz
ĠÅŁimdilerde
ediniz
Ġedilmemesi
ĠalÄ±ÅŁtÄ±r
ĠgÃ¶steriliyor
ĠbÃ¶lgelerine
ĠCÃ¼neyt
Ġdenizi
Ġprojelerinin
ĠbÃ¼yÃ¼yor
ĠFiziksel
Ġbahsi
ĠkurallarÄ±nÄ±
ĠyansÄ±masÄ±
GÃľN
ĠDÃ¼ÅŁÃ¼nce
Ġilerde
ĠÃĸÄŁretmeni
ilmedi
bkz
ĠBiÃ§
ĠmÃ¼mkÃ¼nse
ĠKendine
Tamam
ĠfiyatÄ±nÄ±
ĠSO
ĠBilindiÄŁi
ĠHap
ĠRey
Ġmedyumlar
ĠrÄ±zasÄ±
ĠKasÄ±mpaÅŁa
Ġkonudur
ĠEleÅŁtir
ĠKÃ¼ba
ĠÃ¼nvan
ĠdayandÄ±r
ĠTesisat
ĠkullanÄ±lmasÄ±nÄ±
ĠKendisini
ĠMK
Ġuymak
ĠEksik
ĠgeliÅŁir
ĠGey
ĠtapÄ±n
anca
ĠsÃ¼reyi
Ġkabartma
Ġduyma
</
Ġdeger
Ġgeceyi
Ã¶rdÃ¼ncÃ¼
ĠoyunlarÄ±n
ĠÃĩayÄ±
ĠbaÄŁlanÄ±r
ĠyapacaklarÄ±nÄ±
Ġsoruna
Ġihsan
ĠkararlarÄ±n
ĠÅŀayet
Seni
ĠkasÄ±l
Ġthis
ĠhaklarÄ±nda
ĠyÃ¼rÃ¼rken
Ġink
Ġengelliler
ĠNÃ¼kleer
Ġtalebini
Ġbitirmek
ĠPhilip
ĠkullanÄ±ldÄ±ÄŁÄ±nda
?)
ĠtesisatÄ±
ĠyerleÅŁen
Ġbulunuyoruz
ĠgeldiÄŁimiz
ĠbaÅŁlayalÄ±m
ĠolmamalÄ±
ĠAnonim
Ġuygulayarak
ĠEmrah
asy
Ġhatip
ĠmekanlarÄ±
ansever
ĠBelirli
MÃ¼slÃ¼man
Ġsergiler
ĠValilik
ĠErciyes
ĠBrow
Ġuzer
ĠsatÄ±ÅŁÄ±nÄ±
ĠKn
ĠÃ§alÄ±ÅŁmasÄ±nÄ±n
Ġsakal
ĠbÃ¶lÃ¼mlerinde
ĠPartili
Ġvesileyle
Ãĩek
atepe
Ġanlarda
Ä±lÄ±nca
Grup
Ġinceledi
Ġterm
ilmediÄŁi
KullanÄ±cÄ±
hiÃ§
ilebilen
ĠÅŁehrine
Ġkoydum
Ġlistel
ĠMahmud
ĠÅŁerbet
aylon
ĠdÃ¼zenlemeye
ĠPazarÄ±
Ġekler
Ġhareketlerini
ĠKurulum
ĠyÃ¼rÃ¼yÃ¼ÅŁÃ¼
ĠgÃ¶rÃ¼ÅŁmelerde
Ġsitem
ĠfarkÄ±nÄ±
ĠDaÄŁlarÄ±
ĠÃĩinli
fezi
allahi
ĠColle
Blog
ĠkaynaklarÄ±ndan
ĠÃ¢det
ĠÃ¶nderliÄŁinde
Ġsevdir
ĠdÃ¼ÅŁÃ¼ndÃ¼ÄŁÃ¼
igital
ĠiÃ§indedir
ĠKiraz
efi
Ã¼ÄŁÃ¼ne
Ġoturur
ĠMakam
ĠBornova
ĠsayfamÄ±zdan
ĠEnte
Yah
Ġgebe
Pek
ĠKAN
ĠsayÄ±lmaz
ifa
ĠprogramlarÄ±nÄ±
Ġyeteneklerini
ĠsÄ±nÄ±rÄ±nda
ĠaÄŁacÄ±n
Ġbirisini
ĠkabuÄŁu
Ġtutuklanan
EE
Ġparaz
Ġetmiyorum
ĠVakf
Ġmerhum
ĠâĢĭ
mÄ±ÅŁÄ±m
oyla
ĠÃ¶dem
ĠsÃ¼rdÃ¼rÃ¼l
ĠhavayÄ±
ĠboÅŁluÄŁu
Ġtarafindan
Ġizlenim
ĠGSM
ĠKamyon
dia
Ġ444
ĠThomas
ĠtoplanÄ±r
ĠsarhoÅŁ
ĠBiyoloji
Ġiletim
amanÄ±zÄ±
ĠhakkÄ±yla
ĠbÃ¼tÃ¼nlÃ¼k
ankaya
ĠdoÄŁuÅŁtan
ĠyaÅŁamasÄ±
Ġsorg
Ġsevmek
ĠdÃ¶nÃ¼ÅŁt
ĠyapmanÄ±zÄ±
ĠkafasÄ±
Ġverilmez
ĠkatÄ±lÄ±yorum
Ġsayfadan
ĠkÃ¶ÅŁede
ĠÃ§evrede
Ġseneye
ĠsavaÅŁÃ§Ä±
ĠsorumluluÄŁunu
ĠkÃ¶pekler
Mart
ĠkÃ¼rs
ĠKÃ¼ltÃ¼rel
ĠTurnuvasÄ±
Ġmakineler
ĠborÃ§lanma
latÄ±
Ġwh
ĠÄ°lanlarÄ±
ĠodanÄ±n
Ãľzer
ĠekmeÄŁi
Ġhurda
ĠSÃ¼reÃ§
ĠKazada
ĠyaÅŁayabilirsiniz
ĠlÃ¢zÄ±m
Yorum
Ãĸrnek
ĠTÃ¶reni
ĠBitki
ĠAnk
Ġhuzursuz
izz
Ġgerekecektir
ĠsaÄŁlanÄ±yor
Ġkademeli
ĠsÄ±navlarÄ±
ĠTuvalet
ĠgÃ¼vencesi
Ġrengarenk
Ġsiyasete
ĠgeldiÄŁince
ĠEÅŁit
Ġhaberin
ĠDÃ¶viz
fuz
malari
edr
ĠBankalar
ĠlÃ¼
ĠaltÄ±ncÄ±
ĠPosta
ĠgeÃ§irip
Ġdurumlara
Ġbulundular
Ġincelemeler
ĠkÄ±rÄ±klÄ±ÄŁÄ±na
Ġilerley
lacivert
ihisar
servis
atit
ĠFÄ±rsat
ĠÃ§aÄŁrÄ±sÄ±nda
Ġevrenin
biÃ§
ĠKrem
Ġincelemesi
ĠLaboratuvar
ĠSÃĸZ
ozyon
ĠfiyatÄ±na
ĠodaÄŁÄ±
Ġikramiye
ĠTuru
ĠbakmayÄ±n
ĠarkadaÅŁÄ±n
Ġarg
ĠÄ°stihbarat
ĠvarlÄ±ÄŁÄ±na
ĠdÃ¶ngÃ¼
ĠkonuÅŁmayÄ±
gresif
isiyim
mayabilir
ĠazaltÄ±
bes
ĠkesilmiÅŁ
ĠheyecanlandÄ±r
Ġhesaplan
Ä°LÄ°K
ĠÃĸnceden
Ġdolusu
ĠDersin
mezse
ĠÃĩarÅŁ
ĠatÄ±lÄ±m
ĠÃ¼nite
manÄ±zÄ±n
ĠapaÃ§Ä±k
ĠÄ°tfaiye
ifli
ĠolmazdÄ±
ĠbirÃ§oÄŁu
ĠkatkÄ±larÄ±yla
DiÅŁ
ĠdÃ¼ÅŁtÃ¼ÄŁÃ¼nÃ¼
ĠHazretleri
Ġkuruyor
Ġkurduk
ĠuÄŁradÄ±ÄŁÄ±
à¹
ĠÃ¼rÃ¼nlerle
ĠHamur
ĠetrafÄ±ndaki
ĠUnutmayÄ±n
Kemal
ĠkÄ±zdÄ±r
Ġbildirir
ĠVictor
evket
TSK
ĠÄ°ÅŁyeri
ĠGÃ¶lbaÅŁÄ±
Ġkibar
Ġevlendi
ebilmeleri
kot
Ġkoyul
tics
ĠtadÄ±nda
INA
ĠolmanÄ±zÄ±
Ġverilmesine
ĠKonsey
ĠocaÄŁÄ±
Ġhiyer
Ġmodem
asinda
ĠyarÄ±sÄ±ndan
Ġgoz
part
ĠgÃ¶revde
alanmÄ±ÅŁ
Ġkalec
Pr
ĠStandar
Ġbitince
Ġuygulamalara
Ġplaket
ĠmilliyetÃ§i
ĠdayanÄ±larak
ĠlisansÄ±
ally
ĠgerÃ§ekleÅŁtirilmiÅŁtir
ĠÃ§antasÄ±
Ġuykuya
ĠkonularÄ±nÄ±
Hukuk
Ġilgiyle
ĠgÃ¶rÃ¼rÃ¼z
ĠKayserispor
ĠsayfayÄ±
ĠkaÅŁÄ±ntÄ±
ĠyapmasÄ±na
ĠatÄ±ÅŁtÄ±r
ĠbayÄ±ldÄ±m
ĠÄ°HA
ĠSeyhan
ĠLar
Ã¶ÄŁÃ¼t
ĠuygulamalarÄ±nda
ĠarÅŁivlendi
Ġkuvveti
Ã¼sÃ¼z
ĠiÅŁlemlerde
ĠkalÄ±rsa
Ġelinize
çļĦ
ĠhoÅŁnut
ĠEhl
Ġlisesi
Ä±cÄ±lÄ±k
ĠCehenn
ĠChrist
heimer
ĠkafasÄ±na
ĠKampÃ¼sÃ¼
Ġvideoda
Ġbilgili
ĠCevabÄ±
ĠbÃ¼yÃ¼dÃ¼
ĠkabuÄŁ
meyeceÄŁi
Ġmodellerinde
Ñĩ
ĠdolmuÅŁ
ĠyaptÄ±rÄ±lan
Online
ĠyeraltÄ±
ĠkeÅŁfetmek
ĠTÄ±kanÄ±klÄ±ÄŁÄ±
mn
Benz
Boz
)âĢĿ
ĠunvanÄ±
ĠPROGRAM
cesine
Ġeren
ĠkardeÅŁler
LENDÄ°R
ĠsayÄ±nÄ±n
Ġric
ĠÃľniversitemiz
Ġnoktalarda
Ġkamuya
Ġkarakterleri
ĠMam
ĠÃ¶nerg
bende
ĠkonuÅŁmalarÄ±
ĠKablosuz
ĠuygulamalarÄ±nÄ±n
Ġrastlan
ĠGÃ¼rkan
ĠBilgin
ĠÃľniversitesinde
ĠyetiÅŁtirme
Ġhobi
ĠKus
ĠeÅŁini
ĠnÃ¼sh
ĠkatÄ±labilir
TÃ¼k
ĠparÃ§alarÄ±n
ĠtopraklarÄ±nda
ĠDani
ĠFelsefe
ÅŁat
Ġtil
ĠBud
Ġgenc
Ġtoplayarak
Ġpiyasalarda
ibot
EOG
amla
ĠkaÃ§mak
ĠadÄ±ndaki
ietnam
Ġulu
ĠAyet
Ġekimi
ĠbugÃ¼nÃ¼n
abilmiÅŁ
ĠKararnam
yester
ĠuyanÄ±k
unay
ecan
ĠYerleÅŁtirme
ĠKoleksiyon
ĠWordPress
Ġnim
cacÄ±k
à¦
ĠÃ§ip
Ġbitkilerin
ĠbakÄ±nÄ±z
Ġmercim
ĠaralarÄ±ndaki
ĠsÃ¶zcÃ¼sÃ¼
ĠMevlÃ¢
Ġsuni
ahir
Ġlt
ĠyÃ¼kseltmek
ĠTaraftar
lede
giz
ely
ÃĩE
uge
Ġbac
ĠFA
Ġmanip
Ġverimi
ĠtakipÃ§i
ELERÄ°
ĠErgin
Ġkura
ĠUyum
ĠrakamÄ±
ĠÅŁirk
ĠgÃ¼Ã§lerini
wagen
ĠaÃ§Ä±klanacak
ĠElma
ĠBÃ¼yÃ¼kÃ§ekmece
Ġprojesine
Ġkelimenin
Ã¢ne
ĠsaÄŁlamayÄ±
No
ĠbaÅŁarÄ±nÄ±n
ĠFiat
Ġfaydalanabilirsiniz
ĠkuafÃ¶r
Ġerecek
ĠhatÄ±rlatmak
ĠÃ§Ä±kmÄ±yor
ĠAydÄ±nlatma
ĠÅŁekildedir
Ġsinem
ĠÃ§ene
Ġkonuldu
Ġumud
Ġmaster
ĠgÃ¼nlerini
ĠAkbank
ĠDefter
Ġkimisi
Ġ0212
ĠbaÅŁlatan
Ġbildirilen
fal
ĠkenarÄ±na
pos
KasÄ±m
Ġpapaz
ĠTermin
Ġrenklerde
ĠpolitikasÄ±na
Ġnebze
ĠTayland
Ġresmini
ĠyolculuÄŁuna
ĠyapÄ±lmasÄ±nÄ±n
ĠOkumaya
ĠMalatyaspor
Ã§alÄ±ÅŁ
Ġederdi
Ġbulunurken
ĠAras
Ġfilmlerin
Yunanistan
ĠYardÄ±mcÄ±larÄ±
Mez
bran
ĠdÃ¼zlem
ĠAnton
ĠbÃ¼tÃ§esi
ĠÅŁeyh
ĠYÃ¼rÃ¼tme
Ġbularak
Ġgetirdiler
Ġedemiyor
ĠdeÄŁiÅŁebilir
Ġetse
Ð°Ð½
ĠÄ°lker
Ġmucize
ĠeleÅŁtirel
cÄ±nÄ±
Ġhimay
Ġgruplara
Ġprimi
ĠÃ§ifte
LO
ĠtÃ¼rÃ¼nÃ¼n
Ġhaberde
Ġboyutlarda
Ġbildirmek
ĠteÅŁkilatÄ±
ĠsÃ¶yleÅŁi
ĠRobot
arÄ±z
ĠSÄ±nÄ±fÄ±
ĠEdilen
Ġistatistikleri
Ġizlenmesi
Ġpoker
Ġverdikten
ĠaÃ§Ä±ldÄ±ÄŁÄ±
ĠKong
giller
AlÄ±nan
cih
ĠveriÅŁ
ĠSonbahar
Ġhidro
ĠBÄ±
ĠDER
ĠBMW
MU
ĠkalmasÄ±na
ĠesaslÄ±
ĠgerÃ§eÄŁini
Ġmahrem
ĠiÄŁr
leÅŁmeye
Ġsaklan
ĠRahmet
DAR
ĠacÄ±sÄ±
Ġligi
ĠdizÃ¼stÃ¼
sib
ĠfakÃ¼lte
ĠYang
Ġfilo
Ġgelecekteki
ĠbÄ±rakabilirsiniz
Ġkasaba
ĠMaraÅŁ
Ġtaraftarlar
Ġiyimser
Ġmih
ĠRev
terneti
Ġnesillere
ĠEsenler
ĠBusiness
ĠFonksiyon
ĠbaÄŁlamak
ĠElektrikli
ĠTit
Ġserinin
Ġprojelerde
GÃ¼ndem
ĠkÄ±zÄ±nÄ±n
ĠkavramÄ±nÄ±n
atura
ĠbazÄ±larÄ±nÄ±
eÄŁmen
ĠaracÄ±nÄ±n
ĠApart
lamÄ±ÅŁtÄ±
esem
ĠyargÄ±lanan
memizi
ĠtakipÃ§isi
ĠHepimiz
For
ĠÃ§atÄ±ÅŁmalar
Ġsoyad
yÃ¼rek
Ġaciz
eceksin
ĠbÃ¶ceÄŁi
ĠAsansÃ¶r
etr
ĠyaÅŁamÄ±nda
atÄ±na
Anayasa
Ġkopya
Ġamiral
ĠOrtaya
Ġeleme
ĠÃ§ekilir
Ġdemesi
fel
ĠÄ°stihdam
ĠÄ°sterseniz
Ġilimizin
ĠÅŁaka
ĠhattÄ±nda
yamaz
ĠkuÅŁku
ĠalÄ±ÅŁveriÅŁinde
ĠistiÅŁare
yayÄ±
ĠKonuÅŁma
Ġparlament
GÃ¼venlik
ĠNoel
ĠSystem
cap
ĠaktÃ¼el
Ġraporuna
ĠBuzdolab
Ġahiret
Ġenfes
ĠpazarÄ±na
Ġiyon
ĠÃ§ocuklarÄ±mÄ±za
Ġpuana
ĠyakÄ±nÄ±
Ġhayalini
ĠLife
ĠekranÄ±nda
ĠbaÅŁÄ±nÄ±za
Ġtercihleri
Ġyaratacak
Ġherkesten
ĠgirdiÄŁini
ĠaklÄ±mda
ged
Ġkelebek
ĠsaÄŁlarken
ĠTebliÄŁi
ĠÃ§alÄ±ÅŁkan
Ġdata
ĠÄŁ
Ġyayla
ĠSpr
tÄ±larÄ±
Ġmilletimiz
Ġabiye
Ġkabullen
Ġdezen
Ġyetkilendir
cÄ±sÄ±nÄ±n
Ġkendin
ĠkaynaklanmaktadÄ±r
Ġfinalde
Ġhidrolik
ebilmeniz
afi
ection
ĠÃ¼lkesinin
ĠcÃ¶mert
IG
ĠNaci
ĠanlatacaÄŁÄ±m
Ġmevsimi
ĠMalzemeler
ĠAG
Ġseviyesinden
ĠHatun
ĠbahsettiÄŁim
ĠÃ¶vÃ¼n
elektrik
Ġvermeyin
Ġsahiptirler
ĠSÄ±fÄ±r
ĠAntep
ileceÄŁine
ĠÃ¼retme
ĠdoÄŁruluk
usan
dÃ¼ÄŁÃ¼mÃ¼z
ĠsÄ±rayla
asmus
ĠLou
ibir
Ġsprey
rack
ĠKoordinatÃ¶r
ĠMeri
ĠAnÄ±tÄ±
Ġhizmetlerimiz
Ġvermeyecek
Ġtweet
adÄ±kÃ¶y
ĠÅŁekliyle
ĠÃĩik
Ġberaberindeki
ĠyakÄ±ÅŁtÄ±r
altÄ±nda
ĠmensuplarÄ±na
ĠnoktasÄ±ndan
Ġbirilerinin
resim
ĠMig
Ġbitiminde
ĠProfesÃ¶r
ĠtÃ¼ketilmesi
................
ĠBeyan
Ġ1200
Ġgezmek
Bununla
ĠtaÅŁÄ±nma
ĠsÃ¼rmektedir
Ġdegis
ĠKelime
ĠformasÄ±
ING
ĠAnneler
ĠYarÄ±ÅŁma
ĠRabbimiz
CumhurbaÅŁkanlÄ±ÄŁÄ±
ĠkavÅŁak
ĠsÃ¼k
laÅŁmayÄ±
ony
Ġgirince
Ġsop
ĠEtiketler
ĠbabasÄ±nÄ±
Ġgitsin
ĠpaylaÅŁma
ĠmodasÄ±
sindeki
ĠBelediyesinin
veri
ĠyarÄ±ÅŁmada
ĠtoplantÄ±nÄ±n
ĠBaÅŁkanlÄ±ÄŁÄ±nÄ±n
ĠaraÃ§larda
elisin
Ġverilerini
Ġgetirebilir
Ġetkinliklere
ĠteminatÄ±
lÃ»
ĠbaÅŁlarlar
Ġkatsay
ĠrahatlÄ±k
ebilecekleri
ĠkaÃ§Ä±rma
ĠKob
Evde
Ġkurultay
Ġkama
ĠhÃ¼crelerin
Ġverenler
Ġlaptop
ĠdÃ¼ÅŁÃ¼ndÃ¼ÄŁÃ¼nÃ¼z
Cem
Ġgirdikten
ĠYÄ±llardÄ±r
ĠyardÄ±mcÄ±larÄ±
Ġidaresi
ĠÃĩarÅŁÄ±
Ġtipleri
DÃ¼zen
kendi
ĠncÄ±
ĠYÃ¼zme
oÄŁul
ĠsaÄŁlayÄ±n
allahÃ¼
ĠkÃ¼Ã§Ã¼cÃ¼k
ĠÄ°stediÄŁiniz
Ġuzunca
Ġgurup
ĠsonuÃ§landÄ±
KKTC
ĠetrafÄ±
ĠÃ¶teye
ĠKatÄ±
Ġseve
Po
ĠStadyumu
Unut
sana
ĠpatlÄ±can
ĠbatÄ±sÄ±nda
ĠfaÅŁist
Ġderslerin
ĠZeytinburnu
uka
ĠUyan
amadan
Ġlansman
ĠÃĸykÃ¼
ĠkasÄ±t
Ġhard
ĠiÃ§imden
ĠaÃ§Ä±lÄ±ÅŁÄ±nda
Ġkoleksiyonu
ĠBurun
ĠÃ¼cretini
ĠCahit
Ã¶prÃ¼
Ġbulunuldu
ĠdÃ¼ÅŁÃ¼nÃ¼lmektedir
Vol
Ġtabanca
Hangi
kinin
Ã§ilerinin
ĠÃ¶k
Ġmete
ĠkiÅŁiliÄŁi
ĠÃ§Ã¶zmeye
Ġnitelikleri
ilse
ĠÐ¸
LEN
Ġdaimi
ĠyurtdÄ±ÅŁÄ±na
Tay
ovo
erleri
Ġsebeplerle
ĠsÃ»
ĠpaylaÅŁarak
ĠgÃ¼nÃ¼mÃ¼zÃ¼n
ĠÄ°tir
ĠolmalarÄ±na
Ã¶ÄŁren
ĠMÃ¼steÅŁar
Ġarzusu
ecileri
ilebiliyor
kaynak
ĠSurvivor
ĠGenÃ§lerbirliÄŁi
opat
ĠayrÄ±mcÄ±lÄ±k
ĠAks
ĠKok
Ġperi
ĠÅŀeytan
Ġyy
ĠyazarlarÄ±
ĠanlayÄ±ÅŁÄ±na
ĠkaynaÄŁÄ±dÄ±r
Ġ1919
oktorum
ĠSergisi
ĠDownload
ĠAtÃ¶lyesi
Ġbozma
ĠFilistinli
ĠEgz
amlÄ±
ĠDahil
ĠdÃ¶nemdeki
tarih
ĠakÅŁamlarÄ±
Ġalacaklar
ĠKapsamÄ±nda
agon
Ġeylemler
ĠsaldÄ±rÄ±nÄ±n
arter
ders
ĠyÃ¶ndeki
Herhangi
ĠCezayir
Ġkademe
ladimir
ced
Ġkediler
lok
ĠPsikoloji
Ġalmaktan
tima
Ġ365
ĠkÄ±ran
ĠKek
ibet
antum
ĠyÃ¼kseliyor
ĠYeÅŁilyurt
ĠaraÅŁtÄ±rmacÄ±lar
ĠÅŁÃ¼phelen
Ġcun
Ġsezona
ĠiÅŁlenmesi
ĠAman
ĠRumeli
Ġiftira
avun
Ã¼bey
Sonr
immet
ĠhesabÄ±nda
SE
Ġannemin
Ġsitenizi
ĠfarklÄ±lÄ±klarÄ±
Ġengelleri
INI
Ġeur
Ä±lmÄ±yor
ĠdelikanlÄ±
ĠsayfalarÄ±nda
Ġkomit
ĠÃ¶rneÄŁini
Ġedebi
ĠfotoÄŁrafÃ§Ä±
ĠbÃ¶lme
Ġinanmak
ĠYetenek
ĠOT
BunlarÄ±n
Ĺı
Ġgeldikleri
ĠÃ¶neriyoruz
Ġkesintisi
dalarÄ±
ĠmaÅŁ
ĠmutfaÄŁÄ±
ĠiÅŁimiz
ĠkÃ¼ltÃ¼rÃ¼ne
ĠNihayet
Ġultrason
Ġetmelerini
Ġhizmetlerden
ĠtarzÄ±nÄ±
Ġrastlanan
ĠyaygÄ±nlaÅŁ
ĠYapÄ±lmasÄ±
ĠFrancis
ĠyasanÄ±n
ElazÄ±ÄŁ
ĠSÃ¼mer
ĠÅŀak
trik
ĠayrÄ±calÄ±klÄ±
lamaktan
rk
dÄ±klarÄ±nda
ĠBot
Ġdestekleri
rone
ĠHum
ĠSesi
ĠdefasÄ±nda
irleri
ĠTAÅŀ
Ġsahiplerini
ĠKoray
Ġbib
ĠkuruluÅŁlara
Ġtesisler
ĠÄ°dris
ĠSiyasal
Ġmemnunum
ĠÃ¶deyerek
ĠLogo
ĠaÄŁaÃ§lar
Ġasma
Ġibret
Ġrehabilitasyon
Ġistemedi
ĠÐ½
ĠyaÅŁayarak
elerimizi
ĠkadÄ±nlardan
Ġtelefona
ĠTimur
Ġettiniz
ĠÃ¶rgÃ¼tlen
ĠÃ§ocuÄŁunuzun
Ġcesedi
ulusi
Ġ}
Ġetmekteyiz
SaÄŁlÄ±klÄ±
ĠCanan
Ġaleyhissel
ĠdÃ¼ÄŁmesine
ĠOlaÄŁanÃ¼stÃ¼
ĠolacaÄŁÄ±ndan
adÄ±ÄŁÄ±m
ĠhattÄ±nÄ±n
ĠVekil
Ġtarihindeki
ĠÅŁÄ±m
Ġekliyor
merkez
Ġkesilmesi
Ġobezite
ĠBeraber
ĠĠĠĠĠĠĠĠĠĠĠĠĠĠĠĠ
ĠEndonezya
ĠTabip
binlerce
ĠkararÄ±nda
Ġkamuoyunda
Ġdizileri
ips
ĠÃ¶zellikleriyle
ĠOyunda
kÃ¼ltÃ¼r
BoÅŁ
col
ĠDicle
tÄ±ÄŁÄ±ndan
ĠpahasÄ±na
ĠyataÄŁÄ±
ĠbÃ¶lÃ¼nmÃ¼ÅŁ
lemenin
ĠParlamen
ĠanlattÄ±m
Ġbilgisayarlar
ĠhocasÄ±
ĠtÃ¶v
Ġilkel
ĠKaldÄ±r
utu
yek
bnb
Ġsitelerde
ĠyukarÄ±ya
Ġtemsilcilerinin
ĠNeler
ĠsayfasÄ±nÄ±
EylÃ¼l
SektÃ¶r
Ġaren
che
Ġbakmaya
Ġsaltan
Dikkat
Ġdilen
atar
Ġharcamalar
Ġkelimelerin
Ġkategorisine
Ġdurumla
danya
ĠPic
Ġdop
ĠMun
ĠyazÄ±sÄ±nÄ±
ĠAudi
ĠÃ§eyrekte
Ġeller
anlÄ±ÄŁÄ±nÄ±
ĠGaler
ĠzÄ±m
Ġvereyim
250
Ġanak
bise
ĠmarÅŁ
Ġzikred
ĠBern
ĠParlamentosu
Ġforex
ĠFahri
ĠAÅŁkÄ±n
onca
ĠTali
ĠvatandaÅŁlarÄ±mÄ±za
Ġhalleri
ĠUV
ĠkalÃ§a
ĠErbil
ARET
ĠaÄŁlar
Ä°talya
BÄ°R
ĠsÄ±ÄŁÄ±r
ibin
sm
Ġrec
vanter
kswagen
ĠNiye
Ġille
ĠÅŁiddetin
ĠanlayÄ±ÅŁÄ±nÄ±n
Diz
ĠKaray
ĠbÃ¼tÃ¼nÃ¼yle
ĠtÃ¼l
Ġfazladan
egasus
Ġduyunca
Ġdikkatimi
ĠanlattÄ±k
ĠÃ§alÄ±ÅŁtÄ±ÄŁÄ±mÄ±z
Ä±lmayacak
ĠElectr
ĠyÃ¶neticilerin
ĠExpress
ĠsonralarÄ±
ĠRabbi
ĠyetmiÅŁ
ĠÃ§iÃ§ekÃ§i
ĠTug
luktan
ĠdÃ¶necek
ĠGÃ¶lcÃ¼k
ĠkadarÄ±
ĠkralÄ±
ĠÃ¼stlendi
ĠihtiÅŁ
Ġbindir
Ġarkeolojik
Ġvalla
DanÄ±ÅŁ
ĠBarajÄ±
ĠFinlandiya
ĠStrateji
gÃ¼nde
ĠÃ¶zelliÄŁe
Gaz
Ġmana
Ġmevzuata
Ġbilinmiyor
YÄ±ldÄ±z
Ġ657
ĠdÃ¶nÃ¼ÅŁen
ĠYÃ¶netmeni
ĠAnaokulu
Haziran
ĠfuarÄ±
Ġbilgilerle
siyete
terÃ¶r
ĠharcÄ±
ĠTerÃ¶rle
ĠbaÄŁlantÄ±sÄ±nÄ±
Ġfitness
emeleri
ĠyÃ¶netilen
Uygulama
ĠplanlarÄ±nÄ±
ĠBahÃ§esi
Åŀehit
ĠÅŁikayetleri
Ġuyuy
Ä°G
memeli
mali
Ġolmamakla
ĠilerledikÃ§e
ĠbirleÅŁtiren
ĠEli
ĠzarÄ±
ball
ĠdÃ¼zenin
ĠtakÄ±mlarÄ±ndan
Ä°Ãĸ
Ġfarkla
ĠeÅŁine
Ġtelekom
Ġbilgileriniz
Ġdesteklen
Psik
ĠHesabÄ±
ĠoranlarÄ±nÄ±
Ġprenses
ĠtakÄ±mÄ±nda
KÃ¼resel
Ġdurun
Ġvajin
Ġgirmeyi
Ġbariyer
ĠortaklarÄ±
Ġnumun
Ġkokusunu
Ġbildik
ĠVizyon
ĠkonulmasÄ±
ĠMÃ¼h
Ġmiktarlarda
Ġ(+
ĠyatÄ±yor
ĠsaklÄ±dÄ±r
ĠSanatlarÄ±
ĠyakasÄ±nda
bilg
ĠTarÄ±msal
Ġkodunu
Ġpolik
Ġsahtek
ĠtaÅŁÄ±dÄ±ÄŁÄ±nÄ±
Ġgenelindeki
Milliyet
Ġrehin
ĠSeyit
tema
ĠgÃ¼zeldir
arat
Ġkamuoyunun
ĠbabamÄ±n
ĠbakÄ±ÅŁta
ĠBandÄ±rma
Trans
Ġgelmeyen
ĠTÄ°C
ĠiÃ§ime
ĠCenevre
Hasan
iyad
ĠkoÅŁullarÄ±nÄ±n
Diyanet
PO
amadÄ±k
Ä±rsÄ±nÄ±z
Ġpel
ĠÃĩamaÅŁÄ±r
ĠbirleÅŁtirerek
ĠiÅŁlerinin
ĠkullanÄ±mÄ±nda
indekiler
DÃ¶rt
Ġacayip
erik
ĠÃ§alÄ±ÅŁÄ±yordu
ĠithalatÄ±
ĠdÃ¶vme
ĠanlamadÄ±m
Ø¹
Ġinisiyat
Ġorgazm
ĠKarabaÄŁ
Ġ650
Ä±labilmesi
Ġgizlice
laÅŁtÄ±rmak
arkod
GÃ¼Ã§
ĠÃ¼yenin
ĠzÄ±rhlÄ±
Ġadana
Ġhekimi
ĠâĤ¬
eratÃ¶r
Ġsinemaya
gerÃ§ek
vas
ilmezi
Ġbizlerle
Ġturistler
tÃ¼ÄŁ
Ġresepsiyon
ĠÃĩalÄ±ÅŁmasÄ±
Tarihi
ML
ĠmallarÄ±
Ġmevcu
ĠborÃ§larÄ±
Ġdolardan
Ġreklamlar
ĠKenti
Ġboyle
Ġelin
ĠreklamlarÄ±
aryen
ĠKÄ±n
Hey
chain
ĠÃ§aÄŁÄ±
Ġpem
ĠyayÄ±nlanmÄ±ÅŁ
ĠseÃ§ti
ĠBaÄŁÄ±ÅŁ
ĠdÃ¼ÅŁÃ¼rmek
ĠiÅŁim
Ġevlere
Ġharfi
Ġblogger
Ġedilmeyen
ĠSoya
Ġfree
Ġhaftaki
Ġmasada
ÅŁit
AMAN
Ġtic
Ġtedavinin
lamanÄ±z
Ġposter
ĠimzalandÄ±
cÄ±lÄ±ÄŁa
Ġikon
ĠTopÃ§u
Ġdiyorsunuz
cia
[...]
